{
  "0": "0",
  "1": "1",
  "2": "2",
  "3": "3",
  "4": "4",
  "5": "5",
  "6": "6",
  "7": "7",
  "8": "8",
  "9": "9",
  "10": "a",
  "11": "b",
  "12": "c",
  "13": "d",
  "14": "e",
  "15": "f",
  "16": "Ġ",
  "17": "<|EOF|>",
  "18": "<|MASK|>",
  "19": "<|UNK|>",
  "20": "<|PAD|>",
  "21": "00",
  "23": "04",
  "22": "08",
  "25": "02",
  "29": "ff",
  "30": "cc",
  "34": "01",
  "38": "74",
  "43": "65",
  "32": "88",
  "49": "69",
  "48": "72",
  "45": "73",
  "47": "75",
  "40": "03",
  "55": "6e",
  "24": "0000",
  "33": "15",
  "264": "db",
  "56": "79",
  "174": "7b",
  "233": "d5",
  "71": "63",
  "132": "a9",
  "227": "d3",
  "287": "ab",
  "195": "a5",
  "88": "62",
  "150": "64",
  "66": "7e",
  "319": "d4",
  "200": "a2",
  "232": "d2",
  "151": "ae",
  "173": "6b",
  "184": "de",
  "177": "d9",
  "198": "a3",
  "46": "6f",
  "293": "a4",
  "26": "102",
  "27": "0408",
  "28": "1020408",
  "31": "06",
  "35": "00001020408",
  "36": "05",
  "37": "bf",
  "39": "102040800001020408",
  "41": "22",
  "42": "11",
  "44": "44",
  "50": "102040800001020408102040800001020408",
  "51": "cf",
  "52": "0a",
  "53": "7d",
  "54": "09",
  "57": "49",
  "58": "bd",
  "59": "b3",
  "60": "0c",
  "61": "be",
  "62": "42",
  "63": "7f",
  "64": "b5",
  "65": "b9",
  "67": "6d",
  "68": "83",
  "69": "ba",
  "70": "8d",
  "72": "7a",
  "73": "12",
  "74": "b4",
  "75": "0f",
  "76": "0d",
  "77": "13",
  "78": "0e",
  "79": "6c",
  "80": "b2",
  "81": "6a",
  "82": "1d",
  "83": "85",
  "84": "1f",
  "85": "7c",
  "86": "19",
  "87": "1e",
  "89": "8e",
  "90": "bc",
  "91": "45",
  "92": "8f",
  "93": "8a",
  "94": "89",
  "95": "4c",
  "96": "1a",
  "97": "108",
  "98": "1c",
  "99": "82",
  "100": "33",
  "101": "4d",
  "102": "55",
  "103": "4f",
  "104": "4e",
  "105": "488",
  "106": "43",
  "107": "00002",
  "108": "07",
  "109": "4a",
  "110": "cccc",
  "111": "5d",
  "112": "2a",
  "113": "99",
  "114": "3e",
  "115": "8c",
  "116": "3f",
  "117": "39",
  "118": "104",
  "119": "3c",
  "120": "ed",
  "121": "000000",
  "122": "5f",
  "123": "aa",
  "124": "ef",
  "125": "e9",
  "126": "3d",
  "127": "2d",
  "128": "59",
  "129": "ad",
  "130": "2c",
  "131": "29",
  "133": "61",
  "134": "5c",
  "135": "2f",
  "136": "af",
  "137": "102040800001020408102040800001020408102040800001020408102040800001020408",
  "138": "b7",
  "139": "ec",
  "140": "0b",
  "141": "2e",
  "142": "ac",
  "143": "dd",
  "144": "41",
  "145": "5e",
  "146": "67",
  "147": "53",
  "148": "ff15",
  "149": "8b",
  "152": "66",
  "153": "9f",
  "154": "082",
  "155": "df",
  "156": "81",
  "157": "52",
  "158": "bb",
  "159": "5a",
  "160": "0006",
  "161": "9c",
  "162": "ee",
  "163": "77",
  "164": "00000000",
  "165": "dc",
  "166": "68",
  "167": "23",
  "168": "400002",
  "169": "1080000",
  "170": "0000108",
  "171": "08208",
  "172": "108000042",
  "175": "3a",
  "176": "001",
  "178": "8bf",
  "179": "0820800002",
  "180": "71",
  "181": "0000108400002",
  "182": "0100",
  "183": "25",
  "185": "9e",
  "186": "14",
  "187": "78",
  "188": "35",
  "189": "76",
  "190": "08208000020820800002",
  "191": "32",
  "192": "9d",
  "193": "84",
  "194": "1080000420000108400002",
  "196": "b1",
  "197": "cccccccc",
  "199": "b8",
  "201": "060c",
  "202": "ce",
  "203": "54",
  "204": "16",
  "205": "0000104",
  "206": "102040800001020408102040800001020408102040800001020408102040800001020408102040800001020408102040800001020408102040800001020408102040800001020408",
  "207": "b6",
  "208": "c9",
  "209": "1040000104",
  "210": "f9",
  "211": "18",
  "212": "cd",
  "213": "fe",
  "214": "48",
  "215": "c3",
  "216": "415",
  "217": "47",
  "218": "0044",
  "219": "da",
  "220": "00488",
  "221": "ffff",
  "222": "86",
  "223": "93",
  "224": "5b",
  "225": "92",
  "226": "46",
  "228": "1b",
  "229": "ea",
  "230": "17",
  "231": "95",
  "234": "10800004200001084000021080000420000108400002",
  "235": "e3",
  "236": "9a",
  "237": "10400001041040000104",
  "238": "4b",
  "239": "87",
  "240": "fc",
  "241": "805",
  "242": "0022",
  "243": "e5",
  "244": "0488",
  "245": "fd",
  "246": "183",
  "247": "28",
  "248": "0011",
  "249": "0000000000000000",
  "250": "ca",
  "251": "0800",
  "252": "e2",
  "253": "f3",
  "254": "c5",
  "255": "0d00",
  "256": "fa",
  "257": "2b",
  "258": "24",
  "259": "f5",
  "260": "0004",
  "261": "100",
  "262": "56",
  "263": "36",
  "265": "8800",
  "266": "0700",
  "267": "26",
  "268": "3b",
  "269": "300",
  "270": "08001",
  "271": "96",
  "272": "060c08001",
  "273": "060c0800103",
  "274": "183060c0800103",
  "275": "183060c0800103060c",
  "276": "183060c0800103060c183060c0800103060c",
  "277": "d7",
  "278": "0820800002082080000208208000020820800002",
  "279": "37",
  "280": "f2",
  "281": "002222",
  "282": "0900",
  "283": "eb",
  "284": "38",
  "285": "34",
  "286": "102040800001020408102040800001020408102040800001020408102040800001020408102040800001020408102040800001020408102040800001020408102040800001020408102040800001020408102040800001020408102040800001020408102040800001020408102040800001020408102040800001020408102040800001020408102040800001020408",
  "288": "cf805",
  "289": "a6",
  "290": "51",
  "291": "0200",
  "292": "fff",
  "294": "8001",
  "295": "57",
  "296": "049",
  "297": "a7",
  "298": "c2",
  "299": "8001000000",
  "300": "e6",
  "301": "e7",
  "302": "004444",
  "303": "27",
  "304": "498bf",
  "305": "d6",
  "306": "c8",
  "307": "94",
  "308": "488bf",
  "309": "97",
  "310": "9b",
  "311": "002222002222",
  "312": "58",
  "313": "c6",
  "314": "31",
  "315": "91",
  "316": "00f",
  "317": "e4",
  "318": "d8",
  "320": "a8",
  "321": "001111",
  "322": "a1",
  "323": "98",
  "324": "004444004444",
  "325": "e1",
  "326": "072",
  "327": "0600",
  "328": "0500",
  "329": "c7",
  "330": "074",
  "331": "cb",
  "332": "f6",
  "333": "010000",
  "334": "888800",
  "335": "706",
  "336": "21",
  "337": "bdf",
  "338": "d1",
  "339": "10204",
  "340": "8d1d",
  "341": "85c",
  "342": "e8",
  "343": "41ff",
  "344": "075",
  "345": "f5d",
  "346": "4c8bf",
  "347": "fb",
  "348": "0008",
  "349": "001111001111",
  "350": "ff00",
  "351": "f7",
  "352": "0ff15",
  "353": "c4",
  "354": "01020408",
  "355": "888800888800",
  "356": "b415",
  "357": "cccccccccccccccc",
  "358": "f4",
  "359": "1040000104104000010410400001041040000104",
  "360": "41ff13",
  "361": "073",
  "362": "200",
  "363": "408",
  "364": "128",
  "365": "10204080000",
  "366": "00000000000000000000000000000000",
  "367": "060006",
  "368": "7ef",
  "369": "8be",
  "370": "c1",
  "371": "012",
  "372": "007",
  "373": "488d",
  "374": "cf9",
  "375": "027",
  "376": "042",
  "377": "102040800001020408102040800001020408102040800001020408",
  "378": "0002",
  "379": "cc0044",
  "380": "488b",
  "381": "015",
  "382": "1282",
  "383": "f1",
  "384": "f8",
  "385": "1080000420000108400002108000042000010840000210800004200001084000021080000420000108400002",
  "386": "800",
  "387": "040006",
  "388": "6574",
  "389": "6500",
  "390": "00000100",
  "391": "0b2",
  "392": "079",
  "393": "183060c0800103060c183060c0800103060c183060c0800103060c183060c0800103060c",
  "394": "0b9",
  "395": "7ff",
  "396": "0b3",
  "397": "07000000",
  "398": "07d",
  "399": "cc0044cc0044",
  "400": "e415",
  "401": "0ff",
  "402": "0900488",
  "403": "0300",
  "404": "6f6e",
  "405": "cf8058001000000",
  "406": "6572",
  "407": "102040800001020408102040800001020408102040800001020408102040800001020408102040800001020408102040800001020408102040800001020408102040800001020408102040800001020408102040800001020408102040800001020408102040800001020408102040800001020408102040800001020408102040800001020408102040800001020408102040800001020408102040800001020408102040800001020408102040800001020408102040800001020408102040800001020408102040800001020408102040800001020408102040800001020408102040800001020408102040800001020408102040800001020408102040800001020408102040800001020408102040800001020408102040800001020408",
  "408": "7df",
  "409": "000002",
  "410": "0b5",
  "411": "0400",
  "412": "b4c",
  "413": "cccccc",
  "414": "e415f5d",
  "415": "bef",
  "416": "172",
  "417": "a22",
  "418": "945",
  "419": "0a00",
  "420": "498",
  "421": "0ba",
  "422": "010006",
  "423": "07f",
  "424": "07a",
  "425": "005",
  "426": "00000a",
  "427": "050006",
  "428": "62a",
  "429": "79f",
  "430": "0203",
  "431": "022",
  "432": "8bff",
  "433": "696e",
  "434": "030006",
  "435": "6c2",
  "436": "fcf8058001000000",
  "437": "0bcf805",
  "438": "b5f",
  "439": "644",
  "440": "010004",
  "441": "393f",
  "442": "804",
  "443": "07e",
  "444": "08208000020820800002082080000208208000020820800002082080000208208000020820800002",
  "445": "0be",
  "446": "b3d",
  "447": "101",
  "448": "498d",
  "449": "400",
  "450": "7cf",
  "451": "bff",
  "452": "ffffff",
  "453": "0cc",
  "454": "07c",
  "455": "4c8d1d",
  "456": "0bd",
  "457": "08400002",
  "458": "099",
  "459": "0bf",
  "460": "baf",
  "461": "600",
  "462": "00000bcf805",
  "463": "73f",
  "464": "7bf",
  "465": "ccf",
  "466": "04c",
  "467": "75f",
  "468": "74f",
  "469": "002",
  "470": "00005b",
  "471": "052",
  "472": "78f",
  "473": "7400",
  "474": "51f",
  "475": "b75",
  "476": "7300",
  "477": "b3f",
  "478": "206",
  "479": "749",
  "480": "fcf8058001000000fcf8058001000000",
  "481": "500",
  "482": "402",
  "483": "d415",
  "484": "002222002222002222002222",
  "485": "71f",
  "486": "6ff",
  "487": "b9f",
  "488": "bcf",
  "489": "0bc",
  "490": "0b4",
  "491": "5b415",
  "492": "0202",
  "493": "669",
  "494": "393f41ff13",
  "495": "0015",
  "496": "059",
  "497": "b7f",
  "498": "b6f",
  "499": "118",
  "500": "d415e415f5d",
  "501": "7af",
  "502": "7415",
  "503": "10204080000102",
  "504": "ff2",
  "505": "ffe",
  "506": "702",
  "507": "7de",
  "508": "674",
  "509": "10204080008",
  "510": "0101",
  "511": "b4f",
  "512": "1283",
  "513": "660022",
  "514": "175",
  "515": "4c8be",
  "516": "645",
  "517": "109",
  "518": "3c408",
  "519": "722",
  "520": "0700488",
  "521": "009",
  "522": "04d",
  "523": "55415",
  "524": "0fe",
  "525": "7dd",
  "526": "72f",
  "527": "019",
  "528": "0cf",
  "529": "004444004444004444004444",
  "530": "b2f",
  "531": "40e",
  "532": "01000a",
  "533": "bec",
  "534": "06000000",
  "535": "10488",
  "536": "802",
  "537": "602",
  "538": "33c",
  "539": "77f",
  "540": "808",
  "541": "3f0015",
  "542": "656e",
  "543": "8ff15",
  "544": "122",
  "545": "76e",
  "546": "406",
  "547": "00042",
  "548": "bf3",
  "549": "708",
  "550": "6dd",
  "551": "01c",
  "552": "8bc",
  "553": "6174",
  "554": "032",
  "555": "b6c",
  "556": "bde",
  "557": "69f",
  "558": "79e",
  "559": "cf905",
  "560": "b8f",
  "561": "b4d",
  "562": "b5d",
  "563": "cf9058001000000",
  "564": "73e",
  "565": "b02",
  "566": "10a",
  "567": "0000000000000000000000000000000000000000000000000000000000000000",
  "568": "103",
  "569": "0089",
  "570": "bed",
  "571": "75e",
  "572": "639",
  "573": "1a5",
  "574": "00000bcf80500",
  "575": "0498bf",
  "576": "849",
  "577": "7ff15",
  "578": "b08",
  "579": "3ff",
  "580": "7ed",
  "581": "1020408000010204",
  "582": "b7d",
  "583": "b06",
  "584": "001111001111001111001111",
  "585": "0104",
  "586": "65f",
  "587": "75d",
  "588": "01e",
  "589": "7ee",
  "590": "b6d",
  "591": "8488",
  "592": "769",
  "593": "03300",
  "594": "05f",
  "595": "6ad",
  "596": "453",
  "597": "b85",
  "598": "b04",
  "599": "6400",
  "600": "8dc",
  "601": "00000200",
  "602": "7fd",
  "603": "700",
  "604": "73d",
  "605": "cfd",
  "606": "0f9",
  "607": "704",
  "608": "222",
  "609": "76f",
  "610": "79d",
  "611": "ba9",
  "612": "8e9",
  "613": "0488d",
  "614": "642",
  "615": "65d",
  "616": "b2c",
  "617": "b55",
  "618": "b69",
  "619": "8bd",
  "620": "001133",
  "621": "753",
  "622": "7fe",
  "623": "a29",
  "624": "039",
  "625": "608",
  "626": "b29",
  "627": "b3e",
  "628": "880099",
  "629": "b9d",
  "630": "544",
  "631": "062",
  "632": "72e",
  "633": "b9e",
  "634": "01000000",
  "635": "132",
  "636": "b1f",
  "637": "842",
  "638": "84d",
  "639": "6af",
  "640": "ffd",
  "641": "10d",
  "642": "cfe",
  "643": "bcd",
  "644": "a2a",
  "645": "bbf",
  "646": "b6e",
  "647": "649",
  "648": "888800888800888800888800",
  "649": "7dc",
  "650": "b5c",
  "651": "b74",
  "652": "8ad",
  "653": "7be",
  "654": "73c",
  "655": "6ff15",
  "656": "199",
  "657": "78e",
  "658": "a04",
  "659": "b00",
  "660": "759",
  "661": "6fe",
  "662": "479",
  "663": "83c",
  "664": "0e9",
  "665": "616c",
  "666": "5e00",
  "667": "83f",
  "668": "7ae",
  "669": "ffc",
  "670": "b99",
  "671": "01f",
  "672": "81c",
  "673": "b05",
  "674": "71e",
  "675": "bac",
  "676": "bad",
  "677": "80f",
  "678": "3ec",
  "679": "554157415",
  "680": "88d",
  "681": "183060c0800103060c183060c0800103060c183060c0800103060c183060c0800103060c183060c0800103060c183060c0800103060c183060c0800103060c183060c0800103060c",
  "682": "66d",
  "683": "7ce",
  "684": "159",
  "685": "040800001020408",
  "686": "b13",
  "687": "660022660022",
  "688": "7e9",
  "689": "533",
  "690": "8fe",
  "691": "b49",
  "692": "61e",
  "693": "7b3",
  "694": "803",
  "695": "7bd",
  "696": "142",
  "697": "04e",
  "698": "1080000420000108",
  "699": "572",
  "700": "bce",
  "701": "75c",
  "702": "1cf",
  "703": "799",
  "704": "652",
  "705": "3cf",
  "706": "63f",
  "707": "6cd",
  "708": "6aa",
  "709": "5e003f0015",
  "710": "62d",
  "711": "69e",
  "712": "02f",
  "713": "112",
  "714": "69d",
  "715": "c415",
  "716": "b53",
  "717": "105",
  "718": "6a9",
  "719": "0800488",
  "720": "10204080c",
  "721": "b92",
  "722": "b95",
  "723": "b2d",
  "724": "413",
  "725": "46e",
  "726": "119",
  "727": "7ad",
  "728": "819",
  "729": "7d9",
  "730": "7da",
  "731": "6a3",
  "732": "68d",
  "733": "3c4085b415",
  "734": "b1d",
  "735": "12d",
  "736": "672",
  "737": "0c3",
  "738": "bbd",
  "739": "51e",
  "740": "092",
  "741": "b73",
  "742": "0a00488",
  "743": "76d",
  "744": "0a9",
  "745": "742",
  "746": "020006",
  "747": "bae",
  "748": "b2a",
  "749": "3ef",
  "750": "7c3",
  "751": "020408",
  "752": "069",
  "753": "b8d",
  "754": "7cd",
  "755": "63c",
  "756": "0ad",
  "757": "00005b0089",
  "758": "6900",
  "759": "74d",
  "760": "0fd",
  "761": "006",
  "762": "05a",
  "763": "ba3",
  "764": "4889",
  "765": "b2e",
  "766": "6bf",
  "767": "433",
  "768": "7a9",
  "769": "78d",
  "770": "659",
  "771": "b3c",
  "772": "6bd",
  "773": "64f",
  "774": "b4e",
  "775": "63e",
  "776": "09e",
  "777": "488b7",
  "778": "b59",
  "779": "71d",
  "780": "baa",
  "781": "64a",
  "782": "01a",
  "783": "6ae",
  "784": "69c",
  "785": "7c9",
  "786": "b39",
  "787": "39f",
  "788": "b1e",
  "789": "c415d415e415f5d",
  "790": "6fc",
  "791": "b9c",
  "792": "49c",
  "793": "be9",
  "794": "09f",
  "795": "6fd",
  "796": "705",
  "797": "79c",
  "798": "62f",
  "799": "813",
  "800": "6c9",
  "801": "b89",
  "802": "10f",
  "803": "81e",
  "804": "b45",
  "805": "8fd",
  "806": "095",
  "807": "65c",
  "808": "739",
  "809": "040004",
  "810": "455",
  "811": "80c",
  "812": "7c2",
  "813": "8ae",
  "814": "653",
  "815": "49e",
  "816": "6ed",
  "817": "b15",
  "818": "84a",
  "819": "643",
  "820": "715",
  "821": "74e",
  "822": "06f",
  "823": "74c",
  "824": "792",
  "825": "10800004200001084000021080000420000108400002108000042000010840000210800004200001084000021080000420000108400002108000042000010840000210800004200001084000021080000420000108400002",
  "826": "6ef",
  "827": "77e",
  "828": "11d",
  "829": "7f9",
  "830": "b44",
  "831": "675",
  "832": "685",
  "833": "81d",
  "834": "6cf",
  "835": "8ac",
  "836": "82c",
  "837": "163",
  "838": "72a",
  "839": "173",
  "840": "0001020408",
  "841": "1c9",
  "842": "84c",
  "843": "bdd",
  "844": "815",
  "845": "43f",
  "846": "b5e",
  "847": "b32",
  "848": "7cc",
  "849": "bfd",
  "850": "603",
  "851": "81f",
  "852": "102040800001020408102040800001020408102040800001020408102040800001020408102040800001020408102040800001020408102040800001020408102040800001020408102040800001020408102040800001020408102040800001020408102040800001020408102040800001020408102040800001020408102040800001020408102040800001020408102040800001020408102040800001020408102040800001020408102040800001020408102040800001020408102040800001020408102040800001020408102040800001020408102040800001020408102040800001020408102040800001020408102040800001020408102040800001020408102040800001020408102040800001020408102040800001020408102040800001020408102040800001020408102040800001020408102040800001020408102040800001020408102040800001020408102040800001020408102040800001020408102040800001020408102040800001020408102040800001020408102040800001020408102040800001020408102040800001020408102040800001020408102040800001020408102040800001020408102040800001020408102040800001020408102040800001020408102040800001020408102040800001020408102040800001020408102040800001020408102040800001020408102040800001020408102040800001020408102040800001020408102040800001020408102040800001020408102040800001020408102040800001020408",
  "853": "68e",
  "854": "04f",
  "855": "6df",
  "856": "b7a",
  "857": "b8e",
  "858": "713",
  "859": "bee",
  "860": "0ed",
  "861": "71a",
  "862": "0c9",
  "863": "b43",
  "864": "6963",
  "865": "0108400002",
  "866": "bc3",
  "867": "70f",
  "868": "69a",
  "869": "0a3",
  "870": "64e",
  "871": "b63",
  "872": "619",
  "873": "b93",
  "874": "8df",
  "875": "10400001041040000104104000010410400001041040000104104000010410400001041040000104",
  "876": "bf9",
  "877": "67a",
  "878": "cc9",
  "879": "7f08",
  "880": "bd9",
  "881": "b35",
  "882": "7b5",
  "883": "844",
  "884": "61f",
  "885": "880099880099",
  "886": "735",
  "887": "6dc",
  "888": "6f9",
  "889": "029",
  "890": "899",
  "891": "7f5",
  "892": "8f9",
  "893": "41c",
  "894": "b0f",
  "895": "6415",
  "896": "72d",
  "897": "85f",
  "898": "7d3",
  "899": "01d",
  "900": "6ce",
  "901": "12f",
  "902": "bdc",
  "903": "629",
  "904": "8af",
  "905": "0404",
  "906": "b33",
  "907": "b0d",
  "908": "09d",
  "909": "00d",
  "910": "bda",
  "911": "622",
  "912": "4f5",
  "913": "62e",
  "914": "79a",
  "915": "123",
  "916": "11f",
  "917": "703",
  "918": "b9a",
  "919": "129",
  "920": "6e9",
  "921": "b19",
  "922": "7fc",
  "923": "7d00",
  "924": "4fe",
  "925": "b23",
  "926": "7e3",
  "927": "49f",
  "928": "72c",
  "929": "61a",
  "930": "b4a",
  "931": "11c",
  "932": "0ee",
  "933": "65e",
  "934": "bfe",
  "935": "006500",
  "936": "8fc",
  "937": "06c",
  "938": "8a9",
  "939": "be5",
  "940": "405",
  "941": "6da",
  "942": "7fa",
  "943": "020000",
  "944": "8dd",
  "945": "8c9",
  "946": "692",
  "947": "745",
  "948": "b1a",
  "949": "863",
  "950": "775",
  "951": "6100",
  "952": "bc9",
  "953": "bf5",
  "954": "695",
  "955": "6f00",
  "956": "70d",
  "957": "bd3",
  "958": "cf3",
  "959": "0505",
  "960": "699",
  "961": "64d",
  "962": "65a",
  "963": "733",
  "964": "693",
  "965": "b22",
  "966": "001133001133",
  "967": "8cd",
  "968": "133",
  "969": "7ca",
  "970": "795",
  "971": "11e",
  "972": "111",
  "973": "663",
  "974": "6a5",
  "975": "655",
  "976": "244",
  "977": "14a",
  "978": "839",
  "979": "cfc",
  "980": "06d",
  "981": "89f",
  "982": "719",
  "983": "bc5",
  "984": "61d",
  "985": "12c",
  "986": "bb5",
  "987": "7374",
  "988": "66f",
  "989": "8b5",
  "990": "62c",
  "991": "845",
  "992": "04a",
  "993": "02e",
  "994": "8ce",
  "995": "7c5",
  "996": "615",
  "997": "65745f",
  "998": "bff15",
  "999": "6b5",
  "1000": "12e",
  "1001": "743",
  "1002": "03c",
  "1003": "cccccccccccccccccccccccc",
  "1004": "1f9",
  "1005": "cce",
  "1006": "696f6e",
  "1007": "cc0044cc0044cc0044cc0044",
  "1008": "0102",
  "1009": "682",
  "1010": "0fc",
  "1011": "729",
  "1012": "83d",
  "1013": "7d2",
  "1014": "125",
  "1015": "6ac",
  "1016": "70a",
  "1017": "0a06",
  "1018": "48e",
  "1019": "66e",
  "1020": "463",
  "1021": "3c9",
  "1022": "7ac",
  "1023": "0cd",
  "1024": "b42",
  "1025": "859",
  "1026": "000004",
  "1027": "7b9",
  "1028": "139",
  "1029": "723",
  "1030": "065",
  "1031": "41e",
  "1032": "793",
  "1033": "144",
  "1034": "0488bf",
  "1035": "76c",
  "1036": "6de",
  "1037": "ccc",
  "1038": "60a",
  "1039": "1fc",
  "1040": "89c",
  "1041": "81a",
  "1042": "003",
  "1043": "6d9",
  "1044": "4dc",
  "1045": "61c",
  "1046": "ccd",
  "1047": "6ba",
  "1048": "8d9",
  "1049": "bb3",
  "1050": "7ec",
  "1051": "021",
  "1052": "7f2",
  "1053": "67d",
  "1054": "55d",
  "1055": "77d",
  "1056": "616d",
  "1057": "0ef",
  "1058": "b25",
  "1059": "edd",
  "1060": "763",
  "1061": "605",
  "1062": "0d9",
  "1063": "145",
  "1064": "15d",
  "1065": "604",
  "1066": "0800001020408",
  "1067": "cca",
  "1068": "88c",
  "1069": "7aa",
  "1070": "02c",
  "1071": "4cf",
  "1072": "036f",
  "1073": "40f",
  "1074": "06e",
  "1075": "6d3",
  "1076": "06a",
  "1077": "bb9",
  "1078": "393",
  "1079": "233",
  "1080": "ff9",
  "1081": "2acccccc",
  "1082": "bfc",
  "1083": "553",
  "1084": "b03",
  "1085": "1104",
  "1086": "b4c8d1d",
  "1087": "829",
  "1088": "422",
  "1089": "85d",
  "1090": "7ea",
  "1091": "6e00",
  "1092": "732",
  "1093": "49d",
  "1094": "82e",
  "1095": "b79",
  "1096": "6ee",
  "1097": "6f72",
  "1098": "bea",
  "1099": "1ec",
  "1100": "892",
  "1101": "7ba",
  "1102": "7f3",
  "1103": "85a",
  "1104": "0dd",
  "1105": "8f5",
  "1106": "495",
  "1107": "b65",
  "1108": "665",
  "1109": "4ed",
  "1110": "4f9",
  "1111": "05c",
  "1112": "114",
  "1113": "b09",
  "1114": "0ea",
  "1115": "82a",
  "1116": "623",
  "1117": "83e",
  "1118": "02d",
  "1119": "ef9",
  "1120": "14d",
  "1121": "6ea",
  "1122": "b1c",
  "1123": "7e5",
  "1124": "be3",
  "1125": "0ec",
  "1126": "6b3",
  "1127": "1fd",
  "1128": "8da",
  "1129": "45f",
  "1130": "0600488",
  "1131": "3df",
  "1132": "55f",
  "1133": "709",
  "1134": "8ec",
  "1135": "8a5",
  "1136": "000006",
  "1137": "8ef",
  "1138": "8c3",
  "1139": "a9f",
  "1140": "135",
  "1141": "4ef",
  "1142": "1d9",
  "1143": "4ee",
  "1144": "77a",
  "1145": "efd",
  "1146": "12a",
  "1147": "1dd",
  "1148": "755",
  "1149": "625",
  "1150": "edf",
  "1151": "0ce",
  "1152": "013",
  "1153": "822",
  "1154": "11a",
  "1155": "8ea",
  "1156": "ba5",
  "1157": "0dc",
  "1158": "71c",
  "1159": "8ca",
  "1160": "4ce",
  "1161": "b52",
  "1162": "bd5",
  "1163": "725",
  "1164": "800001020408",
  "1165": "1f2",
  "1166": "12827c",
  "1167": "80a",
  "1168": "82d",
  "1169": "08d",
  "1170": "15f",
  "1171": "66a",
  "1172": "44f",
  "1173": "e9d",
  "1174": "89d",
  "1175": "48ff2",
  "1176": "82f",
  "1177": "6e5",
  "1178": "75a",
  "1179": "1f3",
  "1180": "155",
  "1181": "0b7",
  "1182": "395",
  "1183": "1a9",
  "1184": "8b4",
  "1185": "bc2",
  "1186": "8b9",
  "1187": "8f3",
  "1188": "783",
  "1189": "60f",
  "1190": "4fd",
  "1191": "b6a",
  "1192": "6c5",
  "1193": "74a",
  "1194": "05d",
  "1195": "03e",
  "1196": "5541574156415",
  "1197": "6fa",
  "1198": "1af",
  "1199": "67e",
  "1200": "6b9",
  "1201": "673",
  "1202": "13c",
  "1203": "7a3",
  "1204": "00c",
  "1205": "19f",
  "1206": "79706",
  "1207": "03d",
  "1208": "3ed",
  "1209": "43e",
  "1210": "6c3",
  "1211": "8de",
  "1212": "08f",
  "1213": "13d",
  "1214": "b5a",
  "1215": "4af",
  "1216": "855",
  "1217": "1ff",
  "1218": "08e",
  "1219": "e9f",
  "1220": "1e3",
  "1221": "05e",
  "1222": "b3a",
  "1223": "7d005e003f0015",
  "1224": "498bf7ff15",
  "1225": "809",
  "1226": "1b9",
  "1227": "6ec",
  "1228": "8a3",
  "1229": "10c",
  "1230": "499",
  "1231": "6ca",
  "1232": "7d5",
  "1233": "7a5",
  "1234": "8ba",
  "1235": "1ed",
  "1236": "67f",
  "1237": "043",
  "1238": "bb2",
  "1239": "1cf9058001000000",
  "1240": "772",
  "1241": "88e",
  "1242": "4ae",
  "1243": "03f",
  "1244": "bfa",
  "1245": "1cf90580010000001cf9058001000000",
  "1246": "106",
  "1247": "1ef",
  "1248": "70e",
  "1249": "0a2",
  "1250": "773",
  "1251": "1e9",
  "1252": "8fa",
  "1253": "0de",
  "1254": "873",
  "1255": "679",
  "1256": "423",
  "1257": "0ac",
  "1258": "489",
  "1259": "689",
  "1260": "492",
  "1261": "b62",
  "1262": "cfa",
  "1263": "779",
  "1264": "8aa",
  "1265": "b7e",
  "1266": "87f",
  "1267": "189",
  "1268": "ede",
  "1269": "15c",
  "1270": "42e",
  "1271": "cf5",
  "1272": "bd2",
  "1273": "6cc",
  "1274": "6f3",
  "1275": "13f",
  "1276": "63d",
  "1277": "4b5",
  "1278": "0af",
  "1279": "cf2",
  "1280": "08c",
  "1281": "85c00f",
  "1282": "88f",
  "1283": "162",
  "1284": "8f2",
  "1285": "00e",
  "1286": "bbe",
  "1287": "6d5",
  "1288": "1cc",
  "1289": "1b5",
  "1290": "4cd",
  "1291": "bba",
  "1292": "59f",
  "1293": "559",
  "1294": "85e",
  "1295": "0ae",
  "1296": "76a",
  "1297": "19c",
  "1298": "84f",
  "1299": "33f",
  "1300": "4de",
  "1301": "29f",
  "1302": "765",
  "1303": "045",
  "1304": "8a2",
  "1305": "874",
  "1306": "8ff",
  "1307": "6be",
  "1308": "86a",
  "1309": "0a5",
  "1310": "45c",
  "1311": "6d2",
  "1312": "bca",
  "1313": "4ff",
  "1314": "875",
  "1315": "efe",
  "1316": "1fe",
  "1317": "488b4",
  "1318": "498bff",
  "1319": "439",
  "1320": "475",
  "1321": "0df",
  "1322": "6f5",
  "1323": "02a",
  "1324": "000000ff15",
  "1325": "089",
  "1326": "465",
  "1327": "1ad",
  "1328": "1a3",
  "1329": "0aa",
  "1330": "8e3",
  "1331": "6765745f",
  "1332": "774",
  "1333": "10e",
  "1334": "5df",
  "1335": "195",
  "1336": "229",
  "1337": "889",
  "1338": "3e9",
  "1339": "8b7",
  "1340": "4c9",
  "1341": "601",
  "1342": "17d",
  "1343": "b7c",
  "1344": "762",
  "1345": "13e",
  "1346": "e9e",
  "1347": "449",
  "1348": "19e",
  "1349": "60e",
  "1350": "14f",
  "1351": "4dd",
  "1352": "8ee",
  "1353": "99f",
  "1354": "7b2",
  "1355": "45d",
  "1356": "0f2",
  "1357": "1ea",
  "1358": "6573",
  "1359": "63a",
  "1360": "1dc",
  "1361": "862",
  "1362": "053",
  "1363": "883",
  "1364": "4a9",
  "1365": "609",
  "1366": "485",
  "1367": "496e",
  "1368": "03a",
  "1369": "469",
  "1370": "4ac",
  "1371": "b72",
  "1372": "8b3",
  "1373": "999",
  "1374": "115",
  "1375": "1ce",
  "1376": "8d3",
  "1377": "22f",
  "1378": "5c9",
  "1379": "4da",
  "1380": "4e9",
  "1381": "00a",
  "1382": "4ba",
  "1383": "68f",
  "1384": "683",
  "1385": "4ad",
  "1386": "843",
  "1387": "80e",
  "1388": "3cd",
  "1389": "8b2",
  "1390": "483",
  "1391": "aaf",
  "1392": "44e",
  "1393": "1d3",
  "1394": "16e",
  "1395": "8ed",
  "1396": "1aa",
  "1397": "3f9",
  "1398": "493",
  "1399": "459",
  "1400": "b83",
  "1401": "1df",
  "1402": "066f",
  "1403": "42c",
  "1404": "e9c",
  "1405": "1cd",
  "1406": "60d",
  "1407": "223",
  "1408": "4b2",
  "1409": "aa9",
  "1410": "edc",
  "1411": "8cc",
  "1412": "0702",
  "1413": "22c",
  "1414": "1080c",
  "1415": "8d5",
  "1416": "535",
  "1417": "45e",
  "1418": "7a2",
  "1419": "42d",
  "1420": "0ca",
  "1421": "404",
  "1422": "801",
  "1423": "861",
  "1424": "083",
  "1425": "10b",
  "1426": "09a",
  "1427": "b0e",
  "1428": "473",
  "1429": "87c",
  "1430": "4df",
  "1431": "474",
  "1432": "bb4",
  "1433": "4ea",
  "1434": "bbc",
  "1435": "869",
  "1436": "429",
  "1437": "782",
  "1438": "ba2",
  "1439": "08a",
  "1440": "030000",
  "1441": "1c5",
  "1442": "865",
  "1443": "192",
  "1444": "606",
  "1445": "785",
  "1446": "a2251f",
  "1447": "443",
  "1448": "025",
  "1449": "ed9",
  "1450": "1d5",
  "1451": "44c",
  "1452": "033",
  "1453": "bcff00",
  "1454": "789",
  "1455": "169",
  "1456": "e9a",
  "1457": "adf",
  "1458": "6e3",
  "1459": "64c",
  "1460": "ffa",
  "1461": "8d2",
  "1462": "73a",
  "1463": "77c",
  "1464": "19d",
  "1465": "6a2",
  "1466": "47a",
  "1467": "ecd",
  "1468": "153",
  "1469": "6e2",
  "1470": "4fc",
  "1471": "179",
  "1472": "193",
  "1473": "6974",
  "1474": "055",
  "1475": "b8a",
  "1476": "67c",
  "1477": "4be",
  "1478": "42f",
  "1479": "0c5",
  "1480": "6c00",
  "1481": "bcc",
  "1482": "174",
  "1483": "0820800002082080000208208000020820800002082080000208208000020820800002082080000208208000020820800002082080000208208000020820800002082080000208208000020820800002",
  "1484": "efc",
  "1485": "1ee",
  "1486": "39e",
  "1487": "4d9",
  "1488": "78a",
  "1489": "1fa",
  "1490": "5415",
  "1491": "1de",
  "1492": "87d",
  "1493": "8e5",
  "1494": "5dd",
  "1495": "2c9",
  "1496": "635",
  "1497": "4e2",
  "1498": "5dc",
  "1499": "aaa",
  "1500": "22d",
  "1501": "6f2",
  "1502": "59e",
  "1503": "1b3",
  "1504": "add",
  "1505": "1ac",
  "1506": "472",
  "1507": "811",
  "1508": "0f5",
  "1509": "55c",
  "1510": "063",
  "1511": "852",
  "1512": "1c3",
  "1513": "3fd",
  "1514": "632",
  "1515": "1da",
  "1516": "409",
  "1517": "14c",
  "1518": "7200",
  "1519": "33e",
  "1520": "488bf3",
  "1521": "090041ff13",
  "1522": "752",
  "1523": "143",
  "1524": "7e2",
  "1525": "78c",
  "1526": "6b2",
  "1527": "fcf8058001000000fcf8058001000000fcf8058001000000fcf8058001000000",
  "1528": "b11",
  "1529": "7b4",
  "1530": "99d",
  "1531": "dc3",
  "1532": "4cc",
  "1533": "15a",
  "1534": "0d3",
  "1535": "633",
  "1536": "3dd",
  "1537": "a9c",
  "1538": "2dd",
  "1539": "2a3",
  "1540": "c415d415e415f5dc3",
  "1541": "879",
  "1542": "688",
  "1543": "1bd",
  "1544": "49a",
  "1545": "4b3",
  "1546": "af9",
  "1547": "ff3",
  "1548": "0fa",
  "1549": "595",
  "1550": "0247",
  "1551": "42a",
  "1552": "188",
  "1553": "895",
  "1554": "4bf",
  "1555": "68a",
  "1556": "18d",
  "1557": "0700000086",
  "1558": "3d2",
  "1559": "1ca",
  "1560": "1ae",
  "1561": "ac9",
  "1562": "872",
  "1563": "0e5",
  "1564": "89a",
  "1565": "825",
  "1566": "aac",
  "1567": "4e3",
  "1568": "aae",
  "1569": "3fe",
  "1570": "16f",
  "1571": "ad9",
  "1572": "09c",
  "1573": "47d",
  "1574": "0403",
  "1575": "a9d",
  "1576": "13a",
  "1577": "1ba",
  "1578": "55e",
  "1579": "bb7",
  "1580": "0012",
  "1581": "656d",
  "1582": "48d",
  "1583": "7bc",
  "1584": "3ea",
  "1585": "093",
  "1586": "fff15",
  "1587": "b8c",
  "1588": "99c",
  "1589": "ff5",
  "1590": "a9a",
  "1591": "812",
  "1592": "432",
  "1593": "86d",
  "1594": "2f9",
  "1595": "023",
  "1596": "afd",
  "1597": "b0c",
  "1598": "22a",
  "1599": "102040e",
  "1600": "6172",
  "1601": "4b9",
  "1602": "4b4",
  "1603": "711",
  "1604": "0f3",
  "1605": "48a",
  "1606": "5d9",
  "1607": "4d5",
  "1608": "46f",
  "1609": "333",
  "1610": "16d",
  "1611": "ef3",
  "1612": "403",
  "1613": "4aa",
  "1614": "47f",
  "1615": "70c",
  "1616": "3ee",
  "1617": "5ee",
  "1618": "17f",
  "1619": "1b2",
  "1620": "aad",
  "1621": "4fa",
  "1622": "b12",
  "1623": "46d",
  "1624": "18f",
  "1625": "0d2",
  "1626": "498b",
  "1627": "9c00",
  "1628": "995",
  "1629": "39d",
  "1630": "462",
  "1631": "e95",
  "1632": "339",
  "1633": "3fc",
  "1634": "5cd",
  "1635": "89e",
  "1636": "2d9",
  "1637": "b88",
  "1638": "4ec",
  "1639": "87a",
  "1640": "99e",
  "1641": "46a",
  "1642": "bf2",
  "1643": "0e3",
  "1644": "823",
  "1645": "ece",
  "1646": "4d2",
  "1647": "3d5",
  "1648": "43d",
  "1649": "4bd",
  "1650": "4f2",
  "1651": "eda",
  "1652": "2df",
  "1653": "17a",
  "1654": "5da",
  "1655": "1080000420008",
  "1656": "1b4",
  "1657": "86f",
  "1658": "22e",
  "1659": "59c",
  "1660": "19a",
  "1661": "00700",
  "1662": "5ea",
  "1663": "45a",
  "1664": "5fd",
  "1665": "66c",
  "1666": "53a",
  "1667": "5ff15",
  "1668": "452",
  "1669": "5f9",
  "1670": "701",
  "1671": "b0a",
  "1672": "68c",
  "1673": "2ae",
  "1674": "29d",
  "1675": "149",
  "1676": "a9e",
  "1677": "612",
  "1678": "a92",
  "1679": "611",
  "1680": "992",
  "1681": "412",
  "1682": "3d3",
  "1683": "39c",
  "1684": "525",
  "1685": "4d3",
  "1686": "4a5",
  "1687": "832",
  "1688": "40a",
  "1689": "835",
  "1690": "613",
  "1691": "15e",
  "1692": "107",
  "1693": "1f5",
  "1694": "44d",
  "1695": "afe",
  "1696": "86c",
  "1697": "1049",
  "1698": "6bc",
  "1699": "ec9",
  "1700": "43c",
  "1701": "4c3",
  "1702": "aa3",
  "1703": "295",
  "1704": "165",
  "1705": "2fd",
  "1706": "4a3",
  "1707": "00000000000000000000000000000000000000000000000000000000000000000000000000000000000000000000000000000000000000000000000000000000",
  "1708": "498bf6ff15",
  "1709": "1020406",
  "1710": "47c",
  "1711": "8c5",
  "1712": "47e",
  "1713": "482",
  "1714": "662",
  "1715": "0da",
  "1716": "788",
  "1717": "8e2",
  "1718": "be2",
  "1719": "83a",
  "1720": "3e5",
  "1721": "cc3",
  "1722": "00000300",
  "1723": "eca",
  "1724": "e92",
  "1725": "ef5",
  "1726": "4bc",
  "1727": "85c075",
  "1728": "2d3",
  "1729": "2ea",
  "1730": "afc",
  "1731": "b01",
  "1732": "7900",
  "1733": "cc2",
  "1734": "2ad",
  "1735": "0d5",
  "1736": "6b4",
  "1737": "853",
  "1738": "86e",
  "1739": "55415741564155415",
  "1740": "1a2",
  "1741": "cc5",
  "1742": "1d2",
  "1743": "0a300",
  "1744": "ccf805",
  "1745": "ccf8058001000000",
  "1746": "555",
  "1747": "6465",
  "1748": "8cf",
  "1749": "ccf8058001000000ccf8058001000000",
  "1750": "292",
  "1751": "48c",
  "1752": "3dc",
  "1753": "3ce",
  "1754": "1bf",
  "1755": "5fc",
  "1756": "488bfbff15",
  "1757": "85b415",
  "1758": "43a",
  "1759": "552",
  "1760": "4f3",
  "1761": "2dc",
  "1762": "2f5",
  "1763": "adc",
  "1764": "16c",
  "1765": "ddd",
  "1766": "0a3009c00",
  "1767": "0a3009c007d005e003f0015",
  "1768": "2af",
  "1769": "5de",
  "1770": "ade",
  "1771": "b82",
  "1772": "3c3",
  "1773": "41f",
  "1774": "4c8b",
  "1775": "833",
  "1776": "80d",
  "1777": "a93",
  "1778": "152",
  "1779": "1105",
  "1780": "84e",
  "1781": "1012",
  "1782": "225",
  "1783": "1bc",
  "1784": "7b7",
  "1785": "2a9",
  "1786": "392",
  "1787": "16a",
  "1788": "44a",
  "1789": "17e",
  "1790": "5fe",
  "1791": "000019",
  "1792": "113",
  "1793": "48f",
  "1794": "ed3",
  "1795": "aca",
  "1796": "401",
  "1797": "7bb",
  "1798": "806",
  "1799": "183060c0800103060c183060c0800103060c183060c0800103060c183060c0800103060c183060c0800103060c183060c0800103060c183060c0800103060c183060c0800103060c183060c0800103060c183060c0800103060c183060c0800103060c183060c0800103060c183060c0800103060c183060c0800103060c183060c0800103060c183060c0800103060c",
  "1800": "aea",
  "1801": "4ca",
  "1802": "419",
  "1803": "3fa",
  "1804": "ace",
  "1805": "18a",
  "1806": "712",
  "1807": "5f5",
  "1808": "1e5",
  "1809": "87e",
  "1810": "ed5",
  "1811": "14e",
  "1812": "ada",
  "1813": "893",
  "1814": "ec5",
  "1815": "00005b0247",
  "1816": "5d3",
  "1817": "eee",
  "1818": "46c",
  "1819": "2fe",
  "1820": "55a",
  "1821": "5479706",
  "1822": "a95",
  "1823": "17c",
  "1824": "0c2",
  "1825": "b67",
  "1826": "000001",
  "1827": "0488bdf",
  "1828": "108000042000010840000210800004200001084000021080000420000108400002",
  "1829": "3de",
  "1830": "5ce",
  "1831": "5ca",
  "1832": "5fa",
  "1833": "076f",
  "1834": "0303",
  "1835": "5a3",
  "1836": "5d5",
  "1837": "9f9",
  "1838": "33d",
  "1839": "726f",
  "1840": "707",
  "1841": "afa",
  "1842": "4a2",
  "1843": "efa",
  "1844": "2cd",
  "1845": "2a2",
  "1846": "1be",
  "1847": "ed2",
  "1848": "002222002222002222002222002222002222002222002222",
  "1849": "293",
  "1850": "593",
  "1851": "3f3",
  "1852": "2e5",
  "1853": "5d2",
  "1854": "7265",
  "1855": "3c41",
  "1856": "2de",
  "1857": "ec3",
  "1858": "59a",
  "1859": "e93",
  "1860": "59d",
  "1861": "6163",
  "1862": "2d2",
  "1863": "435",
  "1864": "2e3",
  "1865": "523",
  "1866": "88a",
  "1867": "5a5",
  "1868": "085",
  "1869": "99a",
  "1870": "33ff",
  "1871": "3c5",
  "1872": "ad5",
  "1873": "616e",
  "1874": "2a5",
  "1875": "2fc",
  "1876": "41a",
  "1877": "07004c8bf",
  "1878": "18e",
  "1879": "592",
  "1880": "035",
  "1881": "8c2",
  "1882": "185",
  "1883": "4c5",
  "1884": "aee",
  "1885": "2ce",
  "1886": "5f3",
  "1887": "2ac",
  "1888": "841",
  "1889": "3d9",
  "1890": "0204",
  "1891": "0488d6c2",
  "1892": "5c5",
  "1893": "3da",
  "1894": "532",
  "1895": "3f5",
  "1896": "85c074",
  "1897": "2aa",
  "1898": "1c2",
  "1899": "40c",
  "1900": "0e2",
  "1901": "ae5",
  "1902": "6973",
  "1903": "6c65",
  "1904": "80b",
  "1905": "9c9",
  "1906": "8100",
  "1907": "2ee",
  "1908": "4e5",
  "1909": "0355",
  "1910": "335",
  "1911": "60c",
  "1912": "0420000108400002",
  "1913": "18c",
  "1914": "0e04",
  "1915": "5e5",
  "1916": "3e3",
  "1917": "767",
  "1918": "4989",
  "1919": "3a5",
  "1920": "41d",
  "1921": "0281",
  "1922": "425",
  "1923": "488d6c2",
  "1924": "0cf9058001000000",
  "1925": "29e",
  "1926": "ad2",
  "1927": "dfd",
  "1928": "05b415",
  "1929": "2c3",
  "1930": "dde",
  "1931": "332",
  "1932": "af3",
  "1933": "993",
  "1934": "0408102040800001020408",
  "1935": "5c2",
  "1936": "af5",
  "1937": "0b02",
  "1938": "885",
  "1939": "2ca",
  "1940": "acd",
  "1941": "3ca",
  "1942": "ddf",
  "1943": "3c4085b415e415f5d",
  "1944": "ad3",
  "1945": "eea",
  "1946": "aa2",
  "1947": "2acccc",
  "1948": "1080000420000108400002108000042000010840000210800004200001084000021080000420000108400002108000042000010840000210800004200001084000021080000420000108400002108000042000010840000210800004200001084000021080000420000108400002108000042000010840000210800004200001084000021080000420000108400002108000042000010840000210800004200001084000021080000420000108400002",
  "1949": "39a",
  "1950": "182",
  "1951": "af2",
  "1952": "2c2",
  "1953": "aa5",
  "1954": "40d",
  "1955": "444",
  "1956": "3c2",
  "1957": "756d",
  "1958": "000420000108400002",
  "1959": "b8b",
  "1960": "ef2",
  "1961": "8000000",
  "1962": "350488d6c2",
  "1963": "ec2",
  "1964": "2da",
  "1965": "2acc",
  "1966": "09004c8bf",
  "1967": "1e2",
  "1968": "2f3",
  "1969": "3a3",
  "1970": "3e2",
  "1971": "1304",
  "1972": "006100",
  "1973": "488d05",
  "1974": "9fd",
  "1975": "488bfb4c8d1d",
  "1976": "498d7d",
  "1977": "882",
  "1978": "004444004444004444004444004444004444004444004444",
  "1979": "5e3",
  "1980": "445",
  "1981": "dfc",
  "1982": "b07",
  "1983": "9fe",
  "1984": "1a568",
  "1985": "ac5",
  "1986": "b6b",
  "1987": "7472",
  "1988": "2c5",
  "1989": "2fa",
  "1990": "1111",
  "1991": "027b",
  "1992": "ae3",
  "1993": "7808",
  "1994": "4172",
  "1995": "00005b008901",
  "1996": "102040800001020408102040800001020408102040800001020408102040800001020408102040800001020408102040800001020408102040800001020408102040800001020408102040800001020408102040800001020408102040800001020408102040800001020408102040800001020408102040800001020408102040800001020408102040800001020408102040800001020408102040800001020408102040800001020408102040800001020408102040800001020408102040800001020408102040800001020408102040800001020408102040800001020408102040800001020408102040800001020408102040800001020408102040800001020408102040800001020408102040800001020408102040800001020408102040800001020408102040800001020408102040800001020408102040800001020408102040800001020408102040800001020408102040800001020408102040800001020408102040800001020408102040800001020408102040800001020408102040800001020408102040800001020408102040800001020408102040800001020408102040800001020408102040800001020408102040800001020408102040800001020408102040800001020408102040800001020408102040800001020408102040800001020408102040800001020408102040800001020408102040800001020408102040800001020408102040800001020408102040800001020408102040800001020408102040800001020408102040800001020408102040800001020408102040800001020408102040800001020408102040800001020408102040800001020408102040800001020408102040800001020408102040800001020408102040800001020408102040800001020408102040800001020408102040800001020408102040800001020408102040800001020408102040800001020408102040800001020408102040800001020408102040800001020408102040800001020408102040800001020408102040800001020408102040800001020408102040800001020408102040800001020408102040800001020408102040800001020408102040800001020408102040800001020408102040800001020408102040800001020408102040800001020408102040800001020408102040800001020408102040800001020408102040800001020408102040800001020408102040800001020408102040800001020408102040800001020408102040800001020408102040800001020408102040800001020408102040800001020408102040800001020408102040800001020408102040800001020408102040800001020408102040800001020408102040800001020408102040800001020408102040800001020408102040800001020408102040800001020408102040800001020408102040800001020408102040800001020408102040800001020408102040800001020408102040800001020408102040800001020408102040800001020408102040800001020408102040800001020408102040800001020408",
  "1997": "2f2",
  "1998": "436f6e",
  "1999": "dfa",
  "2000": "9f3",
  "2001": "dc9",
  "2002": "df9",
  "2003": "ac2",
  "2004": "9ce",
  "2005": "dd9",
  "2006": "4c2",
  "2007": "6b7",
  "2008": "6173",
  "2009": "9cd",
  "2010": "0ffffff",
  "2011": "442",
  "2012": "5a2",
  "2013": "29a",
  "2014": "2d5",
  "2015": "488b3",
  "2016": "7f08ff15",
  "2017": "23a",
  "2018": "7488",
  "2019": "0108",
  "2020": "498bfe",
  "2021": "2e2",
  "2022": "6300",
  "2023": "4883ec",
  "2024": "9fc",
  "2025": "d9e",
  "2026": "6bb",
  "2027": "9100",
  "2028": "026f",
  "2029": "001111001111001111001111001111001111001111001111",
  "2030": "d9d",
  "2031": "411",
  "2032": "0f85",
  "2033": "00000019",
  "2034": "1040000104104",
  "2035": "01020408102040800001020408102040800001020408102040800001020408",
  "2036": "756c",
  "2037": "9fa",
  "2038": "df3",
  "2039": "b14",
  "2040": "dea",
  "2041": "1102",
  "2042": "488bf0ff15",
  "2043": "ac3",
  "2044": "dda",
  "2045": "3f2",
  "2046": "232",
  "2047": "656c",
  "2048": "488bf8ff15",
  "2049": "ae2",
  "2050": "33a",
  "2051": "0228",
  "2052": "de5",
  "2053": "ee2",
  "2054": "5e2",
  "2055": "76b",
  "2056": "6563",
  "2057": "235",
  "2058": "d95",
  "2059": "498bfd",
  "2060": "78b",
  "2061": "781",
  "2062": "ee3",
  "2063": "1181",
  "2064": "006f00",
  "2065": "888800888800888800888800888800888800888800888800",
  "2066": "b0b",
  "2067": "dfe",
  "2068": "10498bf",
  "2069": "8488b",
  "2070": "477",
  "2071": "9da",
  "2072": "617465",
  "2073": "0a3009c007d005e003f001500000bcf80500",
  "2074": "9e3",
  "2075": "5c3",
  "2076": "0100804",
  "2077": "dce",
  "2078": "00000004",
  "2079": "656e74",
  "2080": "29c",
  "2081": "877",
  "2082": "6162",
  "2083": "1b8",
  "2084": "dd5",
  "2085": "172a",
  "2086": "756e",
  "2087": "10207",
  "2088": "736f",
  "2089": "4c8bfe",
  "2090": "498bf5ff15",
  "2091": "02162a",
  "2092": "d92",
  "2093": "ee5",
  "2094": "dcd",
  "2095": "ddc",
  "2096": "1f1f",
  "2097": "6d00",
  "2098": "0302",
  "2099": "807",
  "2100": "5f2",
  "2101": "02000000",
  "2102": "766",
  "2103": "b68",
  "2104": "1b7",
  "2105": "641",
  "2106": "7498d",
  "2107": "07004c8be",
  "2108": "866",
  "2109": "18b",
  "2110": "9f5",
  "2111": "181",
  "2112": "177",
  "2113": "3c0488",
  "2114": "1cf90580010000001cf90580010000001cf90580010000001cf9058001000000",
  "2115": "010100",
  "2116": "6962",
  "2117": "667",
  "2118": "4100",
  "2119": "864",
  "2120": "867",
  "2121": "1bb",
  "2122": "ffef",
  "2123": "9c5",
  "2124": "9d5",
  "2125": "dca",
  "2126": "161",
  "2127": "121d",
  "2128": "488bf3ff15",
  "2129": "cc0044cc0044cc0044cc0044cc0044cc0044cc0044cc0044",
  "2130": "9ca",
  "2131": "830202",
  "2132": "6700",
  "2133": "0579",
  "2134": "000011",
  "2135": "15128",
  "2136": "768",
  "2137": "7574",
  "2138": "4f4e",
  "2139": "220203",
  "2140": "bf8ff15",
  "2141": "660022660022660022660022",
  "2142": "9ea",
  "2143": "0375",
  "2144": "476574",
  "2145": "b801000000",
  "2146": "b37498d",
  "2147": "004",
  "2148": "b81",
  "2149": "dc5",
  "2150": "b64",
  "2151": "171",
  "2152": "dd3",
  "2153": "1106",
  "2154": "04889",
  "2155": "488d7",
  "2156": "b37498d7f08ff15",
  "2157": "de3",
  "2158": "b61",
  "2159": "4183",
  "2160": "2e00",
  "2161": "dd2",
  "2162": "1020b",
  "2163": "b3040006",
  "2164": "3a2",
  "2165": "878",
  "2166": "681",
  "2167": "b66",
  "2168": "4973",
  "2169": "0281402",
  "2170": "481",
  "2171": "3203",
  "2172": "6c24",
  "2173": "880099880099880099880099",
  "2174": "df2",
  "2175": "9f2",
  "2176": "04bcff00",
  "2177": "082080c",
  "2178": "0406",
  "2179": "4b1",
  "2180": "17b",
  "2181": "1305",
  "2182": "42696e",
  "2183": "88800",
  "2184": "4900",
  "2185": "468",
  "2186": "d9a",
  "2187": "06172",
  "2188": "73696f6e",
  "2189": "cea",
  "2190": "761",
  "2191": "0498bfe",
  "2192": "0feffff",
  "2193": "0700393f41ff13",
  "2194": "0408102040800001020408102040800001020408102040800001020408102040800001020408",
  "2195": "176",
  "2196": "70b",
  "2197": "871",
  "2198": "4488",
  "2199": "4500",
  "2200": "686f",
  "2201": "498bd",
  "2202": "fffe",
  "2203": "0700000096",
  "2204": "68b",
  "2205": "5c074",
  "2206": "0d060006",
  "2207": "467",
  "2208": "cccccccccccccccccccccccccccccc",
  "2209": "010004027",
  "2210": "167",
  "2211": "190800",
  "2212": "006900",
  "2213": "661",
  "2214": "696e674",
  "2215": "33f6",
  "2216": "5379",
  "2217": "7572",
  "2218": "5f42",
  "2219": "85b415c415d415e415f5dc3",
  "2220": "9c3",
  "2221": "12831012",
  "2222": "607",
  "2223": "9e5",
  "2224": "096f",
  "2225": "471",
  "2226": "1000000",
  "2227": "020200",
  "2228": "cccccccccccccccccccccc",
  "2229": "05000000",
  "2230": "162a",
  "2231": "c92",
  "2232": "868",
  "2233": "2408",
  "2234": "488b5",
  "2235": "00001102",
  "2236": "48b",
  "2237": "ce3",
  "2238": "4b6",
  "2239": "8393",
  "2240": "06300",
  "2241": "08208000020820800002082080000208208000020820800002082080000208208000020820800002082080000208208000020820800002082080000208208000020820800002082080000208208000020820800002082080000208208000020820800002082080000208208000020820800002082080000208208000020820800002082080000208208000020820800002082080000208208000020820800002",
  "2242": "664",
  "2243": "0019",
  "2244": "01001",
  "2245": "706572",
  "2246": "ff0f",
  "2247": "0c08",
  "2248": "141",
  "2249": "476",
  "2250": "4bb",
  "2251": "df5",
  "2252": "6f74",
  "2253": "90488",
  "2254": "0408102040800001020408102040800001020408102040800001020408",
  "2255": "4b8",
  "2256": "ce5",
  "2257": "696d",
  "2258": "1282e",
  "2259": "55415741564155415453",
  "2260": "001133001133001133001133",
  "2261": "0a02",
  "2262": "030004",
  "2263": "5353",
  "2264": "498bc",
  "2265": "f5dc3",
  "2266": "498d7f",
  "2267": "85c00f85",
  "2268": "861842",
  "2269": "1000108400002",
  "2270": "466",
  "2271": "4578",
  "2272": "00000400",
  "2273": "0820800002082",
  "2274": "0900393f41ff13",
  "2275": "0900ff15",
  "2276": "16b",
  "2277": "1b1",
  "2278": "626a",
  "2279": "60b",
  "2280": "827c",
  "2281": "6f6d",
  "2282": "7465",
  "2283": "0800ff15",
  "2284": "0000012",
  "2285": "40800001020408",
  "2286": "132040800001020408",
  "2287": "86b",
  "2288": "4b7",
  "2289": "cd3",
  "2290": "0c101",
  "2291": "f9a",
  "2292": "7500",
  "2293": "0e0700",
  "2294": "9e2",
  "2295": "454",
  "2296": "1281",
  "2297": "764",
  "2298": "1183",
  "2299": "7b08",
  "2300": "063005e003f0015",
  "2301": "48ff20",
  "2302": "5c00f",
  "2303": "10ff15",
  "2304": "08004c8bf",
  "2305": "766572",
  "2306": "060355",
  "2307": "0304",
  "2308": "de2",
  "2309": "d93",
  "2310": "7452",
  "2311": "178",
  "2312": "478",
  "2313": "4552",
  "2314": "6365",
  "2315": "49ff",
  "2316": "086f",
  "2317": "108000042000010840e",
  "2318": "7072",
  "2319": "9d3",
  "2320": "876",
  "2321": "6600",
  "2322": "0905",
  "2323": "87b",
  "2324": "dc2",
  "2325": "16108",
  "2326": "0498bff",
  "2327": "498d7d08",
  "2328": "03300300",
  "2329": "02814020100804",
  "2330": "c95",
  "2331": "85f6",
  "2332": "0498bf7ff15",
  "2333": "0700488bf",
  "2334": "03300200",
  "2335": "01020408102040800001020408",
  "2336": "1040000104104000010410400001041040000104104000010410400001041040000104104000010410400001041040000104104000010410400001041040000104104000010410400001041040000104",
  "2337": "46b",
  "2338": "168",
  "2339": "9c2",
  "2340": "0e07000e",
  "2341": "55488",
  "2342": "01020408102040800001020408102040800001020408102040800001020408102040800001020408",
  "2343": "407",
  "2344": "cda",
  "2345": "c9a",
  "2346": "2a1e",
  "2347": "7074",
  "2348": "4ff15",
  "2349": "6963726f",
  "2350": "6963726f736f",
  "2351": "6963726f736f66",
  "2352": "3c4085b415c415d415e415f5dc3",
  "2353": "0000026f",
  "2354": "030006a2251f",
  "2355": "ccf8058001000000ccf8058001000000ccf8058001000000ccf8058001000000",
  "2356": "4174",
  "2357": "484",
  "2358": "6574686f",
  "2359": "cd5",
  "2360": "166",
  "2361": "945d",
  "2362": "7261",
  "2363": "3c4085b415e415f5dc3",
  "2364": "0800001020408102040800001020408102040800001020408102040800001020408",
  "2365": "4301",
  "2366": "164",
  "2367": "77ff",
  "2368": "49897d",
  "2369": "070000008608",
  "2370": "cd2",
  "2371": "0669",
  "2372": "0277",
  "2373": "020004",
  "2374": "0a05",
  "2375": "488bd",
  "2376": "d415e415f5dc3",
  "2377": "0060006",
  "2378": "01010101",
  "2379": "47b",
  "2380": "10000",
  "2381": "0a2b",
  "2382": "10488bf",
  "2383": "8feffff",
  "2384": "183060c0800103060c183060c0800103060c183060c0800103060c183060c0800103060c183060c0800103060c183060c0800103060c183060c0800103060c183060c0800103060c183060c0800103060c183060c0800103060c183060c0800103060c183060c0800103060c183060c0800103060c183060c0800103060c183060c0800103060c183060c0800103060c183060c0800103060c183060c0800103060c183060c0800103060c183060c0800103060c183060c0800103060c183060c0800103060c183060c0800103060c183060c0800103060c183060c0800103060c183060c0800103060c183060c0800103060c183060c0800103060c183060c0800103060c183060c0800103060c183060c0800103060c183060c0800103060c",
  "2385": "494e",
  "2386": "fe3",
  "2387": "b488",
  "2388": "0808",
  "2389": "040000",
  "2390": "0000000000000000000000000000000000000000000000000000000000000000000000000000000000000000000000000000000000000000000000000000000000000000000000000000000000000000000000000000000000000000000000000000000000000000000000000000000000000000000000000000000000000000",
  "2391": "6c2410488",
  "2392": "00000125d",
  "2393": "000428ad",
  "2394": "000428ad01000a",
  "2395": "f95",
  "2396": "42a2",
  "2397": "0010000",
  "2398": "61636b",
  "2399": "050800",
  "2400": "7308",
  "2401": "6374",
  "2402": "888c",
  "2403": "008",
  "2404": "656c6400",
  "2405": "67756d",
  "2406": "55415741565",
  "2407": "498bffff15",
  "2408": "a225",
  "2409": "bd010006",
  "2410": "5b5",
  "2411": "7f7e",
  "2412": "06172616d",
  "2413": "0f83",
  "2414": "007073",
  "2415": "0001020408102040800001020408102040800001020408102040800001020408",
  "2416": "40b",
  "2417": "4445",
  "2418": "6f6b",
  "2419": "0679",
  "2420": "027c",
  "2421": "cc00",
  "2422": "01005",
  "2423": "1482",
  "2424": "070500",
  "2425": "080000",
  "2426": "0b0700",
  "2427": "420488bdf",
  "2428": "5541574156415541545",
  "2429": "0205",
  "2430": "6566",
  "2431": "fea",
  "2432": "464",
  "2433": "9d2",
  "2434": "1e67",
  "2435": "5300",
  "2436": "657200",
  "2437": "01111",
  "2438": "461",
  "2439": "2c02",
  "2440": "bf8",
  "2441": "7175",
  "2442": "0703",
  "2443": "0b07000b02",
  "2444": "050000",
  "2445": "55415753",
  "2446": "09004c8be",
  "2447": "09004c8bf8488",
  "2448": "0800393f41ff13",
  "2449": "3e6",
  "2450": "ce2",
  "2451": "0705000702",
  "2452": "0705000702063005e003f0015",
  "2453": "55415741565350488d6c2",
  "2454": "554157415641554154534883ec",
  "2455": "fffc",
  "2456": "6108",
  "2457": "85ed",
  "2458": "85ff",
  "2459": "669656c6400",
  "2460": "ffee",
  "2461": "0f060006",
  "2462": "fcf8058001000000fcf8058001000000fcf8058001000000fcf8058001000000fcf8058001000000fcf8058001000000fcf8058001000000fcf8058001000000",
  "2463": "b36",
  "2464": "b5f5f42",
  "2465": "b5f5f4261636b",
  "2466": "b5f5f4261636b696e674",
  "2467": "b5f5f4261636b696e674669656c6400",
  "2468": "656d62",
  "2469": "418bf",
  "2470": "000104",
  "2471": "b84",
  "2472": "c93",
  "2473": "2fa3",
  "2474": "08300",
  "2475": "498bfc",
  "2476": "55488bec",
  "2477": "050004",
  "2478": "060000009100",
  "2479": "12827c12827c",
  "2480": "dcf8058001000000",
  "2481": "0402",
  "2482": "6f6c",
  "2483": "00100",
  "2484": "6167",
  "2485": "479706",
  "2486": "498d7d08498bf6ff15",
  "2487": "848bf",
  "2488": "08004c8be",
  "2489": "dcf8058001000000dcf8058001000000",
  "2490": "0708",
  "2491": "0701",
  "2492": "7565",
  "2493": "706c",
  "2494": "6000000",
  "2495": "0700498d",
  "2496": "bd010006a2251f",
  "2497": "1b6",
  "2498": "f92",
  "2499": "01ac",
  "2500": "00000000000000",
  "2501": "0726f",
  "2502": "04030004",
  "2503": "010200",
  "2504": "800002",
  "2505": "10203",
  "2506": "1040008",
  "2507": "7325",
  "2508": "6966",
  "2509": "8e69",
  "2510": "6965",
  "2511": "ffdf",
  "2512": "7f0800",
  "2513": "00005b024701",
  "2514": "3703",
  "2515": "0f8e",
  "2516": "04c8d1d",
  "2517": "6488",
  "2518": "184",
  "2519": "818",
  "2520": "076",
  "2521": "c33",
  "2522": "c64",
  "2523": "488bfb",
  "2524": "feffff",
  "2525": "83f8",
  "2526": "8108",
  "2527": "33c9",
  "2528": "0b06",
  "2529": "f7ff",
  "2530": "2806",
  "2531": "6967",
  "2532": "5568",
  "2533": "0e05",
  "2534": "006000000",
  "2535": "bf3ff15",
  "2536": "0900488b37498d7f08ff15",
  "2537": "1020408000010204081020408000010204081020408000010204",
  "2538": "020408102040800001020408",
  "2539": "1515",
  "2540": "1f000000",
  "2541": "74726962",
  "2542": "747269627574",
  "2543": "033c0488",
  "2544": "c415d415e415f5d48ff2",
  "2545": "06004c8bf",
  "2546": "0506",
  "2547": "2303",
  "2548": "2002",
  "2549": "0704",
  "2550": "fc3",
  "2551": "04e5f",
  "2552": "01100",
  "2553": "3003f0015",
  "2554": "01000000ff15",
  "2555": "790d00",
  "2556": "0888800",
  "2557": "1302",
  "2558": "1c74",
  "2559": "0e00",
  "2560": "bf7d",
  "2561": "112040800001020408",
  "2562": "f94c",
  "2563": "1900",
  "2564": "2516",
  "2565": "410f",
  "2566": "0804",
  "2567": "4701",
  "2568": "060000",
  "2569": "06172616d6574",
  "2570": "74006500",
  "2571": "083007d005e003f0015",
  "2572": "5541574156415553",
  "2573": "0488bfb4c8d1d",
  "2574": "2d02162a",
  "2575": "1306",
  "2576": "10b2",
  "2577": "7301",
  "2578": "2c04",
  "2579": "6174696f6e",
  "2580": "bcf805",
  "2581": "5541574156415541545350488d6c2",
  "2582": "5541574156415541545350488d6c243",
  "2583": "0400062",
  "2584": "10800004200001084000021080000420000108400002108000042000010840000210800004200001084000021080000420000108400002108000042000010840000210800004200001084000021080000420000108400002108000042000010840000210800004200001084000021080000420000108400002108000042000010840000210800004200001084000021080000420000108400002108000042000010840000210800004200001084000021080000420000108400002108000042000010840000210800004200001084000021080000420000108400002108000042000010840000210800004200001084000021080000420000108400002108000042000010840000210800004200001084000021080000420000108400002108000042000010840000210800004200001084000021080000420000108400002108000042000010840000210800004200001084000021080000420000108400002",
  "2585": "fe5",
  "2586": "4353",
  "2587": "4803",
  "2588": "7bff",
  "2589": "33c0488",
  "2590": "55415753488d",
  "2591": "4883c",
  "2592": "128314",
  "2593": "0cf90580010000000cf9058001000000",
  "2594": "020408102040800001020408102040800001020408102040800001020408",
  "2595": "0706",
  "2596": "4e00",
  "2597": "1309",
  "2598": "0f1f",
  "2599": "3e3e",
  "2600": "cccccccccccccccccccccccccc",
  "2601": "bf8393",
  "2602": "02222",
  "2603": "044",
  "2604": "0b05",
  "2605": "bd8",
  "2606": "265",
  "2607": "10a23",
  "2608": "0100d",
  "2609": "2e72",
  "2610": "7fff",
  "2611": "000001002fa3",
  "2612": "5479706500",
  "2613": "082080000208",
  "2614": "945c",
  "2615": "742e",
  "2616": "7e08",
  "2617": "1600",
  "2618": "1002",
  "2619": "b5f5f4261636b696e674669656c64003c",
  "2620": "4174747269627574",
  "2621": "67756d656e74",
  "2622": "4d6963726f736f66",
  "2623": "488b3d",
  "2624": "0488b7",
  "2625": "6f0d060006",
  "2626": "070000009600",
  "2627": "252d",
  "2628": "696c",
  "2629": "0711",
  "2630": "7391",
  "2631": "0a01",
  "2632": "7373",
  "2633": "015128",
  "2634": "1140000104",
  "2635": "8bfe",
  "2636": "6f04",
  "2637": "2a02",
  "2638": "0009",
  "2639": "3301",
  "2640": "706f",
  "2641": "000200",
  "2642": "01003",
  "2643": "0800002",
  "2644": "cccccccccccccccccccc",
  "2645": "49ff23",
  "2646": "49897d104",
  "2647": "07000000861842",
  "2648": "00444e",
  "2649": "1483",
  "2650": "6e6e",
  "2651": "6d62",
  "2652": "0600393f41ff13",
  "2653": "420000108400002",
  "2654": "072c",
  "2655": "0479",
  "2656": "bd6",
  "2657": "7f3e",
  "2658": "00702",
  "2659": "0201",
  "2660": "488bdf",
  "2661": "5c075",
  "2662": "6c2410488bdf",
  "2663": "b48",
  "2664": "54797065",
  "2665": "430002",
  "2666": "420002",
  "2667": "10800004200001084000021080c",
  "2668": "4300",
  "2669": "130a",
  "2670": "3900",
  "2671": "4189",
  "2672": "ffcf",
  "2673": "8b7c",
  "2674": "1108",
  "2675": "0100c",
  "2676": "455353",
  "2677": "00504e5f",
  "2678": "6c79",
  "2679": "5ff",
  "2680": "7272",
  "2681": "0609",
  "2682": "2a220203",
  "2683": "0b07000b020a3009c007d005e003f001500000bcf80500",
  "2684": "488bf8",
  "2685": "0700bf",
  "2686": "1080000420f",
  "2687": "f93",
  "2688": "012a",
  "2689": "fc5",
  "2690": "0099",
  "2691": "021f",
  "2692": "4c8",
  "2693": "0f84",
  "2694": "013e",
  "2695": "0100a",
  "2696": "040300043003f0015",
  "2697": "05050505",
  "2698": "18488d6c2",
  "2699": "1280b",
  "2700": "22040800001020408",
  "2701": "75bd",
  "2702": "827",
  "2703": "73ff",
  "2704": "0000000000",
  "2705": "9c71",
  "2706": "00800",
  "2707": "0705000702063005e003f001500000bcf80500",
  "2708": "effff",
  "2709": "03300400",
  "2710": "10800004200001084000021080000",
  "2711": "10204080000102040810204080000102040810204080000102",
  "2712": "cf3f",
  "2713": "8bba",
  "2714": "046f",
  "2715": "fe2",
  "2716": "6c6f",
  "2717": "0206",
  "2718": "0100f",
  "2719": "3c4085b5",
  "2720": "000001002fa3000001002fa3",
  "2721": "102040800001020408102040800001020408102040800001020408102040800001020408102040800001020408102040800001020408102040800001020408102040800001020408102040800001020408102040800001020408102040800001020408102040800001020408102040800001020408102040800001020408102040800001020408102040800001020408102040800001020408102040800001020408102040800001020408102040800001020408102040800001020408102040800001020408102040800001020408102040800001020408102040800001020408102040800001020408102040800001020408102040800001020408102040800001020408102040800001020408102040800001020408102040800001020408102040800001020408102040800001020408102040800001020408102040800001020408102040800001020408102040800001020408102040800001020408102040800001020408102040800001020408102040800001020408102040800001020408102040800001020408102040800001020408102040800001020408102040800001020408102040800001020408102040800001020408102040800001020408102040800001020408102040800001020408102040800001020408102040800001020408102040800001020408102040800001020408102040800001020408102040800001020408102040800001020408102040800001020408102040800001020408102040800001020408102040800001020408102040800001020408102040800001020408102040800001020408102040800001020408102040800001020408102040800001020408102040800001020408102040800001020408102040800001020408102040800001020408102040800001020408102040800001020408102040800001020408102040800001020408102040800001020408102040800001020408102040800001020408102040800001020408102040800001020408102040800001020408102040800001020408102040800001020408102040800001020408102040800001020408102040800001020408102040800001020408102040800001020408102040800001020408102040800001020408102040800001020408102040800001020408102040800001020408102040800001020408102040800001020408102040800001020408102040800001020408102040800001020408102040800001020408102040800001020408102040800001020408102040800001020408102040800001020408102040800001020408102040800001020408102040800001020408102040800001020408102040800001020408102040800001020408102040800001020408102040800001020408102040800001020408102040800001020408102040800001020408102040800001020408102040800001020408102040800001020408102040800001020408102040800001020408102040800001020408102040800001020408102040800001020408102040800001020408102040800001020408102040800001020408102040800001020408102040800001020408102040800001020408102040800001020408102040800001020408102040800001020408102040800001020408102040800001020408102040800001020408102040800001020408102040800001020408102040800001020408102040800001020408102040800001020408102040800001020408102040800001020408102040800001020408102040800001020408102040800001020408102040800001020408102040800001020408102040800001020408102040800001020408102040800001020408102040800001020408102040800001020408102040800001020408102040800001020408102040800001020408102040800001020408102040800001020408102040800001020408102040800001020408102040800001020408102040800001020408102040800001020408102040800001020408102040800001020408102040800001020408102040800001020408102040800001020408102040800001020408102040800001020408102040800001020408102040800001020408102040800001020408102040800001020408102040800001020408102040800001020408102040800001020408102040800001020408102040800001020408102040800001020408102040800001020408102040800001020408102040800001020408102040800001020408102040800001020408102040800001020408102040800001020408102040800001020408102040800001020408102040800001020408102040800001020408102040800001020408102040800001020408102040800001020408102040800001020408102040800001020408102040800001020408102040800001020408102040800001020408102040800001020408102040800001020408102040800001020408102040800001020408102040800001020408102040800001020408102040800001020408102040800001020408102040800001020408102040800001020408102040800001020408102040800001020408102040800001020408102040800001020408102040800001020408102040800001020408102040800001020408102040800001020408102040800001020408102040800001020408102040800001020408102040800001020408102040800001020408102040800001020408102040800001020408102040800001020408102040800001020408102040800001020408102040800001020408102040800001020408102040800001020408102040800001020408102040800001020408102040800001020408102040800001020408102040800001020408102040800001020408102040800001020408102040800001020408102040800001020408102040800001020408102040800001020408102040800001020408102040800001020408102040800001020408102040800001020408102040800001020408102040800001020408102040800001020408102040800001020408102040800001020408102040800001020408102040800001020408102040800001020408102040800001020408102040800001020408102040800001020408",
  "2722": "0d09",
  "2723": "3002",
  "2724": "2d02",
  "2725": "6200",
  "2726": "00900",
  "2727": "01002",
  "2728": "00101",
  "2729": "0a004c8bf",
  "2730": "1cf90580010000001cf90580010000001cf90580010000001cf90580010000001cf90580010000001cf90580010000001cf90580010000001cf9058001000000",
  "2731": "0074",
  "2732": "414c",
  "2733": "426f",
  "2734": "0128",
  "2735": "0700ff15",
  "2736": "00000a2c",
  "2737": "39568",
  "2738": "436f6e766572",
  "2739": "0281402010080402814020100804",
  "2740": "fca",
  "2741": "161c",
  "2742": "0c06",
  "2743": "bdff",
  "2744": "556e",
  "2745": "5265",
  "2746": "3f6ff15",
  "2747": "10488bf0ff15",
  "2748": "04c8bff",
  "2749": "8e050006",
  "2750": "0100046f",
  "2751": "65644",
  "2752": "10d00",
  "2753": "0fcf",
  "2754": "456e",
  "2755": "85052",
  "2756": "04d5f",
  "2757": "0000062a",
  "2758": "2acccccc1e",
  "2759": "07000000c4",
  "2760": "00001020408102040800001020408102040800001020408102040800001020408",
  "2761": "4f00",
  "2762": "96e",
  "2763": "0075",
  "2764": "0100e",
  "2765": "efcf",
  "2766": "4000000",
  "2767": "080500",
  "2768": "05b415f5dc3",
  "2769": "cccccccccccc",
  "2770": "01009",
  "2771": "007073bd010006a2251f",
  "2772": "05000428ad01000a",
  "2773": "07000000c6",
  "2774": "0105",
  "2775": "4489",
  "2776": "020e",
  "2777": "0769",
  "2778": "283",
  "2779": "d00",
  "2780": "83ff",
  "2781": "10800",
  "2782": "b000000",
  "2783": "c74",
  "2784": "8498bff",
  "2785": "4c8bfa",
  "2786": "0488bf0ff15",
  "2787": "01283",
  "2788": "0022220022",
  "2789": "102040804",
  "2790": "8b7d",
  "2791": "041",
  "2792": "1109",
  "2793": "7dff",
  "2794": "011",
  "2795": "7479",
  "2796": "0209",
  "2797": "5573",
  "2798": "7b00",
  "2799": "b6ff",
  "2800": "900",
  "2801": "75b8",
  "2802": "081c",
  "2803": "1308",
  "2804": "2a2202037d",
  "2805": "488b05",
  "2806": "0600488b3",
  "2807": "1283100",
  "2808": "720d00",
  "2809": "0103",
  "2810": "5400",
  "2811": "6b65",
  "2812": "4c89",
  "2813": "d7b3",
  "2814": "6972",
  "2815": "0f94c",
  "2816": "104c",
  "2817": "1281ec",
  "2818": "00000a2a",
  "2819": "3c4085b5dc3",
  "2820": "00fb6c",
  "2821": "4c8bf2",
  "2822": "488b7b08",
  "2823": "48897808",
  "2824": "00504d5f",
  "2825": "494f4e",
  "2826": "cfcf",
  "2827": "1300",
  "2828": "7573",
  "2829": "5553",
  "2830": "8f9f",
  "2831": "9c74",
  "2832": "546f",
  "2833": "0705",
  "2834": "5374",
  "2835": "0301",
  "2836": "0070006",
  "2837": "488bde",
  "2838": "7452006000000",
  "2839": "7452006000000498d7d08498bf6ff15",
  "2840": "6100000125d",
  "2841": "710d00",
  "2842": "1020f",
  "2843": "00444400",
  "2844": "04444",
  "2845": "020408102040800001020408102040800001020408102040800001020408102040800001020408",
  "2846": "7f8e",
  "2847": "4c6f",
  "2848": "b45d",
  "2849": "4c8d",
  "2850": "b7ff",
  "2851": "7073",
  "2852": "9308",
  "2853": "7374656d",
  "2854": "945c8",
  "2855": "498b7",
  "2856": "45585052",
  "2857": "455353494f4e",
  "2858": "750d00",
  "2859": "10400001041040008",
  "2860": "00111108",
  "2861": "080c",
  "2862": "0ff00",
  "2863": "854",
  "2864": "1d1d",
  "2865": "4368",
  "2866": "1f1c",
  "2867": "110c",
  "2868": "8a7f",
  "2869": "1602",
  "2870": "0c02",
  "2871": "cf9f",
  "2872": "488b7d",
  "2873": "0600ff15",
  "2874": "070000008600",
  "2875": "770d00",
  "2876": "082080000208208000020820800002082080000208208000020820800002",
  "2877": "000005",
  "2878": "0fef",
  "2879": "656e6572",
  "2880": "06172616d65746572",
  "2881": "41747472696275746500",
  "2882": "0277b3",
  "2883": "41c74",
  "2884": "1283101283",
  "2885": "894",
  "2886": "b77a",
  "2887": "79ff",
  "2888": "0802",
  "2889": "1f3f",
  "2890": "6fdf",
  "2891": "0906",
  "2892": "0407",
  "2893": "2d03",
  "2894": "7000000",
  "2895": "a4b4",
  "2896": "1112",
  "2897": "10923",
  "2898": "0488b75",
  "2899": "448bf",
  "2900": "bf8393fff15",
  "2901": "07004c8be848bf",
  "2902": "0000020a06",
  "2903": "0300062c",
  "2904": "45585052455353494f4e",
  "2905": "740d00",
  "2906": "bc1",
  "2907": "bcff",
  "2908": "0759",
  "2909": "0f8",
  "2910": "cfef",
  "2911": "0600062c",
  "2912": "800001020408102040800001020408102040800001020408102040800001020408",
  "2913": "bfff",
  "2914": "ff3c",
  "2915": "1a8d",
  "2916": "6874",
  "2917": "4439",
  "2918": "6fdd",
  "2919": "418",
  "2920": "039f",
  "2921": "d7b",
  "2922": "1512",
  "2923": "88d05",
  "2924": "6809",
  "2925": "4e616d",
  "2926": "5500",
  "2927": "525f",
  "2928": "fbff",
  "2929": "53797374656d",
  "2930": "686172",
  "2931": "08000000",
  "2932": "05b415d415e415f5dc3",
  "2933": "151280c101",
  "2934": "11833002",
  "2935": "760d00",
  "2936": "1080000420000108406",
  "2937": "084000021080000420000108400002",
  "2938": "7aaa",
  "2939": "6f7e",
  "2940": "0c00",
  "2941": "6774",
  "2942": "7874",
  "2943": "272",
  "2944": "496d",
  "2945": "6edd",
  "2946": "7498",
  "2947": "6d65",
  "2948": "7fef",
  "2949": "746572",
  "2950": "7074696f6e",
  "2951": "030202",
  "2952": "55415741565350488d6c2420488bdf",
  "2953": "5541574156415553488d6c2",
  "2954": "393f5d",
  "2955": "3c4185b415",
  "2956": "837f0800",
  "2957": "01001102",
  "2958": "06000000e6",
  "2959": "361e",
  "2960": "6faf",
  "2961": "8f3f",
  "2962": "ffbc",
  "2963": "1c3e",
  "2964": "0f8f",
  "2965": "41be",
  "2966": "bd1",
  "2967": "7e4",
  "2968": "000000000000",
  "2969": "020304",
  "2970": "61626c65",
  "2971": "3e6b5f5f4261636b696e674669656c64003c",
  "2972": "080500083007d005e003f0015",
  "2973": "3c4085b415c415d415e415f5d48ff2",
  "2974": "ffffffff15",
  "2975": "09004c8bf8488b3d",
  "2976": "190900",
  "2977": "49c7452006000000498d7d08498bf6ff15",
  "2978": "11111111",
  "2979": "7391030006a2251f",
  "2980": "1080000420b",
  "2981": "8b7f",
  "2982": "110a",
  "2983": "b7bf",
  "2984": "8c74",
  "2985": "070000",
  "2986": "010e",
  "2987": "7279",
  "2988": "0709",
  "2989": "0222",
  "2990": "03000000",
  "2991": "8030000062a",
  "2992": "0000022516",
  "2993": "730d00",
  "2994": "bbbb",
  "2995": "1202",
  "2996": "6463",
  "2997": "75b",
  "2998": "bf7e",
  "2999": "0e06",
  "3000": "00f9",
  "3001": "010011",
  "3002": "0119",
  "3003": "33d2",
  "3004": "040300043003f001500000bcf80500",
  "3005": "c8ff15",
  "3006": "393f5d49ff23",
  "3007": "0488bdf4c8bfe",
  "3008": "2acccccc220203",
  "3009": "0820800002082080000208208000020820800002082080000208208000020820800002082080000208208000020820800002082080000208208000020820800002082080000208208000020820800002082080000208208000020820800002082080000208208000020820800002082080000208208000020820800002082080000208208000020820800002082080000208208000020820800002082080000208208000020820800002082080000208208000020820800002082080000208208000020820800002082080000208208000020820800002082080000208208000020820800002082080000208208000020820800002082080000208208000020820800002082080000208208000020820800002082080000208208000020820800002082080000208208000020820800002082080000208208000020820800002",
  "3010": "10204080000102040810204080000102040810204080008",
  "3011": "122040800001020408",
  "3012": "0102040810204080000102",
  "3013": "0504",
  "3014": "f2cf",
  "3015": "02dd",
  "3016": "bc4",
  "3017": "096",
  "3018": "7365",
  "3019": "b28",
  "3020": "4465",
  "3021": "8f8f",
  "3022": "ff7c",
  "3023": "8568",
  "3024": "53797374656d2e",
  "3025": "566973",
  "3026": "45787072",
  "3027": "43006f00",
  "3028": "554157415641554154534883ec18488d6c2",
  "3029": "554157415641554154534883ec18488d6c244",
  "3030": "732568",
  "3031": "104000010410400001041040000104104000010410400001041040000104",
  "3032": "09102040800001020408102040800001020408102040800001020408102040800001020408",
  "3033": "6f9f",
  "3034": "fc2",
  "3035": "091",
  "3036": "1f0f",
  "3037": "0503",
  "3038": "6372",
  "3039": "01fd",
  "3040": "0873",
  "3041": "126",
  "3042": "4544",
  "3043": "a00",
  "3044": "062a",
  "3045": "0444",
  "3046": "4983",
  "3047": "0f0f",
  "3048": "000000bcf805",
  "3049": "0500f",
  "3050": "bb6",
  "3051": "4050000",
  "3052": "3c4185b415c415d415e415f5dc3",
  "3053": "5f674",
  "3054": "4c8b7",
  "3055": "1107",
  "3056": "cccccccccccccccccccccccccccccc55488bec",
  "3057": "280600000a",
  "3058": "060000008100",
  "3059": "9c7100000100",
  "3060": "780d00",
  "3061": "1909",
  "3062": "2299",
  "3063": "124",
  "3064": "0c04",
  "3065": "8d7c",
  "3066": "018",
  "3067": "081f",
  "3068": "0273",
  "3069": "4d55",
  "3070": "1c1c",
  "3071": "b4dd",
  "3072": "7cbe",
  "3073": "0a03",
  "3074": "0603",
  "3075": "ef3f",
  "3076": "6fe5",
  "3077": "0215",
  "3078": "02037d",
  "3079": "0010004",
  "3080": "437265",
  "3081": "47656e6572",
  "3082": "0e07000e22",
  "3083": "498bf4ff15",
  "3084": "0900488db",
  "3085": "400f94c",
  "3086": "00504d5f45585052455353494f4e",
  "3087": "1283101",
  "3088": "4141",
  "3089": "6fff",
  "3090": "05ba",
  "3091": "0522",
  "3092": "1413",
  "3093": "7665",
  "3094": "0d05",
  "3095": "18bf",
  "3096": "7fbe",
  "3097": "454f",
  "3098": "1201",
  "3099": "178d",
  "3100": "cfdf",
  "3101": "75be",
  "3102": "01282",
  "3103": "bbff",
  "3104": "beb",
  "3105": "7365745f",
  "3106": "4353686172",
  "3107": "0498bfc",
  "3108": "85c00f84",
  "3109": "00000048897808",
  "3110": "000001280600000a",
  "3111": "4d6574686f",
  "3112": "140800001020408",
  "3113": "10400001041040000104104000010410400001041040000104104000010410400001041040000104104000010410400001041040000104104000010410400001041040000104104000010410400001041040000104104000010410400001041040000104104000010410400001041040000104104000010410400001041040000104104000010410400001041040000104104000010410400001041040000104",
  "3114": "b7be",
  "3115": "0a4",
  "3116": "80800",
  "3117": "732e",
  "3118": "3800",
  "3119": "7f9e",
  "3120": "b7b3",
  "3121": "0493",
  "3122": "4e65",
  "3123": "bd39",
  "3124": "efbf",
  "3125": "796e",
  "3126": "737a",
  "3127": "bd4",
  "3128": "047",
  "3129": "010204",
  "3130": "897d",
  "3131": "ffdc",
  "3132": "626a6563",
  "3133": "0000001f000000",
  "3134": "cccccccccccccc",
  "3135": "498bff4c8d1d",
  "3136": "0488bf3ff15",
  "3137": "ffce",
  "3138": "02032",
  "3139": "436f6e76657273696f6e",
  "3140": "ccf8058001000000ccf8058001000000ccf8058001000000ccf8058001000000ccf8058001000000ccf8058001000000ccf8058001000000ccf8058001000000",
  "3141": "0500a4b4",
  "3142": "0001020408102040800001020408102040800001020408102040800001020408102040800001020408",
  "3143": "7dfa",
  "3144": "0c12",
  "3145": "025d",
  "3146": "836",
  "3147": "794f",
  "3148": "81ff",
  "3149": "73fe",
  "3150": "8608",
  "3151": "8b00",
  "3152": "0118",
  "3153": "8f1f",
  "3154": "6363",
  "3155": "1b6f",
  "3156": "0545",
  "3157": "0c05",
  "3158": "9909",
  "3159": "4b00",
  "3160": "4343",
  "3161": "1f69",
  "3162": "83b",
  "3163": "646c",
  "3164": "0a3c",
  "3165": "8a4",
  "3166": "1613",
  "3167": "6929",
  "3168": "4929",
  "3169": "7efd",
  "3170": "756e74",
  "3171": "69006f00",
  "3172": "030300",
  "3173": "0a3009c007d005e003f001500000bcf805",
  "3174": "010100015",
  "3175": "08000f",
  "3176": "8488b3",
  "3177": "0488bfbff15",
  "3178": "55415753488d6c2410488bdf",
  "3179": "b801000000488",
  "3180": "0900488bf8ff15",
  "3181": "393f5d49ff23cccccccccccccccccccccccccccccc55488bec",
  "3182": "393f5d49ff23cccccccccccccccccccccccccccccc55488bec4c8d1d",
  "3183": "8030000062a2e72",
  "3184": "03300500",
  "3185": "8a0060006",
  "3186": "0500062acccccc220203",
  "3187": "0500062acccccc2202036f",
  "3188": "00504d5f45585052455353494f4e5f",
  "3189": "04040404",
  "3190": "01041040000104",
  "3191": "94d",
  "3192": "735f",
  "3193": "b55d",
  "3194": "7a7a",
  "3195": "4f6e",
  "3196": "7f1e",
  "3197": "124a",
  "3198": "b54",
  "3199": "73ef",
  "3200": "b55c",
  "3201": "8a8",
  "3202": "cf4d",
  "3203": "757",
  "3204": "b58",
  "3205": "8b74",
  "3206": "ba29",
  "3207": "bdbd",
  "3208": "55535",
  "3209": "796d",
  "3210": "88009",
  "3211": "4ba3",
  "3212": "4d8b",
  "3213": "6c006500",
  "3214": "436f6e7374",
  "3215": "0488b4",
  "3216": "cccccccccc",
  "3217": "498bf5",
  "3218": "0a0041ff13",
  "3219": "0800c64",
  "3220": "11046f",
  "3221": "070000008100",
  "3222": "61746f72",
  "3223": "fcf80580010000000cf9058001000000",
  "3224": "880d00",
  "3225": "0269",
  "3226": "0fb6",
  "3227": "7f0e",
  "3228": "8945",
  "3229": "1f3d",
  "3230": "6ebe",
  "3231": "6aa9",
  "3232": "bbb3",
  "3233": "cf1f",
  "3234": "0f3f",
  "3235": "6562",
  "3236": "4704",
  "3237": "448b",
  "3238": "756e74696d",
  "3239": "41727261",
  "3240": "04000000ff15",
  "3241": "00000a2d",
  "3242": "83f050006",
  "3243": "070000009100",
  "3244": "696e644",
  "3245": "4d6963726f736f66742",
  "3246": "002222002222002222002222002222002222002222002222002222002222002222002222002222002222002222002222",
  "3247": "04080000",
  "3248": "183060c0800103060c183060c0800103060c183060c0800103060c183060c0800103060c183060c0800103060c183060c0800103060c183060c0800103060c183060c0800103060c183060c0800103060c183060c0800103060c183060c0800103060c183060c0800103060c183060c0800103060c183060c0800103060c183060c0800103060c183060c0800103060c183060c0800103060c183060c0800103060c183060c0800103060c183060c0800103060c183060c0800103060c183060c0800103060c183060c0800103060c183060c0800103060c183060c0800103060c183060c0800103060c183060c0800103060c183060c0800103060c183060c0800103060c183060c0800103060c183060c0800103060c183060c0800103060c183060c0800103060c183060c0800103060c183060c0800103060c183060c0800103060c183060c0800103060c183060c0800103060c183060c0800103060c183060c0800103060c183060c0800103060c183060c0800103060c183060c0800103060c183060c0800103060c183060c0800103060c183060c0800103060c183060c0800103060c183060c0800103060c183060c0800103060c183060c0800103060c183060c0800103060c183060c0800103060c183060c0800103060c183060c0800103060c183060c0800103060c183060c0800103060c183060c0800103060c183060c0800103060c183060c0800103060c183060c0800103060c183060c0800103060c183060c0800103060c183060c0800103060c183060c0800103060c",
  "3249": "4901",
  "3250": "6909",
  "3251": "1a5f",
  "3252": "7c04",
  "3253": "6e6f",
  "3254": "b97d",
  "3255": "1200",
  "3256": "1805",
  "3257": "6663",
  "3258": "7439",
  "3259": "cf5f",
  "3260": "4905",
  "3261": "066",
  "3262": "4f72",
  "3263": "cf3d",
  "3264": "ffec",
  "3265": "cf3e",
  "3266": "8c00",
  "3267": "33ed",
  "3268": "3501",
  "3269": "2222",
  "3270": "443b",
  "3271": "7cff",
  "3272": "896",
  "3273": "80000",
  "3274": "0c2b",
  "3275": "7f5e",
  "3276": "ff15a",
  "3277": "e99",
  "3278": "697a",
  "3279": "65206",
  "3280": "ffffffff",
  "3281": "cccccccccccccccccc",
  "3282": "080f83",
  "3283": "ff15f",
  "3284": "8fdffff",
  "3285": "0100062a",
  "3286": "0100042",
  "3287": "850d00",
  "3288": "0004bcff00",
  "3289": "010410400001041040000104104000010410400001041040000104104000010410400001041040000104",
  "3290": "7929",
  "3291": "ffde",
  "3292": "07ef",
  "3293": "bdbf",
  "3294": "6975",
  "3295": "b92c",
  "3296": "0029",
  "3297": "7efc",
  "3298": "732f",
  "3299": "0b04",
  "3300": "032a",
  "3301": "8b04",
  "3302": "417",
  "3303": "1313",
  "3304": "0fff",
  "3305": "0501",
  "3306": "754",
  "3307": "176f",
  "3308": "081",
  "3309": "1204",
  "3310": "81b",
  "3311": "437265617465",
  "3312": "30015",
  "3313": "0f11",
  "3314": "0900488bd",
  "3315": "0000001f00000049897d104",
  "3316": "a228a0060006",
  "3317": "5669736974",
  "3318": "7f0d00",
  "3319": "10800004207",
  "3320": "49800001020408",
  "3321": "7a7d",
  "3322": "7535",
  "3323": "b568",
  "3324": "1481",
  "3325": "6767",
  "3326": "56e",
  "3327": "1f3e",
  "3328": "7aba",
  "3329": "3e7e",
  "3330": "1f1d",
  "3331": "1c01",
  "3332": "5945",
  "3333": "85e4",
  "3334": "086c",
  "3335": "0373",
  "3336": "0a13",
  "3337": "1801",
  "3338": "0374",
  "3339": "1ae9",
  "3340": "1953",
  "3341": "bfb",
  "3342": "0e0f",
  "3343": "024",
  "3344": "89b",
  "3345": "bf75",
  "3346": "dbb",
  "3347": "2f2f",
  "3348": "56616c",
  "3349": "656e7400",
  "3350": "756c74",
  "3351": "36f6e",
  "3352": "646578",
  "3353": "706c6963",
  "3354": "0f94c00fb6c",
  "3355": "0275",
  "3356": "7c2408",
  "3357": "0488b7f",
  "3358": "0700488bf0488bfb4c8d1d",
  "3359": "0000022c",
  "3360": "091a568",
  "3361": "fff9",
  "3362": "cc0044cc0044cc0044cc0044cc0044cc0044cc0044cc0044cc0044cc0044cc0044cc0044cc0044cc0044cc0044cc0044",
  "3363": "0001",
  "3364": "b92d",
  "3365": "742a",
  "3366": "646d",
  "3367": "8e8",
  "3368": "3f9f",
  "3369": "072d",
  "3370": "757d",
  "3371": "0e4",
  "3372": "1533",
  "3373": "8d4",
  "3374": "078",
  "3375": "2319",
  "3376": "071",
  "3377": "9904",
  "3378": "cf5d",
  "3379": "bcac",
  "3380": "062c",
  "3381": "4f9f",
  "3382": "8e4",
  "3383": "bd75",
  "3384": "b76f",
  "3385": "6f64",
  "3386": "cf7f",
  "3387": "b34",
  "3388": "1581",
  "3389": "b7b",
  "3390": "0b74",
  "3391": "7def",
  "3392": "838",
  "3393": "b45c",
  "3394": "7c74",
  "3395": "5375",
  "3396": "8a6",
  "3397": "79ef",
  "3398": "05b",
  "3399": "0726f706572",
  "3400": "496e66",
  "3401": "616c6c",
  "3402": "01010001500000bcf80500",
  "3403": "837d",
  "3404": "33f6ff15",
  "3405": "498d7c2",
  "3406": "000000488",
  "3407": "0900488b00",
  "3408": "080041ff13",
  "3409": "0800488bd",
  "3410": "07009",
  "3411": "02f5",
  "3412": "45584",
  "3413": "0420000108",
  "3414": "09102040800001020408",
  "3415": "5468",
  "3416": "4543",
  "3417": "4fbf",
  "3418": "1e00",
  "3419": "722e",
  "3420": "7fed",
  "3421": "690a",
  "3422": "6411",
  "3423": "1f0d",
  "3424": "7f4e",
  "3425": "0a74",
  "3426": "8d7",
  "3427": "b929",
  "3428": "bf1d",
  "3429": "6b00",
  "3430": "4c00",
  "3431": "037",
  "3432": "9900",
  "3433": "555d",
  "3434": "8f3e",
  "3435": "0a04",
  "3436": "39ff",
  "3437": "5200",
  "3438": "6765745f4973",
  "3439": "030300030202",
  "3440": "03030003020230015",
  "3441": "0000000019",
  "3442": "2003",
  "3443": "110b",
  "3444": "03030303",
  "3445": "070f",
  "3446": "10488d",
  "3447": "027b4",
  "3448": "7301030006a2251f",
  "3449": "05000428ad01000a7391030006a2251f",
  "3450": "00000500",
  "3451": "07000000861842a2",
  "3452": "000001001e67",
  "3453": "00005b008901c",
  "3454": "00005b0089012",
  "3455": "740065006d00",
  "3456": "03213",
  "3457": "10b23",
  "3458": "8d1",
  "3459": "b7cf",
  "3460": "b56",
  "3461": "7e7d",
  "3462": "b91e",
  "3463": "8a8a",
  "3464": "134",
  "3465": "bfef",
  "3466": "07b3",
  "3467": "b77",
  "3468": "efdf",
  "3469": "8a8f",
  "3470": "0306",
  "3471": "454d",
  "3472": "7fbf",
  "3473": "494",
  "3474": "654d",
  "3475": "7369",
  "3476": "49e9",
  "3477": "3c42",
  "3478": "6f6a",
  "3479": "1206",
  "3480": "4f7",
  "3481": "816",
  "3482": "72f9",
  "3483": "646f",
  "3484": "79e9",
  "3485": "438",
  "3486": "847",
  "3487": "6e65",
  "3488": "1701",
  "3489": "198",
  "3490": "142a",
  "3491": "00500",
  "3492": "733e",
  "3493": "7eed",
  "3494": "657373",
  "3495": "656d626572",
  "3496": "7275",
  "3497": "ff9c",
  "3498": "7970652",
  "3499": "0a00488bf",
  "3500": "cccccccccccccccccccccccccccc",
  "3501": "0e02",
  "3502": "488b7b3",
  "3503": "79007300",
  "3504": "79007300740065006d00",
  "3505": "dcf8058001000000dcf8058001000000dcf8058001000000dcf8058001000000",
  "3506": "0011110011",
  "3507": "0408102040800001020408102040800001020408",
  "3508": "4fef",
  "3509": "4f4",
  "3510": "8a99",
  "3511": "07df",
  "3512": "6f3e",
  "3513": "bf5f",
  "3514": "6b69",
  "3515": "1d7d",
  "3516": "014",
  "3517": "0082",
  "3518": "08b",
  "3519": "6fbe",
  "3520": "ba74",
  "3521": "6aad",
  "3522": "4863",
  "3523": "1e1",
  "3524": "b4dc",
  "3525": "7a6a",
  "3526": "74a9",
  "3527": "7669",
  "3528": "67cf",
  "3529": "424c",
  "3530": "311",
  "3531": "7f2d",
  "3532": "7e5f",
  "3533": "0b81",
  "3534": "1383",
  "3535": "8faf",
  "3536": "6fad",
  "3537": "1083",
  "3538": "11e3",
  "3539": "ffaf",
  "3540": "3c0c",
  "3541": "0b1f",
  "3542": "5ebd",
  "3543": "036",
  "3544": "6453",
  "3545": "ffbf",
  "3546": "76616c",
  "3547": "756e74696d65",
  "3548": "0328",
  "3549": "0528",
  "3550": "ffdd",
  "3551": "498bfeff15",
  "3552": "78feffff",
  "3553": "16fe",
  "3554": "7acc",
  "3555": "4f505f",
  "3556": "66002",
  "3557": "1180cc",
  "3558": "820d00",
  "3559": "082080000208208000020820800002082080000208208000020820800002082080000208208000020820800002",
  "3560": "004444004444004444004444004444004444004444004444004444004444004444004444004444004444004444004444",
  "3561": "b9f9",
  "3562": "b4b2",
  "3563": "cf1c",
  "3564": "8eb",
  "3565": "7eee",
  "3566": "6369",
  "3567": "416e",
  "3568": "7b7d",
  "3569": "4904",
  "3570": "6599",
  "3571": "8e9d",
  "3572": "bafd",
  "3573": "8e0e",
  "3574": "7d5d",
  "3575": "826",
  "3576": "8bcc",
  "3577": "8e9e",
  "3578": "077",
  "3579": "094",
  "3580": "6469",
  "3581": "676",
  "3582": "7379",
  "3583": "824",
  "3584": "be3c",
  "3585": "03b",
  "3586": "0d3d",
  "3587": "8602",
  "3588": "82b",
  "3589": "7515",
  "3590": "744e",
  "3591": "021e",
  "3592": "7499",
  "3593": "0909",
  "3594": "108d",
  "3595": "8d9f",
  "3596": "bfcf",
  "3597": "4f6d",
  "3598": "7dba",
  "3599": "bfdc",
  "3600": "7edc",
  "3601": "6775",
  "3602": "073e",
  "3603": "cf7",
  "3604": "bf7a",
  "3605": "00000000000000000000000000000000000000000000000000000000000000000000000000000000000000000000000000000000000000000000000000000000000000000000000000000000000000000000000000000000000000000000000000000000000000000000000000000000000000000000000000000000000000000000000000000000000000000000000000000000000000000000000000000000000000000000000000000000000000000000000000000000000000000000000000000000000000000000000000000000000000000000000000000000000000000000000000000000000000000000000000000000000000000000000000000000",
  "3606": "080500083007d005e003f001500000bcf80500",
  "3607": "281d",
  "3608": "84889",
  "3609": "0fdffff",
  "3610": "022813",
  "3611": "00700a3",
  "3612": "1c39568",
  "3613": "00005b008901a",
  "3614": "00005b00890100",
  "3615": "860d00",
  "3616": "870d00",
  "3617": "440800001020408",
  "3618": "1100",
  "3619": "6f45",
  "3620": "1dbf",
  "3621": "7c8e",
  "3622": "3e0a",
  "3623": "7fcf",
  "3624": "afbe",
  "3625": "b5be",
  "3626": "bf9d",
  "3627": "7faf",
  "3628": "bd5d",
  "3629": "bc73",
  "3630": "0499",
  "3631": "6b75",
  "3632": "0b00",
  "3633": "7f2f",
  "3634": "0845",
  "3635": "4923",
  "3636": "6800",
  "3637": "7475",
  "3638": "7db9",
  "3639": "8fbf",
  "3640": "b33d",
  "3641": "8929",
  "3642": "4f9e",
  "3643": "1f2f",
  "3644": "6a2a",
  "3645": "8f1e",
  "3646": "0fbe",
  "3647": "08dc",
  "3648": "6773",
  "3649": "b703",
  "3650": "790a",
  "3651": "1975",
  "3652": "be5d",
  "3653": "7f6e",
  "3654": "190c",
  "3655": "1c1f",
  "3656": "1eb9",
  "3657": "6fbd",
  "3658": "0c0e",
  "3659": "102c",
  "3660": "be8a",
  "3661": "0569",
  "3662": "bfb4",
  "3663": "8f05",
  "3664": "033c",
  "3665": "b7b2",
  "3666": "7d65",
  "3667": "7ae9",
  "3668": "7dbe",
  "3669": "8d7d",
  "3670": "7763",
  "3671": "888",
  "3672": "07265",
  "3673": "49006e00",
  "3674": "00122",
  "3675": "448be",
  "3676": "488bfb498bf",
  "3677": "498bfdff15",
  "3678": "ffff488bf8ff15",
  "3679": "0151280c101",
  "3680": "810d00",
  "3681": "7a0d00",
  "3682": "410002",
  "3683": "22800002",
  "3684": "08102040800001020408102040800001020408102040800001020408102040800001020408",
  "3685": "10204080000102040810204080000102040810204080000102040810204080000102",
  "3686": "1d1f",
  "3687": "2c08",
  "3688": "bd4d",
  "3689": "0d12",
  "3690": "051",
  "3691": "7b1c",
  "3692": "0903",
  "3693": "8fce",
  "3694": "b359",
  "3695": "7f2c",
  "3696": "51cc",
  "3697": "b8be",
  "3698": "b71d",
  "3699": "6f7",
  "3700": "082c",
  "3701": "7cea",
  "3702": "125d",
  "3703": "6c4",
  "3704": "1d2a",
  "3705": "7100",
  "3706": "625d",
  "3707": "3e99",
  "3708": "bd2d",
  "3709": "396d",
  "3710": "7eef",
  "3711": "2cb",
  "3712": "1005",
  "3713": "1a99",
  "3714": "8fef",
  "3715": "676e",
  "3716": "1e49",
  "3717": "b2ad",
  "3718": "00d00",
  "3719": "7d5a",
  "3720": "6d55",
  "3721": "7402",
  "3722": "023e",
  "3723": "0a1",
  "3724": "7b6f",
  "3725": "6f0e",
  "3726": "6f6f",
  "3727": "8fdf",
  "3728": "b5dd",
  "3729": "0e0e",
  "3730": "4886f",
  "3731": "0fce",
  "3732": "40000",
  "3733": "2602",
  "3734": "9300",
  "3735": "52756e74696d65",
  "3736": "04c8",
  "3737": "6ff4",
  "3738": "536574",
  "3739": "4157415",
  "3740": "488bf84c8d1d",
  "3741": "7db8",
  "3742": "04c8bff488bde",
  "3743": "0000020b",
  "3744": "020375",
  "3745": "4558465f",
  "3746": "413406",
  "3747": "1800002",
  "3748": "880099880099880099880099880099880099880099880099",
  "3749": "ba7a",
  "3750": "b35d",
  "3751": "4559",
  "3752": "baac",
  "3753": "ec0f",
  "3754": "2219",
  "3755": "6e49",
  "3756": "b47",
  "3757": "0f9f",
  "3758": "6ee9",
  "3759": "69fc",
  "3760": "6f99",
  "3761": "4f52",
  "3762": "8e4e",
  "3763": "bf6f",
  "3764": "b45e",
  "3765": "4c69",
  "3766": "02b",
  "3767": "416c",
  "3768": "b24",
  "3769": "0323",
  "3770": "6aaf",
  "3771": "655d",
  "3772": "bbbd",
  "3773": "0a99",
  "3774": "154",
  "3775": "7c3c",
  "3776": "75ef",
  "3777": "1cef",
  "3778": "8d8",
  "3779": "8ded",
  "3780": "4103",
  "3781": "670e",
  "3782": "8955",
  "3783": "792a",
  "3784": "6c6e",
  "3785": "ffac",
  "3786": "0149",
  "3787": "078e",
  "3788": "7b6",
  "3789": "158",
  "3790": "120a",
  "3791": "166f",
  "3792": "061f",
  "3793": "0208",
  "3794": "05200",
  "3795": "064",
  "3796": "ff5c",
  "3797": "7774",
  "3798": "efbe",
  "3799": "ae7a",
  "3800": "7433",
  "3801": "7074696f6e616c",
  "3802": "756c6c",
  "3803": "555350488d",
  "3804": "0498bfd",
  "3805": "7f10ff15",
  "3806": "498d7f10488bf0ff15",
  "3807": "69000000",
  "3808": "00000049c7452006000000498d7d08498bf6ff15",
  "3809": "0010006",
  "3810": "6ff1",
  "3811": "0600062a",
  "3812": "02000a",
  "3813": "415b",
  "3814": "00005b008901e",
  "3815": "79007300740065006d002e00",
  "3816": "118184",
  "3817": "8d0d00",
  "3818": "10204080000102040810204080000102040810204080000102040810204080008",
  "3819": "010204081020408000010204",
  "3820": "0211",
  "3821": "6933",
  "3822": "b9dd",
  "3823": "6d5d",
  "3824": "cf4e",
  "3825": "6433",
  "3826": "1d33",
  "3827": "194",
  "3828": "7fee",
  "3829": "768a",
  "3830": "d7b2",
  "3831": "cfaa",
  "3832": "7fe9",
  "3833": "6333",
  "3834": "b94",
  "3835": "0e3d",
  "3836": "7e7c",
  "3837": "4d8e",
  "3838": "b700",
  "3839": "466c",
  "3840": "bb75",
  "3841": "b93d",
  "3842": "3e7d",
  "3843": "7aff",
  "3844": "7049",
  "3845": "7de9",
  "3846": "793e",
  "3847": "85b",
  "3848": "3c74",
  "3849": "b31a",
  "3850": "7309",
  "3851": "b76e",
  "3852": "699d",
  "3853": "69dd",
  "3854": "554",
  "3855": "1955",
  "3856": "0214",
  "3857": "3339",
  "3858": "6dae",
  "3859": "0f6",
  "3860": "8aba",
  "3861": "69b3",
  "3862": "6d43",
  "3863": "8d8e",
  "3864": "736d",
  "3865": "4400",
  "3866": "0f00",
  "3867": "3dae",
  "3868": "2200",
  "3869": "1caa",
  "3870": "7923",
  "3871": "19ed",
  "3872": "0382",
  "3873": "884",
  "3874": "7a08",
  "3875": "0f3e",
  "3876": "071f",
  "3877": "7955",
  "3878": "0219",
  "3879": "793d",
  "3880": "8500",
  "3881": "6808",
  "3882": "6772",
  "3883": "5f5f",
  "3884": "2a86",
  "3885": "00000001",
  "3886": "0061006c00",
  "3887": "0277b307d",
  "3888": "85c04",
  "3889": "ffff488b",
  "3890": "393fff15",
  "3891": "0900488b85",
  "3892": "000000498d",
  "3893": "0000498bf7ff15",
  "3894": "070041ff13",
  "3895": "6fb3040006",
  "3896": "28ff",
  "3897": "1681",
  "3898": "4886f70d",
  "3899": "77ef",
  "3900": "102040a",
  "3901": "0413",
  "3902": "7e6e",
  "3903": "8d3c",
  "3904": "7a2a",
  "3905": "638a",
  "3906": "b95e",
  "3907": "1501",
  "3908": "0c72",
  "3909": "6373",
  "3910": "8f9e",
  "3911": "bd3d",
  "3912": "841c",
  "3913": "1ab5",
  "3914": "7a4a",
  "3915": "3f7e",
  "3916": "8188",
  "3917": "bd5c",
  "3918": "6fef",
  "3919": "022c",
  "3920": "bbbf",
  "3921": "8b75",
  "3922": "7db",
  "3923": "647a",
  "3924": "084",
  "3925": "63cf",
  "3926": "6474",
  "3927": "1906",
  "3928": "4f04",
  "3929": "bb1",
  "3930": "75ba",
  "3931": "bedd",
  "3932": "6d7e",
  "3933": "b2a9",
  "3934": "7dbd",
  "3935": "727a",
  "3936": "6ded",
  "3937": "7a0a",
  "3938": "b2b3",
  "3939": "b96",
  "3940": "0283",
  "3941": "755f",
  "3942": "7fdf",
  "3943": "578",
  "3944": "7969",
  "3945": "8e39",
  "3946": "b900",
  "3947": "1601",
  "3948": "cfa9",
  "3949": "0fbf",
  "3950": "c53f",
  "3951": "4e1e",
  "3952": "7eb5",
  "3953": "7bef",
  "3954": "160a",
  "3955": "883f",
  "3956": "cf2c",
  "3957": "04979",
  "3958": "2353",
  "3959": "7cef",
  "3960": "4f4f",
  "3961": "1999",
  "3962": "100c",
  "3963": "728a",
  "3964": "efdd",
  "3965": "1ab9",
  "3966": "5443",
  "3967": "b7ba",
  "3968": "1f0e",
  "3969": "0313",
  "3970": "7fce",
  "3971": "4f626a6563",
  "3972": "417267756d656e74",
  "3973": "6e007300",
  "3974": "4242",
  "3975": "5b415d415e415f5d",
  "3976": "488bfe",
  "3977": "5c00f85",
  "3978": "ff153",
  "3979": "ffffff4803",
  "3980": "488d7808",
  "3981": "7400f",
  "3982": "11066f",
  "3983": "1040004",
  "3984": "0400062a",
  "3985": "0600062d",
  "3986": "065735",
  "3987": "0600000081",
  "3988": "240002",
  "3989": "800001020408102040800001020408",
  "3990": "2ea9",
  "3991": "7eba",
  "3992": "81cf",
  "3993": "7273",
  "3994": "48bf",
  "3995": "8249",
  "3996": "777e",
  "3997": "0b75",
  "3998": "8d4d",
  "3999": "2202",
  "4000": "795c",
  "4001": "534",
  "4002": "091c",
  "4003": "0908",
  "4004": "0f0e",
  "4005": "8c5d",
  "4006": "b945",
  "4007": "0c6",
  "4008": "4e6f",
  "4009": "6cbe",
  "4010": "b9be",
  "4011": "75ff",
  "4012": "7d44",
  "4013": "6e69",
  "4014": "097",
  "4015": "104d",
  "4016": "7df9",
  "4017": "0904",
  "4018": "0d1",
  "4019": "554e",
  "4020": "ba5c",
  "4021": "898",
  "4022": "ef8e",
  "4023": "7f59",
  "4024": "821",
  "4025": "7ced",
  "4026": "4d5f",
  "4027": "083c",
  "4028": "bc79",
  "4029": "b96e",
  "4030": "b7b4",
  "4031": "6daf",
  "4032": "4a1a",
  "4033": "1119",
  "4034": "0b9d",
  "4035": "cf2f",
  "4036": "baa9",
  "4037": "ba2e",
  "4038": "880a",
  "4039": "7c5c",
  "4040": "7fae",
  "4041": "851",
  "4042": "228",
  "4043": "1929",
  "4044": "727d",
  "4045": "7f5d",
  "4046": "0333",
  "4047": "6f69",
  "4048": "540e",
  "4049": "cc0a",
  "4050": "6ce9",
  "4051": "b4bd",
  "4052": "bf9e",
  "4053": "7509",
  "4054": "0a4c",
  "4055": "49fe",
  "4056": "0393",
  "4057": "c00",
  "4058": "63b3",
  "4059": "b5b5",
  "4060": "6fce",
  "4061": "b31d",
  "4062": "2c12",
  "4063": "efef",
  "4064": "1f5f",
  "4065": "7cec",
  "4066": "1404",
  "4067": "3eff",
  "4068": "b26",
  "4069": "8c6",
  "4070": "022d",
  "4071": "6dad",
  "4072": "72ba",
  "4073": "b76",
  "4074": "b78",
  "4075": "06009",
  "4076": "1a65",
  "4077": "b38",
  "4078": "7f18",
  "4079": "4164",
  "4080": "1fef",
  "4081": "436f6d",
  "4082": "4e002f",
  "4083": "0e07000e220a3009c007d005e003f001500000bcf80500",
  "4084": "1114",
  "4085": "7274",
  "4086": "0a00488b3",
  "4087": "e415fc3",
  "4088": "78ffffff",
  "4089": "ff15d",
  "4090": "0498bf5ff15",
  "4091": "88000000",
  "4092": "0900488bf",
  "4093": "036fb3040006",
  "4094": "830d00",
  "4095": "660022660022660022660022660022660022660022660022",
  "4096": "01084000021080000420000108400002",
  "4097": "0001020408102040800001020408",
  "4098": "001111001111001111001111001111001111001111001111001111001111001111001111001111001111001111001111",
  "4099": "0502",
  "4100": "8edf",
  "4101": "befd",
  "4102": "4669",
  "4103": "6fde",
  "4104": "6ddf",
  "4105": "bdbe",
  "4106": "67bf",
  "4107": "7daf",
  "4108": "62b3",
  "4109": "bb7a",
  "4110": "ba9c",
  "4111": "1a00",
  "4112": "7f1c",
  "4113": "834",
  "4114": "153d",
  "4115": "0e9f",
  "4116": "7dbf",
  "4117": "1e3e",
  "4118": "b93e",
  "4119": "bd5f",
  "4120": "2d12",
  "4121": "7f3c",
  "4122": "8e99",
  "4123": "7f85",
  "4124": "0c81",
  "4125": "258a",
  "4126": "2239",
  "4127": "777",
  "4128": "8e2e",
  "4129": "6ea9",
  "4130": "1449",
  "4131": "7d4",
  "4132": "73b5",
  "4133": "0999",
  "4134": "454e",
  "4135": "cf5e",
  "4136": "016",
  "4137": "b959",
  "4138": "0773",
  "4139": "056",
  "4140": "6b6f",
  "4141": "5d4",
  "4142": "b2dd",
  "4143": "894d",
  "4144": "74ee",
  "4145": "0c3f",
  "4146": "cf4",
  "4147": "6a39",
  "4148": "11b",
  "4149": "b4b9",
  "4150": "1933",
  "4151": "1279",
  "4152": "0372",
  "4153": "49aa",
  "4154": "08ac",
  "4155": "7bb5",
  "4156": "6d33",
  "4157": "048e",
  "4158": "75df",
  "4159": "7aad",
  "4160": "749e",
  "4161": "bf1",
  "4162": "7c6e",
  "4163": "b53d",
  "4164": "b204",
  "4165": "4708",
  "4166": "be63",
  "4167": "2d22",
  "4168": "7d2a",
  "4169": "0f9e",
  "4170": "1485",
  "4171": "491",
  "4172": "8b44",
  "4173": "ccad",
  "4174": "1fdd",
  "4175": "7568",
  "4176": "7eb9",
  "4177": "7d79",
  "4178": "73e3",
  "4179": "48a5",
  "4180": "691",
  "4181": "b365",
  "4182": "726",
  "4183": "418bc",
  "4184": "6f74206",
  "4185": "021d",
  "4186": "766f6b",
  "4187": "417373",
  "4188": "6e007400",
  "4189": "07175",
  "4190": "24488d",
  "4191": "0a004c8be",
  "4192": "7488d",
  "4193": "000000393f41ff13",
  "4194": "00900488",
  "4195": "7400fb6ff",
  "4196": "0700488b37498d7f08ff15",
  "4197": "41c7471",
  "4198": "a22517",
  "4199": "1f1f1f",
  "4200": "0400042a2202037d",
  "4201": "10200",
  "4202": "06573587",
  "4203": "06573587025",
  "4204": "050568",
  "4205": "00000100f",
  "4206": "8c0d00",
  "4207": "160002",
  "4208": "000102040810204080008",
  "4209": "888800888800888800888800888800888800888800888800888800888800888800888800888800888800888800888800",
  "4210": "0606",
  "4211": "11461",
  "4212": "1e29",
  "4213": "1904",
  "4214": "1daa",
  "4215": "0d4",
  "4216": "130e",
  "4217": "6aaa",
  "4218": "3d3c",
  "4219": "cfec",
  "4220": "1333",
  "4221": "4e9f",
  "4222": "be4",
  "4223": "bfde",
  "4224": "040e",
  "4225": "bd09",
  "4226": "7d3d",
  "4227": "0a44",
  "4228": "b473",
  "4229": "6f9e",
  "4230": "478f",
  "4231": "6f7f",
  "4232": "0f1",
  "4233": "83b5",
  "4234": "0f7e",
  "4235": "6c3e",
  "4236": "6e73",
  "4237": "768d",
  "4238": "4308",
  "4239": "0d99",
  "4240": "258f",
  "4241": "1555",
  "4242": "739c",
  "4243": "2b06",
  "4244": "bc7c",
  "4245": "8a2d",
  "4246": "bd99",
  "4247": "cfbf",
  "4248": "038",
  "4249": "0477",
  "4250": "bddd",
  "4251": "eded",
  "4252": "064d",
  "4253": "b455",
  "4254": "7c4a",
  "4255": "75f9",
  "4256": "333c",
  "4257": "7d5c",
  "4258": "093c",
  "4259": "0c4",
  "4260": "727e",
  "4261": "0c39",
  "4262": "08ec",
  "4263": "b4f3",
  "4264": "8bbd",
  "4265": "07b9",
  "4266": "1e7a",
  "4267": "79ea",
  "4268": "723d",
  "4269": "bc2c",
  "4270": "729e",
  "4271": "100f",
  "4272": "795a",
  "4273": "0d06",
  "4274": "b483",
  "4275": "0f44",
  "4276": "1113",
  "4277": "676d",
  "4278": "bcb5",
  "4279": "ff1c",
  "4280": "7ffe",
  "4281": "8d6",
  "4282": "1433",
  "4283": "7c3e",
  "4284": "7ed9",
  "4285": "0601",
  "4286": "851c",
  "4287": "7a0e",
  "4288": "0719",
  "4289": "ba92",
  "4290": "4f5d",
  "4291": "7f7",
  "4292": "7463",
  "4293": "6f5c",
  "4294": "1e01",
  "4295": "776f",
  "4296": "1145",
  "4297": "1faf",
  "4298": "82e4",
  "4299": "e42",
  "4300": "525e",
  "4301": "1f13",
  "4302": "8f2c",
  "4303": "bb79",
  "4304": "bddf",
  "4305": "456e756d",
  "4306": "0065007300",
  "4307": "0303000302023001500000bcf80500",
  "4308": "7395",
  "4309": "706c69636974",
  "4310": "0a00488bd",
  "4311": "10498bf7ff15",
  "4312": "0900488945",
  "4313": "7e0800",
  "4314": "9c7451",
  "4315": "11056f",
  "4316": "2acccccc32",
  "4317": "8050006",
  "4318": "0400042acccccc1e",
  "4319": "010505",
  "4320": "318568",
  "4321": "61644",
  "4322": "457272",
  "4323": "05003",
  "4324": "7e0d00",
  "4325": "cc0044cc00",
  "4326": "001133001133001133001133001133001133001133001133",
  "4327": "10204080000102040810204080000102040810204080c",
  "4328": "888800888c",
  "4329": "00444400444e",
  "4330": "2340800001020408",
  "4331": "bb8e",
  "4332": "432c",
  "4333": "8d8f",
  "4334": "7daa",
  "4335": "ba5d",
  "4336": "7343",
  "4337": "3f0e",
  "4338": "6a1d",
  "4339": "be7c",
  "4340": "736a",
  "4341": "0d02",
  "4342": "702e",
  "4343": "828",
  "4344": "8b0f",
  "4345": "6665",
  "4346": "0305",
  "4347": "6e3d",
  "4348": "6d6e",
  "4349": "bfb5",
  "4350": "752d",
  "4351": "148",
  "4352": "638d",
  "4353": "654",
  "4354": "458",
  "4355": "6bcc",
  "4356": "648e",
  "4357": "624",
  "4358": "07cc",
  "4359": "b77f",
  "4360": "b574",
  "4361": "0d1d",
  "4362": "7f1",
  "4363": "bd4c",
  "4364": "486",
  "4365": "3e5f",
  "4366": "b522",
  "4367": "4a1",
  "4368": "0a7e",
  "4369": "85c9",
  "4370": "bf2a",
  "4371": "b333",
  "4372": "7ef9",
  "4373": "753f",
  "4374": "1146",
  "4375": "6579",
  "4376": "0f6c",
  "4377": "1a5a",
  "4378": "b34d",
  "4379": "bcba",
  "4380": "7363",
  "4381": "7efe",
  "4382": "bf0d",
  "4383": "767e",
  "4384": "7ddd",
  "4385": "73fd",
  "4386": "424",
  "4387": "1c4",
  "4388": "0602",
  "4389": "75aa",
  "4390": "7aef",
  "4391": "bebc",
  "4392": "4b69",
  "4393": "74b9",
  "4394": "1f11",
  "4395": "3dba",
  "4396": "6fbf",
  "4397": "1393",
  "4398": "6f1a",
  "4399": "7b04",
  "4400": "b2bd",
  "4401": "8fbd",
  "4402": "0a22",
  "4403": "8562",
  "4404": "bfbf",
  "4405": "f3cf",
  "4406": "7b7f",
  "4407": "527d",
  "4408": "068",
  "4409": "4e9d",
  "4410": "759c",
  "4411": "7c2a",
  "4412": "0369",
  "4413": "0b6",
  "4414": "2a2a",
  "4415": "8fb",
  "4416": "cf9e",
  "4417": "1b02",
  "4418": "8f8e",
  "4419": "bbbe",
  "4420": "7faa",
  "4421": "73ec",
  "4422": "1e3c",
  "4423": "1d3c",
  "4424": "bfbc",
  "4425": "6f39",
  "4426": "e929",
  "4427": "000003",
  "4428": "8b8f",
  "4429": "0a6c",
  "4430": "8300",
  "4431": "ef9f",
  "4432": "b57",
  "4433": "3200",
  "4434": "0300e",
  "4435": "4f7074696f6e616c",
  "4436": "007000000",
  "4437": "0747970652",
  "4438": "3d2ff15",
  "4439": "7f95",
  "4440": "498bfd4c8d1d",
  "4441": "488b7b1",
  "4442": "488b7f08",
  "4443": "488d7b08",
  "4444": "bf9c",
  "4445": "88feffff",
  "4446": "6706",
  "4447": "74b8",
  "4448": "7900000125d",
  "4449": "027b7",
  "4450": "0d001",
  "4451": "0497a",
  "4452": "002222002",
  "4453": "ef9e",
  "4454": "0508",
  "4455": "6f73",
  "4456": "b3dd",
  "4457": "b255",
  "4458": "076a",
  "4459": "0f5d",
  "4460": "9200",
  "4461": "092a",
  "4462": "63aa",
  "4463": "929",
  "4464": "456",
  "4465": "6ddc",
  "4466": "738e",
  "4467": "0259",
  "4468": "1ebe",
  "4469": "1f7e",
  "4470": "7f6a",
  "4471": "1f9e",
  "4472": "83f9",
  "4473": "1e1c",
  "4474": "154f",
  "4475": "6e75",
  "4476": "b95c",
  "4477": "4ea9",
  "4478": "7ded",
  "4479": "892a",
  "4480": "524",
  "4481": "1e55",
  "4482": "77cc",
  "4483": "5d7d",
  "4484": "be9d",
  "4485": "8bb",
  "4486": "0483",
  "4487": "0309",
  "4488": "0969",
  "4489": "4f2f",
  "4490": "0599",
  "4491": "7c7f",
  "4492": "4604",
  "4493": "88bf",
  "4494": "4a8",
  "4495": "4f59",
  "4496": "8e7a",
  "4497": "4e7e",
  "4498": "bf3e",
  "4499": "7679",
  "4500": "ac29",
  "4501": "121",
  "4502": "0a2f",
  "4503": "65b5",
  "4504": "0672",
  "4505": "6275",
  "4506": "0d04",
  "4507": "6f3c",
  "4508": "7fd9",
  "4509": "1ee9",
  "4510": "7cba",
  "4511": "babe",
  "4512": "1f2a",
  "4513": "656",
  "4514": "6f8e",
  "4515": "1d5d",
  "4516": "b51d",
  "4517": "1d4",
  "4518": "1d45",
  "4519": "0c8",
  "4520": "0c9f",
  "4521": "2c0a",
  "4522": "b23d",
  "4523": "259",
  "4524": "4909",
  "4525": "6c7",
  "4526": "0a5c",
  "4527": "74ed",
  "4528": "4cbe",
  "4529": "0308",
  "4530": "cf95",
  "4531": "0515",
  "4532": "1aad",
  "4533": "726e",
  "4534": "cfcc",
  "4535": "7765",
  "4536": "b9fc",
  "4537": "72ec",
  "4538": "bf04",
  "4539": "6769",
  "4540": "2f2c",
  "4541": "3953",
  "4542": "bed9",
  "4543": "0ab9",
  "4544": "3f5f",
  "4545": "436c",
  "4546": "b4b4",
  "4547": "6eba",
  "4548": "0a38",
  "4549": "6f62",
  "4550": "2f5f",
  "4551": "b9de",
  "4552": "bbb",
  "4553": "be6d",
  "4554": "bd43",
  "4555": "1500",
  "4556": "bf2f",
  "4557": "74b3",
  "4558": "566965",
  "4559": "7453",
  "4560": "8daa",
  "4561": "6f8",
  "4562": "ef2c",
  "4563": "b3ff",
  "4564": "7d6c",
  "4565": "00000002000000",
  "4566": "00600",
  "4567": "10004",
  "4568": "006765745f",
  "4569": "757374",
  "4570": "10400",
  "4571": "00000011",
  "4572": "02000000ff15",
  "4573": "55415741565350488d6c242",
  "4574": "0498bffff15",
  "4575": "5b415f5d",
  "4576": "ff15c",
  "4577": "0498bf6ff15",
  "4578": "080085c074",
  "4579": "0700498dbf",
  "4580": "0600393f5d49ff23cccccccccccccccccccccccccccccc55488bec4c8d1d",
  "4581": "060041c7471",
  "4582": "000001280600000a72",
  "4583": "000001004ba3",
  "4584": "2a864886f70d",
  "4585": "10204080000102040810204080000102040810204080000102040810204080c",
  "4586": "0edf",
  "4587": "85ad",
  "4588": "b6cc",
  "4589": "75b3",
  "4590": "1583",
  "4591": "5e7e",
  "4592": "6c6",
  "4593": "7d3a",
  "4594": "b3c9",
  "4595": "cf42",
  "4596": "7caa",
  "4597": "4955",
  "4598": "bb8f",
  "4599": "be15",
  "4600": "b38e",
  "4601": "b7bd",
  "4602": "b4f9",
  "4603": "bdb",
  "4604": "bdfd",
  "4605": "7b03",
  "4606": "14b3",
  "4607": "7afd",
  "4608": "0b3f",
  "4609": "7eb",
  "4610": "8555",
  "4611": "8fde",
  "4612": "6e4e",
  "4613": "6c6d",
  "4614": "b2b",
  "4615": "6ca9",
  "4616": "b30e",
  "4617": "bdba",
  "4618": "7a62",
  "4619": "678",
  "4620": "74dc",
  "4621": "751a",
  "4622": "22dc",
  "4623": "126d",
  "4624": "4862",
  "4625": "6e83",
  "4626": "3c3e",
  "4627": "110d",
  "4628": "7c8a",
  "4629": "081d",
  "4630": "8a1",
  "4631": "8ab5",
  "4632": "0fae",
  "4633": "be3d",
  "4634": "ae75",
  "4635": "b39c",
  "4636": "bced",
  "4637": "8343",
  "4638": "1f3c",
  "4639": "067",
  "4640": "725c",
  "4641": "67b3",
  "4642": "492a",
  "4643": "6ab",
  "4644": "ffed",
  "4645": "b5bd",
  "4646": "b46a",
  "4647": "7474",
  "4648": "6a8f",
  "4649": "8e9a",
  "4650": "b28a",
  "4651": "67b5",
  "4652": "095c",
  "4653": "8f9d",
  "4654": "052a",
  "4655": "79dd",
  "4656": "6869",
  "4657": "6fa9",
  "4658": "010f",
  "4659": "6e6d",
  "4660": "0f4f",
  "4661": "4d4f",
  "4662": "6a55",
  "4663": "b6b5",
  "4664": "4e09",
  "4665": "cf1",
  "4666": "8b65",
  "4667": "4443",
  "4668": "75f5",
  "4669": "4eaa",
  "4670": "cc1",
  "4671": "0e32",
  "4672": "1cbe",
  "4673": "bfac",
  "4674": "0b8",
  "4675": "abf",
  "4676": "856",
  "4677": "bd7f",
  "4678": "1903",
  "4679": "1e3d",
  "4680": "4f8f",
  "4681": "0779",
  "4682": "7fad",
  "4683": "cfdc",
  "4684": "4ddd",
  "4685": "625f",
  "4686": "bd6d",
  "4687": "b963",
  "4688": "ff39",
  "4689": "3edd",
  "4690": "ff8f",
  "4691": "4200",
  "4692": "91cf",
  "4693": "6cdd",
  "4694": "0000002",
  "4695": "8c02",
  "4696": "7b79",
  "4697": "5a49",
  "4698": "6d99",
  "4699": "bfad",
  "4700": "3d22",
  "4701": "0b07",
  "4702": "cfac",
  "4703": "440f",
  "4704": "4d00",
  "4705": "61626c",
  "4706": "0277b307d272",
  "4707": "0a00393f41ff13",
  "4708": "3c4085b415e415f5d48ff2",
  "4709": "0e4889",
  "4710": "833f6ff15",
  "4711": "0600498d7f10488bf0ff15",
  "4712": "7028030000062a2e72",
  "4713": "175813",
  "4714": "0000022",
  "4715": "060006a228a0060006",
  "4716": "b439",
  "4717": "42a24301",
  "4718": "446566",
  "4719": "128204",
  "4720": "1cf90580010000001cf90580010000001cf90580010000001cf90580010000001cf90580010000001cf90580010000001cf90580010000001cf90580010000001cf90580010000001cf90580010000001cf90580010000001cf90580010000001cf90580010000001cf90580010000001cf90580010000001cf9058001000000",
  "4721": "1040e",
  "4722": "1080000420000108400002108000042000010840000210800004200001084000021080000",
  "4723": "740800001020408",
  "4724": "000420000108",
  "4725": "1203",
  "4726": "073f",
  "4727": "6b6e",
  "4728": "bc9d",
  "4729": "626e",
  "4730": "2953",
  "4731": "2c2d",
  "4732": "8a7",
  "4733": "7239",
  "4734": "b2d9",
  "4735": "8201",
  "4736": "0039",
  "4737": "154d",
  "4738": "1a2a",
  "4739": "731",
  "4740": "2279",
  "4741": "716e",
  "4742": "1502",
  "4743": "1f8",
  "4744": "cc3c",
  "4745": "718e",
  "4746": "b48d",
  "4747": "0a59",
  "4748": "64ba",
  "4749": "7a29",
  "4750": "7ebd",
  "4751": "7e2c",
  "4752": "bdad",
  "4753": "0383",
  "4754": "752e",
  "4755": "bf6a",
  "4756": "6164",
  "4757": "aaaa",
  "4758": "0bdf",
  "4759": "5a4a",
  "4760": "7423",
  "4761": "b773",
  "4762": "250a",
  "4763": "0652",
  "4764": "6669",
  "4765": "cf63",
  "4766": "b9aa",
  "4767": "bc7",
  "4768": "1ddd",
  "4769": "7933",
  "4770": "63ce",
  "4771": "07b",
  "4772": "8e7f",
  "4773": "1aaa",
  "4774": "b4ac",
  "4775": "b24a",
  "4776": "8a9e",
  "4777": "723e",
  "4778": "1b8f",
  "4779": "0815",
  "4780": "ffe1",
  "4781": "bd9f",
  "4782": "b9b5",
  "4783": "7ab5",
  "4784": "1fdf",
  "4785": "1373",
  "4786": "677",
  "4787": "1a3e",
  "4788": "baf5",
  "4789": "4fbe",
  "4790": "b9ff",
  "4791": "7cde",
  "4792": "8a4a",
  "4793": "73a9",
  "4794": "32d",
  "4795": "1e3f",
  "4796": "881",
  "4797": "73fa",
  "4798": "086",
  "4799": "671e",
  "4800": "138",
  "4801": "7585",
  "4802": "5f5d",
  "4803": "693c",
  "4804": "5363",
  "4805": "75fe",
  "4806": "b4ed",
  "4807": "7f8f",
  "4808": "b459",
  "4809": "7f4d",
  "4810": "852d",
  "4811": "7bcf",
  "4812": "737d",
  "4813": "7579",
  "4814": "b95f",
  "4815": "7235",
  "4816": "7f45",
  "4817": "7e1e",
  "4818": "8caf",
  "4819": "8d2d",
  "4820": "cf33",
  "4821": "6f85",
  "4822": "4f22",
  "4823": "784",
  "4824": "6f49",
  "4825": "b4d9",
  "4826": "1f6e",
  "4827": "6d63",
  "4828": "6765",
  "4829": "ba79",
  "4830": "6f8f",
  "4831": "1e45",
  "4832": "848",
  "4833": "0229",
  "4834": "1ca9",
  "4835": "771d",
  "4836": "62e9",
  "4837": "04213",
  "4838": "b4ad",
  "4839": "7773",
  "4840": "0a79",
  "4841": "7f9f",
  "4842": "bd63",
  "4843": "0ddd",
  "4844": "1e5c",
  "4845": "3c0e",
  "4846": "1dad",
  "4847": "0e33",
  "4848": "ef3c",
  "4849": "8401",
  "4850": "cf2d",
  "4851": "b45a",
  "4852": "ba43",
  "4853": "065d",
  "4854": "4603",
  "4855": "0fee",
  "4856": "8b8",
  "4857": "072a",
  "4858": "bfed",
  "4859": "6da9",
  "4860": "4d3e",
  "4861": "beff",
  "4862": "af9e",
  "4863": "1759",
  "4864": "b4708",
  "4865": "3f6e",
  "4866": "48899",
  "4867": "b955",
  "4868": "055d",
  "4869": "7d04",
  "4870": "09909",
  "4871": "8600",
  "4872": "4c06",
  "4873": "000100",
  "4874": "479706500",
  "4875": "6572656e",
  "4876": "00062",
  "4877": "0113",
  "4878": "8b800",
  "4879": "627e",
  "4880": "488945",
  "4881": "10498bf6ff15",
  "4882": "6400f",
  "4883": "40f29",
  "4884": "4885d",
  "4885": "33c0c3",
  "4886": "488b0e4889",
  "4887": "780800",
  "4888": "498bfe4c8d1d",
  "4889": "488b7b4",
  "4890": "48897",
  "4891": "b7808",
  "4892": "fffd",
  "4893": "488d7b",
  "4894": "09004c8bf8488b3",
  "4895": "9c745",
  "4896": "ff410f",
  "4897": "ff410f11461",
  "4898": "ff410f114610ff15",
  "4899": "94050006",
  "4900": "0300062d",
  "4901": "161a8d",
  "4902": "161a8d6100000125d",
  "4903": "08cc",
  "4904": "9a52",
  "4905": "6172794f",
  "4906": "012827c",
  "4907": "160085",
  "4908": "06092a864886f70d",
  "4909": "1080000420000108400002108000042000010840000210800004200001084000021080000420000108400002108000042000010840000210800004200001084000021080000420000108400002108000042000010840000210800004200001084000021080000420000108400002108000042000010840000210800004200001084000021080000420000108400002108000042000010840000210800004200001084000021080000420000108400002108000042000010840000210800004200001084000021080000420000108400002108000042000010840000210800004200001084000021080000420000108400002108000042000010840000210800004200001084000021080000420000108400002108000042000010840000210800004200001084000021080000420000108400002108000042000010840000210800004200001084000021080000420000108400002108000042000010840000210800004200001084000021080000420000108400002108000042000010840000210800004200001084000021080000420000108400002108000042000010840000210800004200001084000021080000420000108400002108000042000010840000210800004200001084000021080000420000108400002108000042000010840000210800004200001084000021080000420000108400002108000042000010840000210800004200001084000021080000420000108400002108000042000010840000210800004200001084000021080000420000108400002108000042000010840000210800004200001084000021080000420000108400002108000042000010840000210800004200001084000021080000420000108400002108000042000010840000210800004200001084000021080000420000108400002108000042000010840000210800004200001084000021080000420000108400002",
  "4910": "108000042000010840000210800004200001084000021080000420000108",
  "4911": "efde",
  "4912": "cc0044ce",
  "4913": "2240800001020408",
  "4914": "040810204080008",
  "4915": "1101",
  "4916": "7d15",
  "4917": "cf6e",
  "4918": "1ef9",
  "4919": "5355",
  "4920": "d352",
  "4921": "8aaf",
  "4922": "1939",
  "4923": "692a",
  "4924": "b95d",
  "4925": "0b03",
  "4926": "49ed",
  "4927": "752c",
  "4928": "b29d",
  "4929": "6d2d",
  "4930": "cf4f",
  "4931": "4963",
  "4932": "680c",
  "4933": "690c",
  "4934": "aeaa",
  "4935": "1c0c",
  "4936": "b5ef",
  "4937": "6fec",
  "4938": "1c12",
  "4939": "2929",
  "4940": "0b13",
  "4941": "8a3d",
  "4942": "6edc",
  "4943": "aa92",
  "4944": "b5ff",
  "4945": "790d",
  "4946": "099c",
  "4947": "cc55",
  "4948": "b774",
  "4949": "7e1c",
  "4950": "1add",
  "4951": "883c",
  "4952": "820a",
  "4953": "0a95",
  "4954": "29ae",
  "4955": "b1b3",
  "4956": "6faa",
  "4957": "b9b",
  "4958": "0eb",
  "4959": "43e9",
  "4960": "7c3f",
  "4961": "62ed",
  "4962": "5f6e",
  "4963": "632c",
  "4964": "4c39",
  "4965": "7edd",
  "4966": "ba7",
  "4967": "6103",
  "4968": "b9df",
  "4969": "734",
  "4970": "bdfa",
  "4971": "4b6e",
  "4972": "028",
  "4973": "6cad",
  "4974": "0e1a",
  "4975": "753d",
  "4976": "6d3d",
  "4977": "1a33",
  "4978": "b783",
  "4979": "6dbf",
  "4980": "7dac",
  "4981": "7df2",
  "4982": "69ef",
  "4983": "39a9",
  "4984": "6f0f",
  "4985": "734d",
  "4986": "6ae9",
  "4987": "6f19",
  "4988": "ccdf",
  "4989": "3c9c",
  "4990": "398",
  "4991": "7b63",
  "4992": "0806",
  "4993": "65a9",
  "4994": "123e",
  "4995": "0b3c",
  "4996": "6d4d",
  "4997": "6969",
  "4998": "4349",
  "4999": "152d",
  "5000": "6a7",
  "5001": "7c6a",
  "5002": "33f9",
  "5003": "1f1",
  "5004": "8fba",
  "5005": "911",
  "5006": "8fbe",
  "5007": "b37",
  "5008": "4f3e",
  "5009": "7245",
  "5010": "43fe",
  "5011": "0929",
  "5012": "1a6a",
  "5013": "7a9c",
  "5014": "0aac",
  "5015": "69e9",
  "5016": "7fdd",
  "5017": "0c1",
  "5018": "1c04",
  "5019": "b10a",
  "5020": "0ead",
  "5021": "73ee",
  "5022": "392a",
  "5023": "047c",
  "5024": "02a9",
  "5025": "192a",
  "5026": "bd3e",
  "5027": "1f9f",
  "5028": "1d99",
  "5029": "0fa9",
  "5030": "0bb",
  "5031": "6b74",
  "5032": "6142",
  "5033": "7fbd",
  "5034": "7802",
  "5035": "b9fd",
  "5036": "0159",
  "5037": "753e",
  "5038": "8d4f",
  "5039": "1f2e",
  "5040": "1c1e",
  "5041": "0109",
  "5042": "7ef3",
  "5043": "1042",
  "5044": "7413",
  "5045": "7dc8",
  "5046": "04ae",
  "5047": "be0a",
  "5048": "cf8e",
  "5049": "0e99",
  "5050": "1d55",
  "5051": "199f",
  "5052": "4e3e",
  "5053": "6eaf",
  "5054": "bd7",
  "5055": "bf55",
  "5056": "0b2f",
  "5057": "89dd",
  "5058": "89d9",
  "5059": "b322",
  "5060": "cf79",
  "5061": "7fde",
  "5062": "6f63",
  "5063": "733d",
  "5064": "5f00",
  "5065": "b16",
  "5066": "7f8a",
  "5067": "0c1f",
  "5068": "75c8",
  "5069": "4172726179",
  "5070": "6f7572",
  "5071": "6d006500",
  "5072": "6f79",
  "5073": "7db5",
  "5074": "526573",
  "5075": "73206",
  "5076": "0488d05",
  "5077": "498d7e",
  "5078": "ff159",
  "5079": "05dc3",
  "5080": "5541574156415553488d6c2420488bdf",
  "5081": "026",
  "5082": "04d85f6",
  "5083": "8578feffff",
  "5084": "0800488b85",
  "5085": "6393",
  "5086": "070090488",
  "5087": "180800",
  "5088": "02281300000a",
  "5089": "000011036f",
  "5090": "07000000c401",
  "5091": "000001002fa3000001002fa3000001002fa3000001002fa3",
  "5092": "4552525f",
  "5093": "53796d62",
  "5094": "42696e64",
  "5095": "b9d5",
  "5096": "14ff",
  "5097": "34d",
  "5098": "1d2f",
  "5099": "4c1e",
  "5100": "b355",
  "5101": "7185",
  "5102": "b46d",
  "5103": "079a",
  "5104": "8ddd",
  "5105": "0c74",
  "5106": "73cc",
  "5107": "7a89",
  "5108": "7b75",
  "5109": "6e2d",
  "5110": "4a7a",
  "5111": "6d5c",
  "5112": "493c",
  "5113": "1249",
  "5114": "b9ed",
  "5115": "2e9",
  "5116": "4fdd",
  "5117": "724f",
  "5118": "7bb2",
  "5119": "1f5c",
  "5120": "005d",
  "5121": "0913",
  "5122": "0f99",
  "5123": "b9fa",
  "5124": "2ead",
  "5125": "0492",
  "5126": "0f5e",
  "5127": "776d",
  "5128": "7f15",
  "5129": "69f9",
  "5130": "7c0f",
  "5131": "0fec",
  "5132": "797",
  "5133": "b36a",
  "5134": "82aa",
  "5135": "bd45",
  "5136": "b200",
  "5137": "6f3d",
  "5138": "000f",
  "5139": "7a73",
  "5140": "b98e",
  "5141": "7c7e",
  "5142": "6d39",
  "5143": "ed2d",
  "5144": "4f1a",
  "5145": "4953",
  "5146": "8a2a",
  "5147": "be2a",
  "5148": "83fa",
  "5149": "1d62",
  "5150": "681d",
  "5151": "69ac",
  "5152": "befe",
  "5153": "7fec",
  "5154": "cf45",
  "5155": "6fd5",
  "5156": "7069",
  "5157": "6bb3",
  "5158": "0fdd",
  "5159": "696a",
  "5160": "8bf9",
  "5161": "7bcc",
  "5162": "b173",
  "5163": "6a8",
  "5164": "b71",
  "5165": "5365",
  "5166": "224",
  "5167": "b55e",
  "5168": "bc6a",
  "5169": "4d9f",
  "5170": "02b5",
  "5171": "1a5d",
  "5172": "0dcd",
  "5173": "1a29",
  "5174": "b94d",
  "5175": "72d9",
  "5176": "9a04",
  "5177": "01a2",
  "5178": "1e4e",
  "5179": "a54",
  "5180": "121a",
  "5181": "ba4e",
  "5182": "4c63",
  "5183": "0a39",
  "5184": "bc2a",
  "5185": "17cf",
  "5186": "5a3d",
  "5187": "b2e9",
  "5188": "1c05",
  "5189": "bf08",
  "5190": "be1",
  "5191": "2fcc",
  "5192": "6d45",
  "5193": "6673",
  "5194": "119f",
  "5195": "659a",
  "5196": "6708",
  "5197": "8eba",
  "5198": "6b8",
  "5199": "4413",
  "5200": "b2cf",
  "5201": "054",
  "5202": "2c0d",
  "5203": "0fdf",
  "5204": "0ab",
  "5205": "ef6e",
  "5206": "b944",
  "5207": "328",
  "5208": "ba59",
  "5209": "0a6",
  "5210": "495d",
  "5211": "0d55",
  "5212": "bf5e",
  "5213": "bf4d",
  "5214": "3333",
  "5215": "bfb2",
  "5216": "65da",
  "5217": "d7b4",
  "5218": "bedf",
  "5219": "6999",
  "5220": "15a9",
  "5221": "8e6e",
  "5222": "6672",
  "5223": "511",
  "5224": "62bd",
  "5225": "614",
  "5226": "764d",
  "5227": "8d2c",
  "5228": "488bc",
  "5229": "0b5d",
  "5230": "062d",
  "5231": "1e79",
  "5232": "0fde",
  "5233": "7da2",
  "5234": "8f1",
  "5235": "7d2d",
  "5236": "6fb",
  "5237": "703a",
  "5238": "b965",
  "5239": "4c0a",
  "5240": "6f65",
  "5241": "84000000",
  "5242": "5922",
  "5243": "738f",
  "5244": "af3e",
  "5245": "0645",
  "5246": "bf79",
  "5247": "70000",
  "5248": "7dfc",
  "5249": "efce",
  "5250": "09e9",
  "5251": "22079",
  "5252": "4144",
  "5253": "cfe9",
  "5254": "b75d",
  "5255": "6f7a",
  "5256": "04ec",
  "5257": "a08",
  "5258": "050e",
  "5259": "7b003703",
  "5260": "64006765745f",
  "5261": "72006100",
  "5262": "0628",
  "5263": "010401",
  "5264": "b9bc",
  "5265": "0100002",
  "5266": "646566",
  "5267": "498bf6",
  "5268": "6400fb6f",
  "5269": "0498bd",
  "5270": "104c8d1d",
  "5271": "831",
  "5272": "104889",
  "5273": "680f",
  "5274": "10000000ff15",
  "5275": "488b53",
  "5276": "0700488bd",
  "5277": "07004c8bf00f",
  "5278": "870060006",
  "5279": "050006a2251f",
  "5280": "496e646578",
  "5281": "696e65644",
  "5282": "70657261746f72",
  "5283": "10800004200001084000021080000420008",
  "5284": "110e",
  "5285": "198d",
  "5286": "639f",
  "5287": "b21a",
  "5288": "b804",
  "5289": "7e2a",
  "5290": "6c2c",
  "5291": "592d",
  "5292": "8cb3",
  "5293": "8caa",
  "5294": "b3cd",
  "5295": "4f3f",
  "5296": "490d",
  "5297": "1e9e",
  "5298": "bd2e",
  "5299": "6b8a",
  "5300": "020f",
  "5301": "6a88",
  "5302": "7d7a",
  "5303": "7b1",
  "5304": "7800",
  "5305": "3e9c",
  "5306": "6472",
  "5307": "bf5c",
  "5308": "7d7d",
  "5309": "b21",
  "5310": "badf",
  "5311": "bb6c",
  "5312": "1c1d",
  "5313": "1b04",
  "5314": "8e55",
  "5315": "0399",
  "5316": "7dec",
  "5317": "bd2c",
  "5318": "7f6c",
  "5319": "493d",
  "5320": "6eac",
  "5321": "0eb5",
  "5322": "5aba",
  "5323": "8f3c",
  "5324": "04dc",
  "5325": "b3ed",
  "5326": "7559",
  "5327": "1f75",
  "5328": "4f29",
  "5329": "7fa9",
  "5330": "4455",
  "5331": "b545",
  "5332": "cc6",
  "5333": "49ac",
  "5334": "697",
  "5335": "6f4",
  "5336": "6804",
  "5337": "7b6e",
  "5338": "ba55",
  "5339": "7dfd",
  "5340": "695e",
  "5341": "4d85",
  "5342": "7a2f",
  "5343": "63ad",
  "5344": "0b2e",
  "5345": "1c79",
  "5346": "754d",
  "5347": "0c99",
  "5348": "4d45",
  "5349": "8a9f",
  "5350": "2c13",
  "5351": "7599",
  "5352": "4f1d",
  "5353": "ba8d",
  "5354": "4188",
  "5355": "594",
  "5356": "735d",
  "5357": "616",
  "5358": "ba7e",
  "5359": "1cff",
  "5360": "4183fe",
  "5361": "1a92",
  "5362": "8db",
  "5363": "af5e",
  "5364": "447",
  "5365": "8d3e",
  "5366": "740e",
  "5367": "67b",
  "5368": "6f1c",
  "5369": "73aa",
  "5370": "6a6a",
  "5371": "be9f",
  "5372": "5d65",
  "5373": "4ebe",
  "5374": "1f15",
  "5375": "6a2d",
  "5376": "bf88",
  "5377": "7f55",
  "5378": "bad9",
  "5379": "8ab",
  "5380": "650e",
  "5381": "72b9",
  "5382": "bd6e",
  "5383": "0fad",
  "5384": "15dd",
  "5385": "b245",
  "5386": "0fb5",
  "5387": "7ab",
  "5388": "3c3c",
  "5389": "52e9",
  "5390": "252",
  "5391": "7edf",
  "5392": "1e0c",
  "5393": "414e",
  "5394": "625e",
  "5395": "3fef",
  "5396": "b55f",
  "5397": "7b7e",
  "5398": "6919",
  "5399": "6ddd",
  "5400": "071e",
  "5401": "bb6d",
  "5402": "bb74",
  "5403": "6f1d",
  "5404": "ad55",
  "5405": "7d8e",
  "5406": "7e74",
  "5407": "cfae",
  "5408": "b25d",
  "5409": "7443",
  "5410": "4eed",
  "5411": "b7bc",
  "5412": "ba2d",
  "5413": "6dd9",
  "5414": "7473",
  "5415": "6f55",
  "5416": "bead",
  "5417": "897a",
  "5418": "077d",
  "5419": "6eda",
  "5420": "b1cf",
  "5421": "77b5",
  "5422": "493e",
  "5423": "bca5",
  "5424": "4700",
  "5425": "73b2",
  "5426": "7e5e",
  "5427": "857",
  "5428": "8ced",
  "5429": "1505",
  "5430": "0874",
  "5431": "8f8",
  "5432": "181e",
  "5433": "bef9",
  "5434": "6c1",
  "5435": "6f08",
  "5436": "1efe",
  "5437": "1ea9",
  "5438": "0a16",
  "5439": "bd9c",
  "5440": "a2a3",
  "5441": "0e1d",
  "5442": "032c",
  "5443": "098",
  "5444": "baf9",
  "5445": "1a4",
  "5446": "8add",
  "5447": "085c",
  "5448": "1003",
  "5449": "9600",
  "5450": "0726f7065727479",
  "5451": "657373696f6e",
  "5452": "1271",
  "5453": "6e006100",
  "5454": "00400",
  "5455": "01006",
  "5456": "0070006500",
  "5457": "488db",
  "5458": "0900488b00e9",
  "5459": "0800488945",
  "5460": "080085c075",
  "5461": "07082",
  "5462": "827040006",
  "5463": "db0000022516",
  "5464": "7060006",
  "5465": "9c71000001009c7100000100",
  "5466": "47010800",
  "5467": "457175",
  "5468": "00505",
  "5469": "240002240002",
  "5470": "108000042000010840000210800004200001084000021080000",
  "5471": "0820800002082080c",
  "5472": "108000042000010840000210800004200001084000021080c",
  "5473": "0022220022220022220022",
  "5474": "8bcf",
  "5475": "6683",
  "5476": "6b7e",
  "5477": "6399",
  "5478": "7c2f",
  "5479": "baaa",
  "5480": "ccea",
  "5481": "8963",
  "5482": "01b",
  "5483": "0e08",
  "5484": "7c55",
  "5485": "8eed",
  "5486": "5a6a",
  "5487": "8a6d",
  "5488": "cf92",
  "5489": "bbb5",
  "5490": "69ba",
  "5491": "055c",
  "5492": "0dec",
  "5493": "bf3d",
  "5494": "866a",
  "5495": "b71e",
  "5496": "b419",
  "5497": "78ff",
  "5498": "397d",
  "5499": "cf3c",
  "5500": "bf5d",
  "5501": "0611",
  "5502": "1592",
  "5503": "bf4e",
  "5504": "bcad",
  "5505": "61b",
  "5506": "75ac",
  "5507": "8e4f",
  "5508": "684",
  "5509": "3e3f",
  "5510": "b800",
  "5511": "cf39",
  "5512": "73d3",
  "5513": "770e",
  "5514": "771e",
  "5515": "b1b",
  "5516": "b343",
  "5517": "be0e",
  "5518": "4f55",
  "5519": "0a8",
  "5520": "b609",
  "5521": "72ca",
  "5522": "7e3e",
  "5523": "1cb2",
  "5524": "b515",
  "5525": "cc3e",
  "5526": "7c5d",
  "5527": "436",
  "5528": "1dc9",
  "5529": "14fe",
  "5530": "b48e",
  "5531": "0239",
  "5532": "45b",
  "5533": "69af",
  "5534": "5ced",
  "5535": "4edf",
  "5536": "2209",
  "5537": "7f79",
  "5538": "72e9",
  "5539": "1e4",
  "5540": "be2e",
  "5541": "b979",
  "5542": "7cee",
  "5543": "6aed",
  "5544": "990d",
  "5545": "b919",
  "5546": "768e",
  "5547": "2343",
  "5548": "4239",
  "5549": "ba22",
  "5550": "bdac",
  "5551": "be5f",
  "5552": "506",
  "5553": "15f3",
  "5554": "b479",
  "5555": "6b72",
  "5556": "69a9",
  "5557": "4c3e",
  "5558": "8cba",
  "5559": "1a55",
  "5560": "0899",
  "5561": "7c79",
  "5562": "bf4a",
  "5563": "120c",
  "5564": "4b1f",
  "5565": "08e3",
  "5566": "1faa",
  "5567": "6953",
  "5568": "bc33",
  "5569": "678f",
  "5570": "6b49",
  "5571": "1d6d",
  "5572": "bfd2",
  "5573": "0a55",
  "5574": "7233",
  "5575": "b904",
  "5576": "bf5a",
  "5577": "b18e",
  "5578": "7cbc",
  "5579": "7179",
  "5580": "7f62",
  "5581": "b915",
  "5582": "6dfd",
  "5583": "6b6d",
  "5584": "6cac",
  "5585": "6ea5",
  "5586": "75ed",
  "5587": "716a",
  "5588": "8adc",
  "5589": "7065",
  "5590": "7f11",
  "5591": "471d",
  "5592": "62aa",
  "5593": "19af",
  "5594": "7875",
  "5595": "6383",
  "5596": "6a82",
  "5597": "2c09",
  "5598": "495e",
  "5599": "ffd9",
  "5600": "4d4d",
  "5601": "1aed",
  "5602": "babd",
  "5603": "8a59",
  "5604": "7f52",
  "5605": "ffcc",
  "5606": "6edf",
  "5607": "0174",
  "5608": "7f99",
  "5609": "0c11",
  "5610": "3f3f",
  "5611": "bfa9",
  "5612": "0712",
  "5613": "6925",
  "5614": "62dd",
  "5615": "8d55",
  "5616": "2206",
  "5617": "1d2c",
  "5618": "62c6",
  "5619": "876a",
  "5620": "75cc",
  "5621": "a59",
  "5622": "825f",
  "5623": "49fa",
  "5624": "bf9f",
  "5625": "7f4",
  "5626": "117",
  "5627": "2363",
  "5628": "0412",
  "5629": "b6c9",
  "5630": "1e04",
  "5631": "091f",
  "5632": "b4a9",
  "5633": "724a",
  "5634": "0ac9",
  "5635": "b97",
  "5636": "8d5d",
  "5637": "8bfd",
  "5638": "72b3",
  "5639": "4903",
  "5640": "092c",
  "5641": "192e",
  "5642": "bd93",
  "5643": "2701",
  "5644": "cfee",
  "5645": "096c",
  "5646": "6d92",
  "5647": "7f74",
  "5648": "7d08",
  "5649": "7aed",
  "5650": "6fc6",
  "5651": "6bbe",
  "5652": "5fd9",
  "5653": "0f02",
  "5654": "7383",
  "5655": "0a2a",
  "5656": "cfce",
  "5657": "616e6e",
  "5658": "616e6e6f74206",
  "5659": "0433",
  "5660": "6443",
  "5661": "0000003",
  "5662": "4797065",
  "5663": "5b415f5dc3",
  "5664": "74c8d1d",
  "5665": "090041ff13488bf",
  "5666": "b463",
  "5667": "887",
  "5668": "1a0800",
  "5669": "7efa",
  "5670": "0700bf04000000ff15",
  "5671": "00700a2",
  "5672": "1e027",
  "5673": "2c02172a",
  "5674": "01000a2c",
  "5675": "1f79",
  "5676": "050000009308",
  "5677": "8050800",
  "5678": "73005f",
  "5679": "101283",
  "5680": "12831012827c",
  "5681": "4d6963726f736f66742043",
  "5682": "7d0d00",
  "5683": "b1ff",
  "5684": "160002160002",
  "5685": "660022660022660022",
  "5686": "140800001020408102040800001020408102040800001020408102040800001020408",
  "5687": "4800",
  "5688": "b5dc",
  "5689": "8fee",
  "5690": "1b01",
  "5691": "1c62",
  "5692": "8d99",
  "5693": "737e",
  "5694": "075f",
  "5695": "778e",
  "5696": "1c59",
  "5697": "618e",
  "5698": "0d85",
  "5699": "77cf",
  "5700": "6109",
  "5701": "652c",
  "5702": "031",
  "5703": "cf55",
  "5704": "6e5c",
  "5705": "b559",
  "5706": "8fb2",
  "5707": "1a72",
  "5708": "ccdc",
  "5709": "ff00d",
  "5710": "6a69",
  "5711": "1d3d",
  "5712": "74ef",
  "5713": "6e3e",
  "5714": "8f3d",
  "5715": "6a8a",
  "5716": "829f",
  "5717": "8f2d",
  "5718": "766a",
  "5719": "0daf",
  "5720": "72ee",
  "5721": "4645",
  "5722": "054a",
  "5723": "8959",
  "5724": "824a",
  "5725": "6679",
  "5726": "72ac",
  "5727": "7aaf",
  "5728": "778",
  "5729": "623e",
  "5730": "0274",
  "5731": "6cd9",
  "5732": "7c44",
  "5733": "ba33",
  "5734": "696",
  "5735": "8a89",
  "5736": "b93f",
  "5737": "0e55",
  "5738": "62c9",
  "5739": "0e01",
  "5740": "8d0a",
  "5741": "7eaf",
  "5742": "6a33",
  "5743": "6bbf",
  "5744": "0f4",
  "5745": "8a6a",
  "5746": "0aad",
  "5747": "8aed",
  "5748": "0f3d",
  "5749": "badd",
  "5750": "5f2d",
  "5751": "7a1",
  "5752": "6b08",
  "5753": "08ff",
  "5754": "7e59",
  "5755": "1c8e",
  "5756": "521",
  "5757": "0e1",
  "5758": "1199",
  "5759": "bc13",
  "5760": "0d19",
  "5761": "cfed",
  "5762": "22a9",
  "5763": "1fde",
  "5764": "b43e",
  "5765": "bb0f",
  "5766": "8d3d",
  "5767": "738",
  "5768": "7c6",
  "5769": "b5af",
  "5770": "bc6",
  "5771": "b3fd",
  "5772": "7d4d"
}