{
  "0": "\u0000",
  "1": "\u0001",
  "2": "\u0002",
  "3": "\u0003",
  "4": "\u0004",
  "5": "\u0005",
  "6": "\u0006",
  "7": "\u0007",
  "8": "\b",
  "9": "\t",
  "10": "\n",
  "11": "\u000b",
  "12": "\f",
  "13": "\r",
  "14": "\u000e",
  "15": "\u000f",
  "16": "\u0010",
  "17": "\u0011",
  "18": "\u0012",
  "19": "\u0013",
  "20": "\u0014",
  "21": "\u0015",
  "22": "\u0016",
  "23": "\u0017",
  "24": "\u0018",
  "25": "\u0019",
  "26": "\u001a",
  "27": "\u001b",
  "28": "\u001c",
  "29": "\u001d",
  "30": "\u001e",
  "31": "\u001f",
  "32": " ",
  "33": "!",
  "34": "\"",
  "35": "#",
  "36": "$",
  "37": "%",
  "38": "&",
  "39": "'",
  "40": "(",
  "41": ")",
  "42": "*",
  "43": "+",
  "44": ",",
  "45": "-",
  "46": ".",
  "47": "/",
  "48": "0",
  "49": "1",
  "50": "2",
  "51": "3",
  "52": "4",
  "53": "5",
  "54": "6",
  "55": "7",
  "56": "8",
  "57": "9",
  "58": ":",
  "59": ";",
  "60": "<",
  "61": "=",
  "62": ">",
  "63": "?",
  "64": "@",
  "65": "A",
  "66": "B",
  "67": "C",
  "68": "D",
  "69": "E",
  "70": "F",
  "71": "G",
  "72": "H",
  "73": "I",
  "74": "J",
  "75": "K",
  "76": "L",
  "77": "M",
  "78": "N",
  "79": "O",
  "80": "P",
  "81": "Q",
  "82": "R",
  "83": "S",
  "84": "T",
  "85": "U",
  "86": "V",
  "87": "W",
  "88": "X",
  "89": "Y",
  "90": "Z",
  "91": "[",
  "92": "\\",
  "93": "]",
  "94": "^",
  "95": "_",
  "96": "`",
  "97": "a",
  "98": "b",
  "99": "c",
  "100": "d",
  "101": "e",
  "102": "f",
  "103": "g",
  "104": "h",
  "105": "i",
  "106": "j",
  "107": "k",
  "108": "l",
  "109": "m",
  "110": "n",
  "111": "o",
  "112": "p",
  "113": "q",
  "114": "r",
  "115": "s",
  "116": "t",
  "117": "u",
  "118": "v",
  "119": "w",
  "120": "x",
  "121": "y",
  "122": "z",
  "123": "{",
  "124": "|",
  "125": "}",
  "126": "~",
  "127": "",
  "128": "",
  "129": "",
  "130": "",
  "131": "",
  "132": "",
  "133": "",
  "134": "",
  "135": "",
  "136": "",
  "137": "",
  "138": "",
  "139": "",
  "140": "",
  "141": "",
  "142": "",
  "143": "",
  "144": "",
  "145": "",
  "146": "",
  "147": "",
  "148": "",
  "149": "",
  "150": "",
  "151": "",
  "152": "",
  "153": "",
  "154": "",
  "155": "",
  "156": "",
  "157": "",
  "158": "",
  "159": "",
  "160": " ",
  "161": "¡",
  "162": "¢",
  "163": "£",
  "164": "¤",
  "165": "¥",
  "166": "¦",
  "167": "§",
  "168": "¨",
  "169": "©",
  "170": "ª",
  "171": "«",
  "172": "¬",
  "173": "­",
  "174": "®",
  "175": "¯",
  "176": "°",
  "177": "±",
  "178": "²",
  "179": "³",
  "180": "´",
  "181": "µ",
  "182": "¶",
  "183": "·",
  "184": "¸",
  "185": "¹",
  "186": "º",
  "187": "»",
  "188": "¼",
  "189": "½",
  "190": "¾",
  "191": "¿",
  "192": "À",
  "193": "Á",
  "194": "Â",
  "195": "Ã",
  "196": "Ä",
  "197": "Å",
  "198": "Æ",
  "199": "Ç",
  "200": "È",
  "201": "É",
  "202": "Ê",
  "203": "Ë",
  "204": "Ì",
  "205": "Í",
  "206": "Î",
  "207": "Ï",
  "208": "Ð",
  "209": "Ñ",
  "210": "Ò",
  "211": "Ó",
  "212": "Ô",
  "213": "Õ",
  "214": "Ö",
  "215": "×",
  "216": "Ø",
  "217": "Ù",
  "218": "Ú",
  "219": "Û",
  "220": "Ü",
  "221": "Ý",
  "222": "Þ",
  "223": "ß",
  "224": "à",
  "225": "á",
  "226": "â",
  "227": "ã",
  "228": "ä",
  "229": "å",
  "230": "æ",
  "231": "ç",
  "232": "è",
  "233": "é",
  "234": "ê",
  "235": "ë",
  "236": "ì",
  "237": "í",
  "238": "î",
  "239": "ï",
  "240": "ð",
  "241": "ñ",
  "242": "ò",
  "243": "ó",
  "244": "ô",
  "245": "õ",
  "246": "ö",
  "247": "÷",
  "248": "ø",
  "249": "ù",
  "250": "ú",
  "251": "û",
  "252": "ü",
  "253": "ý",
  "254": "þ",
  "255": "ÿ",
  "256": "Ġ",
  "257": "<|UNK|>",
  "258": "<|endoftext|>",
  "259": "<|PAD|>",
  "260": "00",
  "261": "92",
  "262": "55",
  "263": "aa",
  "264": "8e",
  "265": "9e",
  "266": "96",
  "267": "c7",
  "268": "24",
  "269": "d4",
  "270": "d3",
  "271": "54",
  "272": "6e",
  "273": "91",
  "274": "b7",
  "275": "cf",
  "276": "a4",
  "277": "a7",
  "278": "53",
  "279": "8f",
  "280": "57",
  "281": "df",
  "282": "51",
  "283": "db",
  "284": "23",
  "285": "63",
  "286": "03",
  "287": "01",
  "288": "04",
  "289": "0000",
  "290": "6f",
  "291": "9f",
  "292": "93",
  "293": "a3",
  "294": "a8",
  "295": "d1",
  "296": "52",
  "297": "07",
  "298": "94",
  "299": "dc",
  "300": "64",
  "301": "d2",
  "302": "b4",
  "303": "d7",
  "304": "61",
  "305": "ae",
  "306": "b1",
  "307": "de",
  "308": "bf",
  "309": "97",
  "310": "c4",
  "311": "c3",
  "312": "81",
  "313": "0f",
  "314": "c1",
  "315": "5f",
  "316": "0e",
  "317": "a1",
  "318": "af",
  "319": "be",
  "320": "83",
  "321": "b2",
  "322": "67",
  "323": "a2",
  "324": "82",
  "325": "b3",
  "326": "02",
  "327": "5e",
  "328": "62",
  "329": "ce",
  "330": "87",
  "331": "84",
  "332": "c2",
  "333": "a6",
  "334": "56",
  "335": "a9",
  "336": "58",
  "337": "d6",
  "338": "5b",
  "339": "ac",
  "340": "ab",
  "341": "e7",
  "342": "0c",
  "343": "8c",
  "344": "4f",
  "345": "47",
  "346": "86",
  "347": "e3",
  "348": "f00",
  "349": "06",
  "350": "5c",
  "351": "0b",
  "352": "ef",
  "353": "27",
  "354": "d8",
  "355": "9b",
  "356": "9c",
  "357": "1f",
  "358": "17",
  "359": "08",
  "360": "a5",
  "361": "14",
  "362": "6c",
  "363": "95",
  "364": "37",
  "365": "98",
  "366": "e4",
  "367": "12",
  "368": "b6",
  "369": "3f",
  "370": "ad",
  "371": "90",
  "372": "b8",
  "373": "2f",
  "374": "34",
  "375": "d5",
  "376": "7f",
  "377": "11",
  "378": "66",
  "379": "00000000",
  "380": "a0",
  "381": "bb",
  "382": "ee",
  "383": "77",
  "384": "50",
  "385": "13",
  "386": "d0",
  "387": "bc",
  "388": "22",
  "389": "9d",
  "390": "2e",
  "391": "74",
  "392": "33",
  "393": "2c",
  "394": "99",
  "395": "68",
  "396": "65",
  "397": "1e",
  "398": "1c",
  "399": "dd",
  "400": "73",
  "401": "7e",
  "402": "8b",
  "403": "6b",
  "404": "cc",
  "405": "3e",
  "406": "4e",
  "407": "5d",
  "408": "9a",
  "409": "18",
  "410": "72",
  "411": "c8",
  "412": "f4",
  "413": "05",
  "414": "6d",
  "415": "cb",
  "416": "32",
  "417": "71",
  "418": "da",
  "419": "44",
  "420": "3c",
  "421": "88",
  "422": "31",
  "423": "b5",
  "424": "69",
  "425": "fe",
  "426": "0d",
  "427": "21",
  "428": "59",
  "429": "0a",
  "430": "28",
  "431": "b9",
  "432": "f1",
  "433": "c6",
  "434": "09",
  "435": "8d",
  "436": "43",
  "437": "e1",
  "438": "f7",
  "439": "f2",
  "440": "ba",
  "441": "85",
  "442": "d9",
  "443": "46",
  "444": "b0",
  "445": "41",
  "446": "e2",
  "447": "48",
  "448": "42",
  "449": "5a",
  "450": "26",
  "451": "36",
  "452": "7b",
  "453": "ff00",
  "454": "f3",
  "455": "16",
  "456": "e6",
  "457": "c9",
  "458": "bd",
  "459": "89",
  "460": "8a",
  "461": "4c",
  "462": "7c",
  "463": "76",
  "464": "0000000000000000",
  "465": "80",
  "466": "e9",
  "467": "ed",
  "468": "19",
  "469": "cd",
  "470": "4b",
  "471": "3b",
  "472": "60",
  "473": "78",
  "474": "2b",
  "475": "2d",
  "476": "1b",
  "477": "e5",
  "478": "924",
  "479": "c5",
  "480": "38",
  "481": "c0",
  "482": "49",
  "483": "eb",
  "484": "ca",
  "485": "6a",
  "486": "4d",
  "487": "29",
  "488": "2a",
  "489": "f8",
  "490": "25",
  "491": "fb",
  "492": "15",
  "493": "1d",
  "494": "75",
  "495": "fd",
  "496": "696",
  "497": "fc",
  "498": "f6",
  "499": "20",
  "500": "70",
  "501": "39",
  "502": "10",
  "503": "e0",
  "504": "79",
  "505": "f5",
  "506": "e8",
  "507": "657",
  "508": "1a",
  "509": "ec",
  "510": "f0",
  "511": "0100",
  "512": "30",
  "513": "000000",
  "514": "4a",
  "515": "45",
  "516": "ea",
  "517": "7a",
  "518": "923",
  "519": "9e3",
  "520": "8e3",
  "521": "fa",
  "522": "7d",
  "523": "35",
  "524": "d55",
  "525": "f9",
  "526": "9e4",
  "527": "ff",
  "528": "d57",
  "529": "d24",
  "530": "8e4",
  "531": "c74",
  "532": "900",
  "533": "8e7",
  "534": "524",
  "535": "9e7",
  "536": "200",
  "537": "3d",
  "538": "40",
  "539": "c71",
  "540": "6e7",
  "541": "904",
  "542": "903",
  "543": "927",
  "544": "b74",
  "545": "dc7",
  "546": "a96",
  "547": "824",
  "548": "003",
  "549": "d53",
  "550": "955",
  "551": "cf4",
  "552": "6f7",
  "553": "9c7",
  "554": "004",
  "555": "a93",
  "556": "6e3",
  "557": "007",
  "558": "9aa",
  "559": "9a4",
  "560": "594",
  "561": "024",
  "562": "d4f",
  "563": "a8f",
  "564": "a8e",
  "565": "dcf",
  "566": "91f",
  "567": "a92",
  "568": "d34",
  "569": "d47",
  "570": "df7",
  "571": "ce7",
  "572": "001",
  "573": "964",
  "574": "a54",
  "575": "963",
  "576": "554",
  "577": "dbf",
  "578": "a9e",
  "579": "d3f",
  "580": "504",
  "581": "574",
  "582": "a55",
  "583": "974",
  "584": "58e",
  "585": "d51",
  "586": "a47",
  "587": "534",
  "588": "ab1",
  "589": "00000000000000000000000000000000",
  "590": "96e",
  "591": "dae",
  "592": "b4f",
  "593": "803",
  "594": "cf1",
  "595": "c64",
  "596": "24f",
  "597": "0037",
  "598": "5a7",
  "599": "d54",
  "600": "823",
  "601": "ce3",
  "602": "6e4",
  "603": "d33",
  "604": "a9f",
  "605": "9dc",
  "606": "8c7",
  "607": "b55",
  "608": "d41",
  "609": "b73",
  "610": "6aa",
  "611": "6c4",
  "612": "951",
  "613": "9a3",
  "614": "8f1",
  "615": "b63",
  "616": "d23",
  "617": "6ef",
  "618": "5ae",
  "619": "537",
  "620": "00f",
  "621": "692",
  "622": "907",
  "623": "011",
  "624": "544",
  "625": "861",
  "626": "93f",
  "627": "827",
  "628": "c73",
  "629": "5f4",
  "630": "a52",
  "631": "a82",
  "632": "d2c",
  "633": "042",
  "634": "d27",
  "635": "523",
  "636": "db1",
  "637": "d37",
  "638": "9f3",
  "639": "b71",
  "640": "b8f",
  "641": "a63",
  "642": "c31",
  "643": "d8f",
  "644": "a91",
  "645": "247",
  "646": "83c",
  "647": "a6e",
  "648": "ac7",
  "649": "d87",
  "650": "d31",
  "651": "8aa",
  "652": "661",
  "653": "0e3",
  "654": "bf4",
  "655": "81f",
  "656": "952",
  "657": "691",
  "658": "d63",
  "659": "647",
  "660": "a7f",
  "661": "daa",
  "662": "c63",
  "663": "592",
  "664": "b7f",
  "665": "0c4",
  "666": "2aa",
  "667": "0e7",
  "668": "654",
  "669": "b54",
  "670": "9f4",
  "671": "04f",
  "672": "d43",
  "673": "07f",
  "674": "071",
  "675": "a64",
  "676": "514",
  "677": "a5f",
  "678": "8a4",
  "679": "96f",
  "680": "dce",
  "681": "a57",
  "682": "655",
  "683": "003703",
  "684": "901",
  "685": "dc1",
  "686": "b7e",
  "687": "6a3",
  "688": "d7f",
  "689": "52e",
  "690": "95e",
  "691": "800",
  "692": "adb",
  "693": "58f",
  "694": "c34",
  "695": "d61",
  "696": "591",
  "697": "dff00",
  "698": "5aa",
  "699": "0b1",
  "700": "bef",
  "701": "c92",
  "702": "563",
  "703": "98e",
  "704": "9ff00",
  "705": "a1e",
  "706": "6500",
  "707": "663",
  "708": "961",
  "709": "53e",
  "710": "0db",
  "711": "def",
  "712": "da7",
  "713": "8cf",
  "714": "937",
  "715": "6a8",
  "716": "68e",
  "717": "d6e",
  "718": "d73",
  "719": "c0f",
  "720": "aa4",
  "721": "ab3",
  "722": "69e",
  "723": "59e",
  "724": "600",
  "725": "a94",
  "726": "51e",
  "727": "cb1",
  "728": "b77",
  "729": "697",
  "730": "624",
  "731": "9bf",
  "732": "c7f",
  "733": "cff00",
  "734": "064",
  "735": "5d4",
  "736": "c55",
  "737": "b34",
  "738": "dbe",
  "739": "da4",
  "740": "ab4",
  "741": "a37",
  "742": "d71",
  "743": "be2",
  "744": "054",
  "745": "894",
  "746": "dc3",
  "747": "cf3",
  "748": "092",
  "749": "d14",
  "750": "6f4",
  "751": "577",
  "752": "cb2",
  "753": "8a3",
  "754": "0c7",
  "755": "047",
  "756": "e47",
  "757": "693",
  "758": "6b7",
  "759": "c54",
  "760": "ab2",
  "761": "914",
  "762": "874",
  "763": "954",
  "764": "dd4",
  "765": "a77",
  "766": "a74",
  "767": "ad3",
  "768": "ce4",
  "769": "8de",
  "770": "a24",
  "771": "6c7",
  "772": "d2e",
  "773": "a23",
  "774": "ab7",
  "775": "ae7",
  "776": "af4",
  "777": "caa",
  "778": "863",
  "779": "83f",
  "780": "9c4",
  "781": "6dc",
  "782": "a67",
  "783": "561",
  "784": "8f4",
  "785": "022",
  "786": "d62",
  "787": "8f3",
  "788": "553",
  "789": "5ef",
  "790": "cb4",
  "791": "23e",
  "792": "ad2",
  "793": "c13",
  "794": "094",
  "795": "5a3",
  "796": "c91",
  "797": "9a8",
  "798": "254",
  "799": "8f7",
  "800": "527",
  "801": "023",
  "802": "b51",
  "803": "0ff00",
  "804": "596",
  "805": "a6f",
  "806": "9cf",
  "807": "9ae",
  "808": "d92",
  "809": "99e",
  "810": "d17",
  "811": "627",
  "812": "837",
  "813": "a61",
  "814": "5a4",
  "815": "08e",
  "816": "b5f",
  "817": "6db",
  "818": "b24",
  "819": "093",
  "820": "992",
  "821": "953",
  "822": "dee",
  "823": "03f",
  "824": "5a6",
  "825": "a53",
  "826": "06f",
  "827": "0aa",
  "828": "5bf",
  "829": "c67",
  "830": "564",
  "831": "9f7",
  "832": "ddb",
  "833": "dd3",
  "834": "b47",
  "835": "6a1",
  "836": "c44",
  "837": "81e",
  "838": "b1e",
  "839": "ddf",
  "840": "06e",
  "841": "d52",
  "842": "8a8",
  "843": "0d3",
  "844": "daf",
  "845": "ad1",
  "846": "9a2",
  "847": "a97",
  "848": "0a4",
  "849": "8ff00",
  "850": "de3",
  "851": "b8e",
  "852": "9df",
  "853": "d13",
  "854": "ac2",
  "855": "0e4",
  "856": "581",
  "857": "a01",
  "858": "87f",
  "859": "0c1",
  "860": "d4e",
  "861": "b6e",
  "862": "adf",
  "863": "500",
  "864": "d77",
  "865": "55f",
  "866": "5e7",
  "867": "804",
  "868": "5b2",
  "869": "a58",
  "870": "c8e",
  "871": "607",
  "872": "b81",
  "873": "a71",
  "874": "be3",
  "875": "c14",
  "876": "8d4",
  "877": "0f1",
  "878": "d2f",
  "879": "cfe",
  "880": "5e3",
  "881": "b33",
  "882": "5a2",
  "883": "c4f",
  "884": "862",
  "885": "b23",
  "886": "9e2",
  "887": "bdf",
  "888": "da3",
  "889": "a00",
  "890": "5df",
  "891": "5c2",
  "892": "94f",
  "893": "8c1",
  "894": "9b1",
  "895": "d64",
  "896": "ad7",
  "897": "100",
  "898": "5b1",
  "899": "996",
  "900": "b93",
  "901": "921",
  "902": "027",
  "903": "51f",
  "904": "5e4",
  "905": "a62",
  "906": "957",
  "907": "503",
  "908": "55e",
  "909": "8fe",
  "910": "bdb",
  "911": "891",
  "912": "be1",
  "913": "aa2",
  "914": "9fe",
  "915": "cc7",
  "916": "36f",
  "917": "5b7",
  "918": "0a7",
  "919": "6a6",
  "920": "637",
  "921": "54f",
  "922": "9ef",
  "923": "6c3",
  "924": "64f",
  "925": "a2f",
  "926": "091",
  "927": "b2f",
  "928": "6b4",
  "929": "93e",
  "930": "d67",
  "931": "ae3",
  "932": "0a1",
  "933": "83e",
  "934": "9a7",
  "935": "a83",
  "936": "a9b",
  "937": "a4f",
  "938": "c01",
  "939": "a03",
  "940": "d44",
  "941": "0f4",
  "942": "c12",
  "943": "5db",
  "944": "56e",
  "945": "07e",
  "946": "6d3",
  "947": "d8e",
  "948": "051",
  "949": "c47",
  "950": "dde",
  "951": "94e",
  "952": "d21",
  "953": "0d1",
  "954": "532",
  "955": "5c7",
  "956": "9f1",
  "957": "bf3",
  "958": "b82",
  "959": "a56",
  "960": "587",
  "961": "0b7",
  "962": "8dc",
  "963": "bf1",
  "964": "6b6",
  "965": "541",
  "966": "8ef",
  "967": "a84",
  "968": "237",
  "969": "50e",
  "970": "991",
  "971": "0dc",
  "972": "073",
  "973": "9de",
  "974": "0ee",
  "975": "241",
  "976": "892",
  "977": "95f",
  "978": "6a4",
  "979": "063",
  "980": "037",
  "981": "6ff00",
  "982": "aa3",
  "983": "bee",
  "984": "0600",
  "985": "a27",
  "986": "52f",
  "987": "0a3",
  "988": "0de",
  "989": "ac4",
  "990": "9db",
  "991": "864",
  "992": "c2e",
  "993": "014",
  "994": "973",
  "995": "bc7",
  "996": "977",
  "997": "68f",
  "998": "c3f",
  "999": "da1",
  "1000": "8b7",
  "1001": "c11",
  "1002": "aff00",
  "1003": "d7e",
  "1004": "984",
  "1005": "b53",
  "1006": "c61",
  "1007": "c6e",
  "1008": "b92",
  "1009": "582",
  "1010": "dd1",
  "1011": "562",
  "1012": "adc",
  "1013": "e7f",
  "1014": "a51",
  "1015": "a0f",
  "1016": "962",
  "1017": "8ce",
  "1018": "57e",
  "1019": "0d4",
  "1020": "5d3",
  "1021": "aaf",
  "1022": "bcf",
  "1023": "5b4",
  "1024": "dd2",
  "1025": "cce",
  "1026": "cd1",
  "1027": "0a8",
  "1028": "972",
  "1029": "6de",
  "1030": "abf",
  "1031": "aef",
  "1032": "ace",
  "1033": "d82",
  "1034": "067",
  "1035": "b61",
  "1036": "506",
  "1037": "852",
  "1038": "9a1",
  "1039": "df1",
  "1040": "547",
  "1041": "231",
  "1042": "0002",
  "1043": "08f",
  "1044": "002",
  "1045": "8bf",
  "1046": "934",
  "1047": "994",
  "1048": "5c1",
  "1049": "d42",
  "1050": "be4",
  "1051": "0d2",
  "1052": "082",
  "1053": "97f",
  "1054": "df3",
  "1055": "a7e",
  "1056": "0cf",
  "1057": "ba3",
  "1058": "9ee",
  "1059": "d6f",
  "1060": "061",
  "1061": "c33",
  "1062": "c32",
  "1063": "a5b",
  "1064": "b83",
  "1065": "a0e",
  "1066": "4f1",
  "1067": "af3",
  "1068": "50c",
  "1069": "b1f",
  "1070": "cd2",
  "1071": "6b3",
  "1072": "807",
  "1073": "855",
  "1074": "6f3",
  "1075": "0f3",
  "1076": "674",
  "1077": "b5b",
  "1078": "6a2",
  "1079": "db7",
  "1080": "b00",
  "1081": "03e",
  "1082": "0808",
  "1083": "922",
  "1084": "233",
  "1085": "083",
  "1086": "9e1",
  "1087": "b01",
  "1088": "d04",
  "1089": "ad4",
  "1090": "b32",
  "1091": "54e",
  "1092": "b2e",
  "1093": "97e",
  "1094": "bdc",
  "1095": "884",
  "1096": "a34",
  "1097": "b9f",
  "1098": "b41",
  "1099": "052",
  "1100": "c37",
  "1101": "8d1",
  "1102": "572",
  "1103": "077",
  "1104": "be7",
  "1105": "acf",
  "1106": "8ae",
  "1107": "041",
  "1108": "502",
  "1109": "a04",
  "1110": "d81",
  "1111": "afe",
  "1112": "943",
  "1113": "baa",
  "1114": "95b",
  "1115": "b44",
  "1116": "533",
  "1117": "ade",
  "1118": "244",
  "1119": "af1",
  "1120": "055",
  "1121": "6b1",
  "1122": "844",
  "1123": "5de",
  "1124": "a22",
  "1125": "d0f",
  "1126": "cef",
  "1127": "9c1",
  "1128": "b64",
  "1129": "8db",
  "1130": "a07",
  "1131": "b02",
  "1132": "617",
  "1133": "672",
  "1134": "967",
  "1135": "cd3",
  "1136": "69f",
  "1137": "956",
  "1138": "d5f",
  "1139": "c3e",
  "1140": "571",
  "1141": "d07",
  "1142": "9c2",
  "1143": "92e",
  "1144": "234",
  "1145": "d74",
  "1146": "584",
  "1147": "bb7",
  "1148": "9627",
  "1149": "9ff",
  "1150": "23f",
  "1151": "012",
  "1152": "686",
  "1153": "b5c",
  "1154": "542",
  "1155": "a73",
  "1156": "ca8",
  "1157": "d72",
  "1158": "551",
  "1159": "c72",
  "1160": "9b3",
  "1161": "b91",
  "1162": "09e",
  "1163": "511",
  "1164": "5d1",
  "1165": "5d2",
  "1166": "6fe",
  "1167": "cff",
  "1168": "a33",
  "1169": "593",
  "1170": "5be",
  "1171": "ba4",
  "1172": "53f",
  "1173": "604",
  "1174": "552",
  "1175": "c0e",
  "1176": "d56",
  "1177": "c1e",
  "1178": "a5e",
  "1179": "af7",
  "1180": "9a6",
  "1181": "6d4",
  "1182": "aa1",
  "1183": "031",
  "1184": "bbf",
  "1185": "c9e",
  "1186": "521",
  "1187": "614",
  "1188": "88e",
  "1189": "ae1",
  "1190": "00e",
  "1191": "557",
  "1192": "ac3",
  "1193": "abe",
  "1194": "c8f",
  "1195": "681",
  "1196": "053",
  "1197": "b58",
  "1198": "b4e",
  "1199": "01e",
  "1200": "a2e",
  "1201": "9b7",
  "1202": "c83",
  "1203": "dfe",
  "1204": "6bf",
  "1205": "d32",
  "1206": "aee",
  "1207": "cbf",
  "1208": "902",
  "1209": "91e",
  "1210": "cee",
  "1211": "5cf",
  "1212": "dff",
  "1213": "a32",
  "1214": "b96",
  "1215": "01f",
  "1216": "cb7",
  "1217": "b9e",
  "1218": "a0b",
  "1219": "694",
  "1220": "0b3",
  "1221": "ca4",
  "1222": "081",
  "1223": "90e",
  "1224": "cc4",
  "1225": "b6f",
  "1226": "b14",
  "1227": "623",
  "1228": "0b2",
  "1229": "65f",
  "1230": "57f",
  "1231": "b43",
  "1232": "c00",
  "1233": "dd6",
  "1234": "b94",
  "1235": "573",
  "1236": "aae",
  "1237": "6d1",
  "1238": "c2f",
  "1239": "d0e",
  "1240": "d1f",
  "1241": "b87",
  "1242": "d12",
  "1243": "634",
  "1244": "0fe",
  "1245": "8a9",
  "1246": "6ab",
  "1247": "642",
  "1248": "641",
  "1249": "8c2",
  "1250": "dc4",
  "1251": "08c",
  "1252": "a3f",
  "1253": "6c1",
  "1254": "0ac",
  "1255": "ae4",
  "1256": "b03",
  "1257": "6b2",
  "1258": "656",
  "1259": "917",
  "1260": "5f7",
  "1261": "c52",
  "1262": "0a2",
  "1263": "aa7",
  "1264": "cf2",
  "1265": "5af",
  "1266": "8c4",
  "1267": "dc2",
  "1268": "67e",
  "1269": "da6",
  "1270": "ca3",
  "1271": "512",
  "1272": "0b4",
  "1273": "cb3",
  "1274": "d3e",
  "1275": "c53",
  "1276": "987",
  "1277": "662",
  "1278": "242",
  "1279": "e3f",
  "1280": "5f1",
  "1281": "24e",
  "1282": "56f",
  "1283": "b13",
  "1284": "474",
  "1285": "653",
  "1286": "c94",
  "1287": "a14",
  "1288": "cdb",
  "1289": "d9e",
  "1290": "ba7",
  "1291": "a02",
  "1292": "9b4",
  "1293": "e7e",
  "1294": "472",
  "1295": "0101",
  "1296": "1414",
  "1297": "c7e",
  "1298": "501",
  "1299": "882",
  "1300": "caf",
  "1301": "cd4",
  "1302": "c82",
  "1303": "522",
  "1304": "d22",
  "1305": "b62",
  "1306": "cbe",
  "1307": "80b",
  "1308": "c81",
  "1309": "ba1",
  "1310": "543",
  "1311": "bd4",
  "1312": "6d7",
  "1313": "947",
  "1314": "c84",
  "1315": "086",
  "1316": "6a9",
  "1317": "507",
  "1318": "6be",
  "1319": "ad8",
  "1320": "057",
  "1321": "941",
  "1322": "63f",
  "1323": "d84",
  "1324": "b0f",
  "1325": "8e1",
  "1326": "a87",
  "1327": "c93",
  "1328": "883",
  "1329": "6e1",
  "1330": "074",
  "1331": "5ac",
  "1332": "89e",
  "1333": "05e",
  "1334": "682",
  "1335": "602",
  "1336": "854",
  "1337": "9b2",
  "1338": "bd2",
  "1339": "644",
  "1340": "5ee",
  "1341": "66f",
  "1342": "8b1",
  "1343": "881",
  "1344": "bde",
  "1345": "cf7",
  "1346": "8e2",
  "1347": "da2",
  "1348": "0061",
  "1349": "0be",
  "1350": "058",
  "1351": "db4",
  "1352": "ac1",
  "1353": "867",
  "1354": "60f",
  "1355": "993",
  "1356": "096",
  "1357": "6d6",
  "1358": "bb1",
  "1359": "dab",
  "1360": "df2",
  "1361": "d93",
  "1362": "c77",
  "1363": "632",
  "1364": "9a9",
  "1365": "de7",
  "1366": "5f2",
  "1367": "4f2",
  "1368": "b12",
  "1369": "d11",
  "1370": "944",
  "1371": "d91",
  "1372": "c51",
  "1373": "8ee",
  "1374": "cc1",
  "1375": "d5e",
  "1376": "6c2",
  "1377": "bc4",
  "1378": "b72",
  "1379": "b04",
  "1380": "631",
  "1381": "b97",
  "1382": "90c",
  "1383": "9ac",
  "1384": "652",
  "1385": "b67",
  "1386": "232",
  "1387": "643",
  "1388": "cc2",
  "1389": "243",
  "1390": "bf7",
  "1391": "a17",
  "1392": "a42",
  "1393": "98f",
  "1394": "c03",
  "1395": "bf2",
  "1396": "9d4",
  "1397": "d96",
  "1398": "c97",
  "1399": "5b3",
  "1400": "d5c",
  "1401": "822",
  "1402": "b0b",
  "1403": "bbe",
  "1404": "df4",
  "1405": "ba9",
  "1406": "b84",
  "1407": "958",
  "1408": "69b",
  "1409": "8af",
  "1410": "017",
  "1411": "0df",
  "1412": "084",
  "1413": "c96",
  "1414": "6ee",
  "1415": "eff00",
  "1416": "db3",
  "1417": "6ae",
  "1418": "bb4",
  "1419": "651",
  "1420": "4747",
  "1421": "56696",
  "1422": "0000000000000000000000000000000000000000000000000000000000000000",
  "1423": "0000042",
  "1424": "5d6",
  "1425": "871",
  "1426": "072",
  "1427": "dd8",
  "1428": "a41",
  "1429": "8d2",
  "1430": "981",
  "1431": "dd7",
  "1432": "b0c",
  "1433": "6e2",
  "1434": "5a8",
  "1435": "a44",
  "1436": "834",
  "1437": "bd3",
  "1438": "d0c",
  "1439": "d97",
  "1440": "59f",
  "1441": "033",
  "1442": "4f4",
  "1443": "a5c",
  "1444": "5d7",
  "1445": "d83",
  "1446": "b22",
  "1447": "802",
  "1448": "dac",
  "1449": "efe",
  "1450": "6574",
  "1451": "684",
  "1452": "bd1",
  "1453": "062",
  "1454": "b5e",
  "1455": "b0e",
  "1456": "8d3",
  "1457": "c6f",
  "1458": "8a7",
  "1459": "8a1",
  "1460": "517",
  "1461": "a4e",
  "1462": "6af",
  "1463": "c9f",
  "1464": "b31",
  "1465": "667",
  "1466": "a0c",
  "1467": "63e",
  "1468": "034",
  "1469": "ca7",
  "1470": "9a5",
  "1471": "d06",
  "1472": "50f",
  "1473": "bff00",
  "1474": "8f2",
  "1475": "68c",
  "1476": "60e",
  "1477": "531",
  "1478": "9be",
  "1479": "9f7f",
  "1480": "c43",
  "1481": "906",
  "1482": "032",
  "1483": "05f",
  "1484": "595",
  "1485": "61f",
  "1486": "1f4",
  "1487": "b52",
  "1488": "d58",
  "1489": "858",
  "1490": "b3e",
  "1491": "8c3",
  "1492": "de4",
  "1493": "de2",
  "1494": "da8",
  "1495": "0ae",
  "1496": "a12",
  "1497": "04e",
  "1498": "9c3",
  "1499": "8ab",
  "1500": "908",
  "1501": "9ce",
  "1502": "6a7",
  "1503": "5ce",
  "1504": "c07",
  "1505": "832",
  "1506": "d5b",
  "1507": "8a6",
  "1508": "873",
  "1509": "5dc",
  "1510": "bae",
  "1511": "e41",
  "1512": "942",
  "1513": "5ff00",
  "1514": "0af",
  "1515": "c41",
  "1516": "687",
  "1517": "a08",
  "1518": "a1f",
  "1519": "982",
  "1520": "887",
  "1521": "37e",
  "1522": "0a9",
  "1523": "c5b",
  "1524": "c1f",
  "1525": "cc3",
  "1526": "e73",
  "1527": "bfe",
  "1528": "db2",
  "1529": "88c",
  "1530": "9af",
  "1531": "c4e",
  "1532": "801",
  "1533": "65b",
  "1534": "c6c",
  "1535": "e3e",
  "1536": "61e",
  "1537": "933",
  "1538": "b8c",
  "1539": "c57",
  "1540": "6c6f",
  "1541": "6e64",
  "1542": "174747",
  "1543": "17474726",
  "1544": "174747269627",
  "1545": "b21",
  "1546": "567",
  "1547": "09f",
  "1548": "82f",
  "1549": "9ab",
  "1550": "0ab",
  "1551": "373",
  "1552": "98c",
  "1553": "cd7",
  "1554": "92f",
  "1555": "0c2",
  "1556": "173",
  "1557": "9d2",
  "1558": "857",
  "1559": "a81",
  "1560": "64e",
  "1561": "b57",
  "1562": "021",
  "1563": "612",
  "1564": "0c3",
  "1565": "683",
  "1566": "6cf",
  "1567": "bc2",
  "1568": "6df",
  "1569": "b11",
  "1570": "e71",
  "1571": "b27",
  "1572": "5e2",
  "1573": "0ce",
  "1574": "cae",
  "1575": "0e2",
  "1576": "90b",
  "1577": "cb6",
  "1578": "09b",
  "1579": "88f",
  "1580": "821",
  "1581": "6d2",
  "1582": "b6c",
  "1583": "913",
  "1584": "66e",
  "1585": "05c",
  "1586": "a43",
  "1587": "89f",
  "1588": "633",
  "1589": "1ff00",
  "1590": "997",
  "1591": "ca1",
  "1592": "853",
  "1593": "14e",
  "1594": "893",
  "1595": "a31",
  "1596": "85f",
  "1597": "d00",
  "1598": "611",
  "1599": "ad6",
  "1600": "843",
  "1601": "d9b",
  "1602": "baf",
  "1603": "0d8",
  "1604": "bff",
  "1605": "dad",
  "1606": "62f",
  "1607": "d02",
  "1608": "471",
  "1609": "ba8",
  "1610": "bd6",
  "1611": "ba5",
  "1612": "5a5",
  "1613": "bce",
  "1614": "5ab",
  "1615": "a11",
  "1616": "603",
  "1617": "b3f",
  "1618": "05b",
  "1619": "5f3",
  "1620": "1200",
  "1621": "86e",
  "1622": "00000100",
  "1623": "174747269627574",
  "1624": "597",
  "1625": "0f2",
  "1626": "8ac",
  "1627": "b37",
  "1628": "911",
  "1629": "50b",
  "1630": "6562",
  "1631": "99f",
  "1632": "690",
  "1633": "056",
  "1634": "02f",
  "1635": "b9b",
  "1636": "27f",
  "1637": "896",
  "1638": "a72",
  "1639": "0ef",
  "1640": "811",
  "1641": "e31",
  "1642": "bd8",
  "1643": "d1e",
  "1644": "877",
  "1645": "5726",
  "1646": "050",
  "1647": "0f7",
  "1648": "af2",
  "1649": "8b2",
  "1650": "a13",
  "1651": "8b4",
  "1652": "677",
  "1653": "d86",
  "1654": "5a9",
  "1655": "6c00",
  "1656": "d01",
  "1657": "8a2",
  "1658": "043",
  "1659": "b95",
  "1660": "8bc",
  "1661": "601",
  "1662": "872",
  "1663": "7fe",
  "1664": "cde",
  "1665": "9737",
  "1666": "122",
  "1667": "2ff00",
  "1668": "ddc",
  "1669": "84f",
  "1670": "c42",
  "1671": "ae2",
  "1672": "831",
  "1673": "9ad",
  "1674": "69c",
  "1675": "5c4",
  "1676": "856",
  "1677": "664",
  "1678": "cdc",
  "1679": "673",
  "1680": "99c",
  "1681": "17e",
  "1682": "ee2",
  "1683": "86f",
  "1684": "c02",
  "1685": "695",
  "1686": "9d3",
  "1687": "971",
  "1688": "c5f",
  "1689": "27e",
  "1690": "986",
  "1691": "b17",
  "1692": "006100",
  "1693": "0001",
  "1694": "812",
  "1695": "172",
  "1696": "833",
  "1697": "817",
  "1698": "b86",
  "1699": "95c",
  "1700": "513",
  "1701": "8d8",
  "1702": "e43",
  "1703": "4f7",
  "1704": "c23",
  "1705": "9d6",
  "1706": "e33",
  "1707": "5e1",
  "1708": "d9f",
  "1709": "6a5",
  "1710": "80c",
  "1711": "6f72",
  "1712": "c17",
  "1713": "bb2",
  "1714": "a3e",
  "1715": "121",
  "1716": "d94",
  "1717": "851",
  "1718": "3f4",
  "1719": "80f",
  "1720": "a21",
  "1721": "1fe",
  "1722": "658",
  "1723": "bb8",
  "1724": "271",
  "1725": "6174",
  "1726": "003c",
  "1727": "34e",
  "1728": "9f2",
  "1729": "0bf",
  "1730": "bb6",
  "1731": "814",
  "1732": "847",
  "1733": "998",
  "1734": "343",
  "1735": "ba2",
  "1736": "7e2",
  "1737": "0ff",
  "1738": "ef2",
  "1739": "0d6",
  "1740": "0e1",
  "1741": "12e",
  "1742": "8a5",
  "1743": "d8c",
  "1744": "583",
  "1745": "6ce",
  "1746": "5fe",
  "1747": "a06",
  "1748": "932",
  "1749": "598",
  "1750": "ccf",
  "1751": "6f1",
  "1752": "4fe",
  "1753": "82e",
  "1754": "ca5",
  "1755": "6bb",
  "1756": "cd8",
  "1757": "c8c",
  "1758": "5402",
  "1759": "608",
  "1760": "b003703",
  "1761": "85e",
  "1762": "60b",
  "1763": "6a0",
  "1764": "699",
  "1765": "b56",
  "1766": "006e",
  "1767": "983",
  "1768": "c24",
  "1769": "8be",
  "1770": "886",
  "1771": "8d6",
  "1772": "b9c",
  "1773": "044",
  "1774": "67f",
  "1775": "c04",
  "1776": "ba6",
  "1777": "9d1",
  "1778": "177",
  "1779": "6163",
  "1780": "6e74",
  "1781": "cac",
  "1782": "0067",
  "1783": "273",
  "1784": "774",
  "1785": "696f",
  "1786": "7b003703",
  "1787": "62e",
  "1788": "621",
  "1789": "6ac",
  "1790": "bc3",
  "1791": "b98",
  "1792": "88b",
  "1793": "0a5",
  "1794": "11e",
  "1795": "de1",
  "1796": "7ff00",
  "1797": "65e",
  "1798": "bd7",
  "1799": "ef7",
  "1800": "85b",
  "1801": "8bb",
  "1802": "cdf",
  "1803": "9d8",
  "1804": "841",
  "1805": "912",
  "1806": "b06",
  "1807": "0d7",
  "1808": "bc1",
  "1809": "00000000000000",
  "1810": "277",
  "1811": "2f7",
  "1812": "6b8",
  "1813": "ce2",
  "1814": "5c3",
  "1815": "133",
  "1816": "c90",
  "1817": "090",
  "1818": "c22",
  "1819": "0ad",
  "1820": "808",
  "1821": "90f",
  "1822": "bac",
  "1823": "6d8",
  "1824": "c87",
  "1825": "8d7",
  "1826": "4ff00",
  "1827": "17f",
  "1828": "6ad",
  "1829": "b5d",
  "1830": "dd5",
  "1831": "d03",
  "1832": "6400",
  "1833": "6172",
  "1834": "4f3",
  "1835": "5774",
  "1836": "6e646c",
  "1837": "0203",
  "1838": "622",
  "1839": "8ff",
  "1840": "ef3",
  "1841": "c27",
  "1842": "6d5",
  "1843": "097",
  "1844": "cbb",
  "1845": "ca6",
  "1846": "c5e",
  "1847": "d95",
  "1848": "dfdb",
  "1849": "eee",
  "1850": "09c",
  "1851": "895",
  "1852": "3f3",
  "1853": "6ff",
  "1854": "1f3",
  "1855": "013",
  "1856": "3fe",
  "1857": "1f2",
  "1858": "b42",
  "1859": "85c",
  "1860": "897",
  "1861": "1f7",
  "1862": "ca9",
  "1863": "0073",
  "1864": "0069",
  "1865": "006500",
  "1866": "141",
  "1867": "5d8",
  "1868": "d0b",
  "1869": "508",
  "1870": "c56",
  "1871": "613",
  "1872": "91d4",
  "1873": "9d7",
  "1874": "143",
  "1875": "8ad",
  "1876": "698",
  "1877": "73e",
  "1878": "d98",
  "1879": "741",
  "1880": "1e2",
  "1881": "ca2",
  "1882": "02e",
  "1883": "bb3",
  "1884": "473",
  "1885": "9656",
  "1886": "60c",
  "1887": "2f3",
  "1888": "371",
  "1889": "bab",
  "1890": "5ad",
  "1891": "7f7",
  "1892": "5ff",
  "1893": "995",
  "1894": "098",
  "1895": "bd5",
  "1896": "cab",
  "1897": "c58",
  "1898": "671",
  "1899": "b50",
  "1900": "772",
  "1901": "3f1",
  "1902": "3ff00",
  "1903": "c86",
  "1904": "805",
  "1905": "087",
  "1906": "eff",
  "1907": "990",
  "1908": "132",
  "1909": "274",
  "1910": "c65",
  "1911": "8a0",
  "1912": "69d",
  "1913": "c06",
  "1914": "8da",
  "1915": "65745f",
  "1916": "113",
  "1917": "374",
  "1918": "c95",
  "1919": "80e",
  "1920": "59c",
  "1921": "aaaa",
  "1922": "813",
  "1923": "e77",
  "1924": "2f1",
  "1925": "89b",
  "1926": "99b",
  "1927": "9254",
  "1928": "931",
  "1929": "ac92",
  "1930": "c9b",
  "1931": "59a",
  "1932": "b07",
  "1933": "c0c",
  "1934": "aff",
  "1935": "c21",
  "1936": "c0b",
  "1937": "5dd",
  "1938": "e37",
  "1939": "cbc",
  "1940": "5f5f",
  "1941": "2e00",
  "1942": "80000",
  "1943": "08080808",
  "1944": "0000000086",
  "1945": "576562",
  "1946": "57656256696",
  "1947": "14141414",
  "1948": "c400",
  "1949": "89d",
  "1950": "c5c",
  "1951": "13e",
  "1952": "773",
  "1953": "c68",
  "1954": "ba0",
  "1955": "174",
  "1956": "8df",
  "1957": "2200",
  "1958": "c9c",
  "1959": "0e00",
  "1960": "d455",
  "1961": "47f",
  "1962": "8b8",
  "1963": "ce1",
  "1964": "2e1",
  "1965": "650",
  "1966": "99d",
  "1967": "8b6",
  "1968": "d08",
  "1969": "e4e",
  "1970": "000100",
  "1971": "0c0100",
  "1972": "6e696",
  "1973": "0003",
  "1974": "fe2",
  "1975": "89c",
  "1976": "cd6",
  "1977": "5d5",
  "1978": "9a0",
  "1979": "d2d3",
  "1980": "272",
  "1981": "a48e",
  "1982": "37f",
  "1983": "dd0",
  "1984": "9d5",
  "1985": "1a00",
  "1986": "6f2",
  "1987": "c08",
  "1988": "fe1",
  "1989": "131",
  "1990": "806",
  "1991": "a792",
  "1992": "2fe",
  "1993": "e32",
  "1994": "c05",
  "1995": "095",
  "1996": "0200",
  "1997": "8f7f",
  "1998": "696f6e",
  "1999": "17661",
  "2000": "176616c6f",
  "2001": "176616c6f6e696",
  "2002": "1747472696275746500",
  "2003": "171",
  "2004": "4ff",
  "2005": "000001",
  "2006": "372",
  "2007": "0d5",
  "2008": "b90",
  "2009": "3f7",
  "2010": "2492",
  "2011": "0d0",
  "2012": "377",
  "2013": "a5a4",
  "2014": "cda",
  "2015": "da9",
  "2016": "a2a8",
  "2017": "850",
  "2018": "8dd",
  "2019": "606",
  "2020": "a782",
  "2021": "4e2",
  "2022": "aa96",
  "2023": "c66",
  "2024": "8b3",
  "2025": "0a0",
  "2026": "8e9e",
  "2027": "333",
  "2028": "bad",
  "2029": "1f1",
  "2030": "66c",
  "2031": "6162",
  "2032": "c723",
  "2033": "890",
  "2034": "4656",
  "2035": "030000",
  "2036": "0000000000",
  "2037": "000200",
  "2038": "65004",
  "2039": "87e",
  "2040": "7f4",
  "2041": "c62",
  "2042": "344",
  "2043": "6d0",
  "2044": "cf53",
  "2045": "59d",
  "2046": "92a6",
  "2047": "0a6",
  "2048": "777",
  "2049": "ef1",
  "2050": "09d",
  "2051": "969e",
  "2052": "9277",
  "2053": "9ea2",
  "2054": "7e1",
  "2055": "59b",
  "2056": "859",
  "2057": "6dd",
  "2058": "9201",
  "2059": "0657",
  "2060": "f43",
  "2061": "8d5",
  "2062": "898",
  "2063": "590",
  "2064": "47e",
  "2065": "da0",
  "2066": "c71f",
  "2067": "ca0",
  "2068": "7504",
  "2069": "02281",
  "2070": "8616e646c",
  "2071": "55d3",
  "2072": "321",
  "2073": "3f2",
  "2074": "53d3",
  "2075": "22e",
  "2076": "7f1",
  "2077": "8e96",
  "2078": "80d",
  "2079": "77e",
  "2080": "9faf",
  "2081": "c8b",
  "2082": "599",
  "2083": "6374",
  "2084": "cd5",
  "2085": "65c",
  "2086": "d355",
  "2087": "cad",
  "2088": "5a0",
  "2089": "743",
  "2090": "5a1",
  "2091": "c6d",
  "2092": "0004",
  "2093": "c7bf",
  "2094": "9f51",
  "2095": "331",
  "2096": "da5",
  "2097": "a8a7",
  "2098": "a6a7",
  "2099": "0063",
  "2100": "3e2",
  "2101": "9247",
  "2102": "a292",
  "2103": "96e6",
  "2104": "8fbf",
  "2105": "8300",
  "2106": "c6b",
  "2107": "e42",
  "2108": "90a4",
  "2109": "74e",
  "2110": "12f",
  "2111": "cfb7",
  "2112": "02e3",
  "2113": "099",
  "2114": "ef4",
  "2115": "144",
  "2116": "e34",
  "2117": "bd0",
  "2118": "842",
  "2119": "6bc",
  "2120": "111",
  "2121": "91d7",
  "2122": "24aa",
  "2123": "a6a4",
  "2124": "5547",
  "2125": "cd0",
  "2126": "9a9e",
  "2127": "d1d4",
  "2128": "9f6e",
  "2129": "0700",
  "2130": "8ea2",
  "2131": "e74",
  "2132": "5300",
  "2133": "9fb7",
  "2134": "9c63",
  "2135": "000004",
  "2136": "0228180000",
  "2137": "0000042a1e",
  "2138": "c6174",
  "2139": "666f72",
  "2140": "6b5f5f",
  "2141": "6b5f5f42",
  "2142": "6b5f5f426163",
  "2143": "6b5f5f4261636b6",
  "2144": "6b5f5f4261636b696e",
  "2145": "6b5f5f4261636b696e674",
  "2146": "6b5f5f4261636b696e67466",
  "2147": "6b5f5f4261636b696e674669656",
  "2148": "6b5f5f4261636b696e674669656c64",
  "2149": "00000000000000000000000000000000000000000000000000000000000000000000000000000000000000000000000000000000000000000000000000000000",
  "2150": "0304",
  "2151": "52d4",
  "2152": "cfd3",
  "2153": "d4d4",
  "2154": "342",
  "2155": "2f2",
  "2156": "c703",
  "2157": "5400",
  "2158": "8ea7",
  "2159": "9248",
  "2160": "c704",
  "2161": "a8a8",
  "2162": "9a96",
  "2163": "1ff",
  "2164": "142",
  "2165": "8e3e",
  "2166": "2e2",
  "2167": "c50",
  "2168": "c724",
  "2169": "6167",
  "2170": "9fcf",
  "2171": "7f2",
  "2172": "000f",
  "2173": "9f6f",
  "2174": "221",
  "2175": "5355",
  "2176": "d3d3",
  "2177": "9258",
  "2178": "929e",
  "2179": "a6ae",
  "2180": "cfbf",
  "2181": "cb8",
  "2182": "8f51",
  "2183": "d90",
  "2184": "54d4",
  "2185": "60a",
  "2186": "b05",
  "2187": "8c63",
  "2188": "8c67",
  "2189": "9e9e",
  "2190": "a9ae",
  "2191": "0a0600",
  "2192": "0900000100",
  "2193": "566965774",
  "2194": "c6174666f72",
  "2195": "5455",
  "2196": "dc83",
  "2197": "cf24",
  "2198": "5354",
  "2199": "dbcf",
  "2200": "222",
  "2201": "a692",
  "2202": "5524",
  "2203": "d9c",
  "2204": "56c7",
  "2205": "5e4f",
  "2206": "2491",
  "2207": "9c67",
  "2208": "444",
  "2209": "a5a8",
  "2210": "609",
  "2211": "a6d3",
  "2212": "c753",
  "2213": "0492",
  "2214": "a894",
  "2215": "9f23",
  "2216": "771",
  "2217": "0861",
  "2218": "a434",
  "2219": "9e07",
  "2220": "bd9",
  "2221": "81e3",
  "2222": "ce73",
  "2223": "924f",
  "2224": "747",
  "2225": "a58e",
  "2226": "5652",
  "2227": "7f3",
  "2228": "a2a7",
  "2229": "9706",
  "2230": "a6b6",
  "2231": "bdd",
  "2232": "91d1",
  "2233": "5054",
  "2234": "d9d",
  "2235": "0e0f",
  "2236": "3ff",
  "2237": "ee1",
  "2238": "341",
  "2239": "c9a",
  "2240": "5153",
  "2241": "6f74",
  "2242": "2747",
  "2243": "5128",
  "2244": "010000",
  "2245": "df8e",
  "2246": "a69e",
  "2247": "a904",
  "2248": "9200",
  "2249": "81cf",
  "2250": "8cb1",
  "2251": "b7cf",
  "2252": "8e4f",
  "2253": "a6a9",
  "2254": "d414",
  "2255": "97d3",
  "2256": "869e",
  "2257": "2482",
  "2258": "d657",
  "2259": "dcae",
  "2260": "dfa7",
  "2261": "cf23",
  "2262": "a7a7",
  "2263": "899",
  "2264": "827e",
  "2265": "adaa",
  "2266": "9493",
  "2267": "9e7f",
  "2268": "5351",
  "2269": "5454",
  "2270": "8e0f",
  "2271": "a68e",
  "2272": "c09",
  "2273": "d651",
  "2274": "9054",
  "2275": "b753",
  "2276": "5557",
  "2277": "5254",
  "2278": "d5d4",
  "2279": "96e7",
  "2280": "d494",
  "2281": "0da",
  "2282": "83e7",
  "2283": "dfe7",
  "2284": "05d",
  "2285": "9233",
  "2286": "b0d",
  "2287": "9fc3",
  "2288": "918f",
  "2289": "d454",
  "2290": "9696",
  "2291": "db8e",
  "2292": "94b1",
  "2293": "63a8",
  "2294": "d754",
  "2295": "9ea3",
  "2296": "9d0",
  "2297": "534f",
  "2298": "a29e",
  "2299": "acaa",
  "2300": "69a",
  "2301": "6f04",
  "2302": "006f",
  "2303": "616d6",
  "2304": "120026",
  "2305": "8616e646c657",
  "2306": "5379737",
  "2307": "53797374656",
  "2308": "656400",
  "2309": "56d62",
  "2310": "0303",
  "2311": "000c",
  "2312": "cf5e",
  "2313": "721",
  "2314": "6e6f",
  "2315": "c7be",
  "2316": "9163",
  "2317": "0f1f",
  "2318": "5551",
  "2319": "0696",
  "2320": "a3a",
  "2321": "038e",
  "2322": "d4de",
  "2323": "91a3",
  "2324": "732",
  "2325": "8d0",
  "2326": "a822",
  "2327": "9124",
  "2328": "d3c3",
  "2329": "91cf",
  "2330": "e7df",
  "2331": "238f",
  "2332": "a9a7",
  "2333": "f44",
  "2334": "dfbf",
  "2335": "11d4",
  "2336": "c7d3",
  "2337": "e3df",
  "2338": "d863",
  "2339": "b9d",
  "2340": "b154",
  "2341": "6200",
  "2342": "ab55",
  "2343": "2ff",
  "2344": "9c92",
  "2345": "5564",
  "2346": "84e",
  "2347": "b99",
  "2348": "9e96",
  "2349": "001c",
  "2350": "b7ef",
  "2351": "aa8c",
  "2352": "53d4",
  "2353": "2f4",
  "2354": "c103",
  "2355": "d254",
  "2356": "ac6f",
  "2357": "d4b4",
  "2358": "b09",
  "2359": "a9a8",
  "2360": "92ae",
  "2361": "0a00",
  "2362": "d85f",
  "2363": "aa8e",
  "2364": "5124",
  "2365": "a8ae",
  "2366": "94b3",
  "2367": "441",
  "2368": "24f4",
  "2369": "c0d",
  "2370": "5555",
  "2371": "332",
  "2372": "f42",
  "2373": "d99",
  "2374": "6e0f",
  "2375": "b2aa",
  "2376": "9f7e",
  "2377": "91ce",
  "2378": "db9e",
  "2379": "a4aa",
  "2380": "a5ae",
  "2381": "8fa7",
  "2382": "8f7e",
  "2383": "8500",
  "2384": "83c0",
  "2385": "cf8e",
  "2386": "f101",
  "2387": "980a0600",
  "2388": "0000011",
  "2389": "4e0900000100",
  "2390": "17474726962757465004",
  "2391": "5402094",
  "2392": "540209496e6",
  "2393": "540209496e686",
  "2394": "540209496e6865726",
  "2395": "540209496e6865726974",
  "2396": "540209496e6865726974656400",
  "2397": "201",
  "2398": "d354",
  "2399": "073f",
  "2400": "c59",
  "2401": "6edb",
  "2402": "d80f",
  "2403": "240f",
  "2404": "7ff",
  "2405": "dbe7",
  "2406": "a7d3",
  "2407": "b723",
  "2408": "9c81",
  "2409": "a9a3",
  "2410": "a5d4",
  "2411": "c7d7",
  "2412": "5f04",
  "2413": "ac8e",
  "2414": "039e",
  "2415": "5553",
  "2416": "8fc4",
  "2417": "96a4",
  "2418": "0e4f",
  "2419": "c71c",
  "2420": "9096",
  "2421": "dcaa",
  "2422": "51d4",
  "2423": "2372",
  "2424": "54b1",
  "2425": "c73f",
  "2426": "9637",
  "2427": "2303",
  "2428": "238e",
  "2429": "d154",
  "2430": "8e01",
  "2431": "8692",
  "2432": "436f",
  "2433": "c74f",
  "2434": "e44",
  "2435": "5696",
  "2436": "0a02",
  "2437": "93cf",
  "2438": "5452",
  "2439": "e38e",
  "2440": "9053",
  "2441": "9da3",
  "2442": "809",
  "2443": "071f",
  "2444": "6fa7",
  "2445": "aca3",
  "2446": "9e92",
  "2447": "83ef",
  "2448": "5155",
  "2449": "ced3",
  "2450": "d0b4",
  "2451": "5543",
  "2452": "5656",
  "2453": "b75e",
  "2454": "9654",
  "2455": "5057",
  "2456": "477",
  "2457": "d523",
  "2458": "c755",
  "2459": "86aa",
  "2460": "278e",
  "2461": "9692",
  "2462": "0c51",
  "2463": "5594",
  "2464": "91a2",
  "2465": "1e1",
  "2466": "aca4",
  "2467": "92aa",
  "2468": "91c7",
  "2469": "a5a7",
  "2470": "731",
  "2471": "8c64",
  "2472": "a79e",
  "2473": "c9d",
  "2474": "5554",
  "2475": "abb4",
  "2476": "acb4",
  "2477": "d696",
  "2478": "03cf",
  "2479": "1737",
  "2480": "91e4",
  "2481": "82a4",
  "2482": "0008",
  "2483": "2493",
  "2484": "8faf",
  "2485": "c5a",
  "2486": "dbaa",
  "2487": "078e",
  "2488": "0202",
  "2489": "92db",
  "2490": "8b003703",
  "2491": "57656256696577",
  "2492": "36f6e74",
  "2493": "36f6e74657",
  "2494": "c6174666f726d",
  "2495": "8191",
  "2496": "a282",
  "2497": "c7df",
  "2498": "92c3",
  "2499": "bfe7",
  "2500": "24b1",
  "2501": "d4b3",
  "2502": "d327",
  "2503": "a355",
  "2504": "a5a3",
  "2505": "a7df",
  "2506": "93ef",
  "2507": "5dae",
  "2508": "b717",
  "2509": "a7a6",
  "2510": "d3bf",
  "2511": "a091",
  "2512": "63b4",
  "2513": "0723",
  "2514": "0dd",
  "2515": "5747",
  "2516": "0f51",
  "2517": "c5d",
  "2518": "95de",
  "2519": "dadf",
  "2520": "f41",
  "2521": "23df",
  "2522": "68a4",
  "2523": "b155",
  "2524": "00e4",
  "2525": "58aa",
  "2526": "6e96",
  "2527": "0787",
  "2528": "cfcf",
  "2529": "9647",
  "2530": "d704",
  "2531": "d477",
  "2532": "d1c4",
  "2533": "d255",
  "2534": "5ee7",
  "2535": "bda",
  "2536": "c40e",
  "2537": "93d3",
  "2538": "83cf",
  "2539": "2474",
  "2540": "d3d4",
  "2541": "ac91",
  "2542": "5147",
  "2543": "a594",
  "2544": "4e4f",
  "2545": "c79f",
  "2546": "93d2",
  "2547": "a9a4",
  "2548": "aba9",
  "2549": "d752",
  "2550": "3f97",
  "2551": "c2e7",
  "2552": "b2b2",
  "2553": "0652",
  "2554": "33e",
  "2555": "534e",
  "2556": "442",
  "2557": "58a8",
  "2558": "d2dc",
  "2559": "5724",
  "2560": "9c91",
  "2561": "62a4",
  "2562": "b2d4",
  "2563": "2317",
  "2564": "9a8e",
  "2565": "aab4",
  "2566": "520f",
  "2567": "514f",
  "2568": "91d3",
  "2569": "5357",
  "2570": "a9aa",
  "2571": "5600",
  "2572": "616e",
  "2573": "52a4",
  "2574": "94d1",
  "2575": "474f",
  "2576": "0b00",
  "2577": "978e",
  "2578": "03c1",
  "2579": "8ce7",
  "2580": "a6dc",
  "2581": "93c1",
  "2582": "27df",
  "2583": "9e3f",
  "2584": "632c",
  "2585": "d654",
  "2586": "95a4",
  "2587": "1f4f",
  "2588": "a7b7",
  "2589": "8f34",
  "2590": "6e61",
  "2591": "93d4",
  "2592": "53c3",
  "2593": "52d2",
  "2594": "2412",
  "2595": "838e",
  "2596": "d357",
  "2597": "dbdb",
  "2598": "9daa",
  "2599": "b9a",
  "2600": "91c1",
  "2601": "2391",
  "2602": "5f55",
  "2603": "dbb4",
  "2604": "cf3f",
  "2605": "96a2",
  "2606": "00db",
  "2607": "9594",
  "2608": "520e",
  "2609": "e78f",
  "2610": "54d3",
  "2611": "5123",
  "2612": "0fbf",
  "2613": "9204",
  "2614": "c78e",
  "2615": "9fe1",
  "2616": "d151",
  "2617": "9fa7",
  "2618": "c7e7",
  "2619": "8e47",
  "2620": "a5aa",
  "2621": "cf03",
  "2622": "0081",
  "2623": "c7b7",
  "2624": "b7d3",
  "2625": "5d0",
  "2626": "00e3",
  "2627": "d7db",
  "2628": "01b7",
  "2629": "2100",
  "2630": "00000000861",
  "2631": "000000008608",
  "2632": "4726f",
  "2633": "56696577436f6e74657",
  "2634": "56696577436f6e74657874",
  "2635": "1280b",
  "2636": "0e0b",
  "2637": "1414141414141414",
  "2638": "0607",
  "2639": "101",
  "2640": "d88e",
  "2641": "df2c",
  "2642": "a4a7",
  "2643": "94d2",
  "2644": "9363",
  "2645": "585f",
  "2646": "94b4",
  "2647": "9292",
  "2648": "dc8e",
  "2649": "c101",
  "2650": "07df",
  "2651": "95d4",
  "2652": "9c0e",
  "2653": "492",
  "2654": "dfae",
  "2655": "5365",
  "2656": "618e",
  "2657": "06a8",
  "2658": "b752",
  "2659": "c702",
  "2660": "816e",
  "2661": "a7a8",
  "2662": "0b8e",
  "2663": "5667",
  "2664": "6e00",
  "2665": "a8d2",
  "2666": "a8d4",
  "2667": "34b4",
  "2668": "868e",
  "2669": "3c0e",
  "2670": "d653",
  "2671": "182",
  "2672": "5801",
  "2673": "b1b2",
  "2674": "c1cf",
  "2675": "079e",
  "2676": "8007",
  "2677": "9666",
  "2678": "5e1f",
  "2679": "522f",
  "2680": "97c1",
  "2681": "5692",
  "2682": "d054",
  "2683": "9241",
  "2684": "b101",
  "2685": "a8a3",
  "2686": "bbd4",
  "2687": "80a",
  "2688": "8cd4",
  "2689": "9752",
  "2690": "4300",
  "2691": "96df",
  "2692": "0a07",
  "2693": "5567",
  "2694": "d76e",
  "2695": "c7a7",
  "2696": "8ea3",
  "2697": "55d4",
  "2698": "0483",
  "2699": "ba6e",
  "2700": "bf50",
  "2701": "67a8",
  "2702": "548e",
  "2703": "9662",
  "2704": "9c00",
  "2705": "9b61",
  "2706": "9954",
  "2707": "bf4f",
  "2708": "b283",
  "2709": "512c",
  "2710": "974f",
  "2711": "51d2",
  "2712": "58a2",
  "2713": "0900",
  "2714": "d1d2",
  "2715": "98aa",
  "2716": "ff007",
  "2717": "cf34",
  "2718": "c777",
  "2719": "d1dc",
  "2720": "aea8",
  "2721": "0493",
  "2722": "87f4",
  "2723": "63f3",
  "2724": "d5b4",
  "2725": "24a3",
  "2726": "d1d3",
  "2727": "d2b4",
  "2728": "cb24",
  "2729": "9eb7",
  "2730": "516e",
  "2731": "a1a4",
  "2732": "58d1",
  "2733": "a824",
  "2734": "2463",
  "2735": "5595",
  "2736": "06de",
  "2737": "e7db",
  "2738": "b6dc",
  "2739": "5b82",
  "2740": "817e",
  "2741": "0181",
  "2742": "ff001",
  "2743": "6654",
  "2744": "99aa",
  "2745": "9ea1",
  "2746": "ab54",
  "2747": "d3dc",
  "2748": "04f1",
  "2749": "2401",
  "2750": "9324",
  "2751": "9e4f",
  "2752": "5513",
  "2753": "207",
  "2754": "54db",
  "2755": "90b3",
  "2756": "93dc",
  "2757": "deaa",
  "2758": "dba1",
  "2759": "b5d4",
  "2760": "a786",
  "2761": "c347",
  "2762": "6f97",
  "2763": "89a",
  "2764": "a76e",
  "2765": "a9a6",
  "2766": "ce3e",
  "2767": "a7d4",
  "2768": "96e4",
  "2769": "6e07",
  "2770": "b7c4",
  "2771": "5f9f",
  "2772": "aed6",
  "2773": "52c1",
  "2774": "a4d3",
  "2775": "0ea1",
  "2776": "b300",
  "2777": "d437",
  "2778": "c74e",
  "2779": "b75b",
  "2780": "8b5b",
  "2781": "0013",
  "2782": "85d",
  "2783": "744",
  "2784": "5368",
  "2785": "007f",
  "2786": "e3aa",
  "2787": "efd3",
  "2788": "9724",
  "2789": "b25c",
  "2790": "23af",
  "2791": "a433",
  "2792": "0d41",
  "2793": "b9b7",
  "2794": "a2aa",
  "2795": "2302",
  "2796": "db12",
  "2797": "91ef",
  "2798": "0707",
  "2799": "8782",
  "2800": "90d4",
  "2801": "23a8",
  "2802": "c127",
  "2803": "a892",
  "2804": "9e3e",
  "2805": "91e3",
  "2806": "5ba1",
  "2807": "50d7",
  "2808": "8562",
  "2809": "8c03",
  "2810": "4f4f",
  "2811": "2400",
  "2812": "aa24",
  "2813": "2300",
  "2814": "0703",
  "2815": "b85c",
  "2816": "cf4e",
  "2817": "d094",
  "2818": "6e66",
  "2819": "233f",
  "2820": "2004",
  "2821": "df7f",
  "2822": "0463",
  "2823": "c302",
  "2824": "4657",
  "2825": "000000000000",
  "2826": "0808080808080808",
  "2827": "efe7",
  "2828": "0000042a22",
  "2829": "027b1",
  "2830": "000000000861",
  "2831": "22007504",
  "2832": "6e74726f",
  "2833": "61626c",
  "2834": "e436f",
  "2835": "65745f4",
  "2836": "5616c",
  "2837": "3696f",
  "2838": "5151",
  "2839": "0205",
  "2840": "0801",
  "2841": "0211",
  "2842": "550b",
  "2843": "8ca8",
  "2844": "23a4",
  "2845": "b4b2",
  "2846": "b137",
  "2847": "573f",
  "2848": "d7bf",
  "2849": "dc5b",
  "2850": "5edc",
  "2851": "049e",
  "2852": "a493",
  "2853": "dd6f",
  "2854": "23c7",
  "2855": "02e7",
  "2856": "616f",
  "2857": "5e5e",
  "2858": "a08e",
  "2859": "2481",
  "2860": "ad24",
  "2861": "9bdc",
  "2862": "dfa8",
  "2863": "d723",
  "2864": "dbdf",
  "2865": "6192",
  "2866": "c98",
  "2867": "fda3",
  "2868": "a5de",
  "2869": "d7b7",
  "2870": "1fcf",
  "2871": "cfe7",
  "2872": "136e",
  "2873": "9218",
  "2874": "a8a2",
  "2875": "de7b",
  "2876": "a0db",
  "2877": "5532",
  "2878": "aad1",
  "2879": "9294",
  "2880": "d0df",
  "2881": "83d4",
  "2882": "9c7f",
  "2883": "e756",
  "2884": "aeaa",
  "2885": "d9a",
  "2886": "5ad6",
  "2887": "9207",
  "2888": "62bf",
  "2889": "9c55",
  "2890": "5655",
  "2891": "2393",
  "2892": "1f87",
  "2893": "68d4",
  "2894": "c484",
  "2895": "dbbf",
  "2896": "8a8f",
  "2897": "4f6e",
  "2898": "8b5c",
  "2899": "82e7",
  "2900": "b472",
  "2901": "b1d4",
  "2902": "0f54",
  "2903": "1492",
  "2904": "b907",
  "2905": "b1e3",
  "2906": "d6c2",
  "2907": "9c9f",
  "2908": "dca7",
  "2909": "e72",
  "2910": "56c3",
  "2911": "90d6",
  "2912": "61b7",
  "2913": "d524",
  "2914": "df0e",
  "2915": "08a4",
  "2916": "a6b2",
  "2917": "a1a7",
  "2918": "0402",
  "2919": "90c4",
  "2920": "a2ab",
  "2921": "8a8e",
  "2922": "a0aa",
  "2923": "24d2",
  "2924": "5df7",
  "2925": "c306",
  "2926": "dbad",
  "2927": "c300",
  "2928": "8492",
  "2929": "9628",
  "2930": "dee2",
  "2931": "9244",
  "2932": "98d4",
  "2933": "da6e",
  "2934": "c78f",
  "2935": "6564",
  "2936": "0484",
  "2937": "958f",
  "2938": "2355",
  "2939": "5212",
  "2940": "b254",
  "2941": "5c8e",
  "2942": "9623",
  "2943": "b855",
  "2944": "9eae",
  "2945": "91e7",
  "2946": "8752",
  "2947": "9c53",
  "2948": "9eab",
  "2949": "a5b2",
  "2950": "8e8e",
  "2951": "d20f",
  "2952": "b292",
  "2953": "ab24",
  "2954": "2344",
  "2955": "3d3",
  "2956": "58d8",
  "2957": "a3d4",
  "2958": "9e47",
  "2959": "bf4e",
  "2960": "dcb1",
  "2961": "df51",
  "2962": "c74c",
  "2963": "a78e",
  "2964": "9755",
  "2965": "52d1",
  "2966": "c4a1",
  "2967": "5b92",
  "2968": "dc1e",
  "2969": "3663",
  "2970": "bf87",
  "2971": "b9dc",
  "2972": "a2a2",
  "2973": "ff004",
  "2974": "9454",
  "2975": "1fc3",
  "2976": "afa7",
  "2977": "9196",
  "2978": "6dae",
  "2979": "919f",
  "2980": "586e",
  "2981": "bea3",
  "2982": "e7c7",
  "2983": "c73c",
  "2984": "51c7",
  "2985": "c312",
  "2986": "c75f",
  "2987": "0163",
  "2988": "d496",
  "2989": "d5a8",
  "2990": "a492",
  "2991": "9dac",
  "2992": "6f53",
  "2993": "2494",
  "2994": "dc0f",
  "2995": "249e",
  "2996": "a9de",
  "2997": "b2b4",
  "2998": "dd55",
  "2999": "a3a6",
  "3000": "cedf",
  "3001": "6492",
  "3002": "61b6",
  "3003": "9c54",
  "3004": "04b4",
  "3005": "6700",
  "3006": "0d00",
  "3007": "9564",
  "3008": "98d3",
  "3009": "5393",
  "3010": "5347",
  "3011": "db6e",
  "3012": "5252",
  "3013": "67a7",
  "3014": "9e48",
  "3015": "a0a8",
  "3016": "9892",
  "3017": "a956",
  "3018": "5453",
  "3019": "0ca3",
  "3020": "a8aa",
  "3021": "0d67",
  "3022": "038c",
  "3023": "07d3",
  "3024": "a992",
  "3025": "a334",
  "3026": "5154",
  "3027": "a587",
  "3028": "d347",
  "3029": "9da1",
  "3030": "0c67",
  "3031": "a4db",
  "3032": "a7cc",
  "3033": "d753",
  "3034": "c954",
  "3035": "d534",
  "3036": "9704",
  "3037": "9e73",
  "3038": "aea1",
  "3039": "af54",
  "3040": "9a55",
  "3041": "b4b4",
  "3042": "8c8f",
  "3043": "4f34",
  "3044": "c69",
  "3045": "0074",
  "3046": "9fe7",
  "3047": "9114",
  "3048": "058e",
  "3049": "9d52",
  "3050": "06dc",
  "3051": "ff003",
  "3052": "8dc7",
  "3053": "d457",
  "3054": "a9a9",
  "3055": "a4b1",
  "3056": "51a4",
  "3057": "b7db",
  "3058": "0091",
  "3059": "3717",
  "3060": "963f",
  "3061": "619e",
  "3062": "6eb3",
  "3063": "9e17",
  "3064": "1300",
  "3065": "90ab",
  "3066": "636f",
  "3067": "8c6e",
  "3068": "b024",
  "3069": "ef9e",
  "3070": "aba3",
  "3071": "8f3e",
  "3072": "c771",
  "3073": "b6aa",
  "3074": "9e7e",
  "3075": "aed4",
  "3076": "5f7f",
  "3077": "a9b4",
  "3078": "742",
  "3079": "9adb",
  "3080": "d73f",
  "3081": "5f6e",
  "3082": "0006",
  "3083": "9191",
  "3084": "d4d7",
  "3085": "5f51",
  "3086": "d3a7",
  "3087": "1500",
  "3088": "9e97",
  "3089": "cf9e",
  "3090": "2324",
  "3091": "dfef",
  "3092": "0072",
  "3093": "38cf",
  "3094": "8f07",
  "3095": "6c65",
  "3096": "a0d4",
  "3097": "a3a0228180000",
  "3098": "027b",
  "3099": "01000000",
  "3100": "83c0c0100",
  "3101": "032e00",
  "3102": "12002602",
  "3103": "6374696f6e",
  "3104": "004176616c6f6e696",
  "3105": "52656",
  "3106": "56697",
  "3107": "506c6174666f726d",
  "3108": "db00",
  "3109": "0111",
  "3110": "1101",
  "3111": "01010101",
  "3112": "aca7",
  "3113": "9504",
  "3114": "56d6",
  "3115": "a954",
  "3116": "00a1",
  "3117": "6f73",
  "3118": "5fd2",
  "3119": "5522",
  "3120": "90c1",
  "3121": "9dde",
  "3122": "b8bf",
  "3123": "1904",
  "3124": "5101",
  "3125": "d411",
  "3126": "d893",
  "3127": "5194",
  "3128": "e18",
  "3129": "3300",
  "3130": "8f6e",
  "3131": "ac81",
  "3132": "ddde",
  "3133": "2c93",
  "3134": "df62",
  "3135": "a524",
  "3136": "b2b1",
  "3137": "c47e",
  "3138": "8201",
  "3139": "d637",
  "3140": "b75f",
  "3141": "51dc",
  "3142": "b73f",
  "3143": "a8f4",
  "3144": "5052",
  "3145": "50000",
  "3146": "bec4",
  "3147": "c454",
  "3148": "aeb2",
  "3149": "8f97",
  "3150": "d482",
  "3151": "24b3",
  "3152": "62b3",
  "3153": "5527",
  "3154": "9e0e",
  "3155": "d334",
  "3156": "99a7",
  "3157": "8f71",
  "3158": "9924",
  "3159": "9ee3",
  "3160": "d2e3",
  "3161": "aa86",
  "3162": "2b3",
  "3163": "9644",
  "3164": "bbdc",
  "3165": "c707",
  "3166": "58a4",
  "3167": "d36e",
  "3168": "dc82",
  "3169": "8e49",
  "3170": "9cd3",
  "3171": "b063",
  "3172": "9862",
  "3173": "b5bf",
  "3174": "d366",
  "3175": "928e",
  "3176": "c727",
  "3177": "b803",
  "3178": "be14",
  "3179": "b587",
  "3180": "9501",
  "3181": "936b",
  "3182": "bf1f",
  "3183": "d5a2",
  "3184": "f14",
  "3185": "bedb",
  "3186": "aaee",
  "3187": "6e52",
  "3188": "6e3e",
  "3189": "202",
  "3190": "9624",
  "3191": "cf51",
  "3192": "5ba7",
  "3193": "878f",
  "3194": "db62",
  "3195": "b36",
  "3196": "8c01",
  "3197": "9bdf",
  "3198": "5d55",
  "3199": "9f2e",
  "3200": "6493",
  "3201": "b4d4",
  "3202": "8207",
  "3203": "24d1",
  "3204": "93c7",
  "3205": "b0d3",
  "3206": "0f0e",
  "3207": "9e00",
  "3208": "d4b1",
  "3209": "aea6",
  "3210": "d7e4",
  "3211": "da54",
  "3212": "9a67",
  "3213": "aa22",
  "3214": "5cce",
  "3215": "60d",
  "3216": "a4a4",
  "3217": "de17",
  "3218": "6e0e",
  "3219": "aad3",
  "3220": "d352",
  "3221": "0011",
  "3222": "a471",
  "3223": "b200",
  "3224": "d7a1",
  "3225": "6e17",
  "3226": "638f",
  "3227": "e4f",
  "3228": "9f53",
  "3229": "9491",
  "3230": "efdf",
  "3231": "557e",
  "3232": "a596",
  "3233": "04dc",
  "3234": "a29f",
  "3235": "ac93",
  "3236": "18de",
  "3237": "5ee3",
  "3238": "c453",
  "3239": "be1f",
  "3240": "6c74",
  "3241": "5891",
  "3242": "5904",
  "3243": "a95e",
  "3244": "bed1",
  "3245": "a2d3",
  "3246": "50d3",
  "3247": "3f7f",
  "3248": "6f17",
  "3249": "deb7",
  "3250": "90ac",
  "3251": "556e",
  "3252": "2a9e",
  "3253": "d50f",
  "3254": "0797",
  "3255": "d228",
  "3256": "be55",
  "3257": "9162",
  "3258": "be77",
  "3259": "83d3",
  "3260": "154",
  "3261": "ef8e",
  "3262": "95e4",
  "3263": "6974",
  "3264": "5d64",
  "3265": "a581",
  "3266": "a8b7",
  "3267": "c712",
  "3268": "55c7",
  "3269": "9161",
  "3270": "9413",
  "3271": "d492",
  "3272": "9617",
  "3273": "a7d2",
  "3274": "e40f",
  "3275": "d7df",
  "3276": "d3cf",
  "3277": "9e86",
  "3278": "124",
  "3279": "b3d1",
  "3280": "9caa",
  "3281": "9edf",
  "3282": "9e24",
  "3283": "bb6f",
  "3284": "574f",
  "3285": "df23",
  "3286": "95b2",
  "3287": "977c",
  "3288": "0403",
  "3289": "b904",
  "3290": "9d55",
  "3291": "a382",
  "3292": "6697",
  "3293": "a8ac",
  "3294": "b4d1",
  "3295": "d0d3",
  "3296": "da8e",
  "3297": "58dc",
  "3298": "dfd4",
  "3299": "b4d5",
  "3300": "dea8",
  "3301": "a4af",
  "3302": "9347",
  "3303": "aba6",
  "3304": "b353",
  "3305": "d0d4",
  "3306": "d2c7",
  "3307": "b1db",
  "3308": "a2b4",
  "3309": "9092",
  "3310": "038f",
  "3311": "95d1",
  "3312": "25c",
  "3313": "aa34",
  "3314": "dac7",
  "3315": "96e3",
  "3316": "2dc",
  "3317": "b6ef",
  "3318": "0393",
  "3319": "a38e",
  "3320": "ada3",
  "3321": "8a92",
  "3322": "af7f",
  "3323": "d7fe",
  "3324": "aba7",
  "3325": "aa6f",
  "3326": "920f",
  "3327": "81c1",
  "3328": "b4f2",
  "3329": "9da2",
  "3330": "a2a6",
  "3331": "aaa2",
  "3332": "b0a",
  "3333": "ee0f",
  "3334": "add2",
  "3335": "e51",
  "3336": "b60b",
  "3337": "82a7",
  "3338": "95d2",
  "3339": "dfb4",
  "3340": "64af",
  "3341": "6e23",
  "3342": "6d63",
  "3343": "d617",
  "3344": "c2b1",
  "3345": "d4e4",
  "3346": "6300",
  "3347": "5d9e",
  "3348": "5144",
  "3349": "6fa1",
  "3350": "c731",
  "3351": "d998",
  "3352": "92b",
  "3353": "d7c3",
  "3354": "246e",
  "3355": "0523",
  "3356": "aed2",
  "3357": "0104",
  "3358": "8e57",
  "3359": "8f73",
  "3360": "93e7",
  "3361": "3e1",
  "3362": "0b9f",
  "3363": "d4d3",
  "3364": "6296",
  "3365": "041f",
  "3366": "9d98",
  "3367": "df6f",
  "3368": "c2be",
  "3369": "df72",
  "3370": "ced2",
  "3371": "b7b7",
  "3372": "dc63",
  "3373": "9b52",
  "3374": "e413",
  "3375": "948e",
  "3376": "a0a7",
  "3377": "9f6c",
  "3378": "db1e",
  "3379": "551c",
  "3380": "9753",
  "3381": "8f23",
  "3382": "638c",
  "3383": "2a8",
  "3384": "0c00",
  "3385": "6c91",
  "3386": "a967",
  "3387": "64b7",
  "3388": "a7b",
  "3389": "5514",
  "3390": "d2e7",
  "3391": "a5d3",
  "3392": "4952",
  "3393": "9e91",
  "3394": "a374",
  "3395": "d68e",
  "3396": "81b7",
  "3397": "97d4",
  "3398": "b6de",
  "3399": "6dc7",
  "3400": "a924",
  "3401": "5c9e",
  "3402": "62aa",
  "3403": "0054",
  "3404": "a4b7",
  "3405": "5eab",
  "3406": "2488",
  "3407": "5eb4",
  "3408": "0382",
  "3409": "ad8f",
  "3410": "b282",
  "3411": "b08",
  "3412": "dd07",
  "3413": "84e3",
  "3414": "718f",
  "3415": "2657",
  "3416": "aca8",
  "3417": "5323",
  "3418": "6f61",
  "3419": "2b6",
  "3420": "d514",
  "3421": "cf47",
  "3422": "646c",
  "3423": "f200",
  "3424": "525e",
  "3425": "90d3",
  "3426": "a092",
  "3427": "b954",
  "3428": "a703",
  "3429": "61c7",
  "3430": "8257",
  "3431": "d1c1",
  "3432": "0076",
  "3433": "93b4",
  "3434": "8524",
  "3435": "656e",
  "3436": "b117",
  "3437": "b495",
  "3438": "5127",
  "3439": "23a6",
  "3440": "804f",
  "3441": "def7",
  "3442": "9600",
  "3443": "d3af",
  "3444": "829e",
  "3445": "9fbf",
  "3446": "52db",
  "3447": "9f03",
  "3448": "81e7",
  "3449": "b8cf",
  "3450": "040e",
  "3451": "df2f",
  "3452": "3f4e",
  "3453": "83e3",
  "3454": "dade",
  "3455": "c803",
  "3456": "aaa4",
  "3457": "8e33",
  "3458": "6d00",
  "3459": "b854",
  "3460": "d652",
  "3461": "9e84",
  "3462": "abaf",
  "3463": "b651",
  "3464": "9c0c",
  "3465": "efd2",
  "3466": "faf",
  "3467": "ced1",
  "3468": "abaa",
  "3469": "5b64",
  "3470": "02037d",
  "3471": "0000042a1e027b",
  "3472": "0000042a2202",
  "3473": "0000042a2202037",
  "3474": "00000a2",
  "3475": "a0d4900",
  "3476": "000001100",
  "3477": "4e09000001004e0900000100",
  "3478": "003c0c0100",
  "3479": "6f70657",
  "3480": "006765745f",
  "3481": "576562566965772e",
  "3482": "6b5f5f4261636b696e674669656c64003c",
  "3483": "65727",
  "3484": "54020d41",
  "3485": "54020d416c",
  "3486": "54020d416c6c6f",
  "3487": "54020d416c6c6f774",
  "3488": "54020d416c6c6f774d7",
  "3489": "54020d416c6c6f774d756c7",
  "3490": "54020d416c6c6f774d756c746",
  "3491": "54020d416c6c6f774d756c7469706",
  "3492": "6494",
  "3493": "0504",
  "3494": "2452",
  "3495": "c2e4",
  "3496": "5352",
  "3497": "bcd2",
  "3498": "a5a2",
  "3499": "9183",
  "3500": "94e4",
  "3501": "2e7",
  "3502": "a952",
  "3503": "0e9e",
  "3504": "c194",
  "3505": "b255",
  "3506": "639f",
  "3507": "072c",
  "3508": "bfbe",
  "3509": "5314",
  "3510": "b127",
  "3511": "9271",
  "3512": "56df",
  "3513": "c123",
  "3514": "b74f",
  "3515": "a3a9",
  "3516": "a166",
  "3517": "5adc",
  "3518": "d8dc",
  "3519": "da03",
  "3520": "9896",
  "3521": "0047",
  "3522": "937e",
  "3523": "a0a6",
  "3524": "9246",
  "3525": "5861",
  "3526": "b8c4",
  "3527": "92d4",
  "3528": "a26c",
  "3529": "aed3",
  "3530": "6c5c",
  "3531": "292",
  "3532": "69aa",
  "3533": "92f1",
  "3534": "9824",
  "3535": "9d57",
  "3536": "deb1",
  "3537": "8884",
  "3538": "bf0f",
  "3539": "ab96",
  "3540": "b693",
  "3541": "8603",
  "3542": "906e",
  "3543": "cc63",
  "3544": "9b53",
  "3545": "d561",
  "3546": "add1",
  "3547": "c31f",
  "3548": "b60c",
  "3549": "5b0",
  "3550": "6951",
  "3551": "c7d1",
  "3552": "ab92",
  "3553": "6e11",
  "3554": "7fd1",
  "3555": "bd54",
  "3556": "91a4",
  "3557": "e92",
  "3558": "a8a1",
  "3559": "7c54",
  "3560": "df43",
  "3561": "0f33",
  "3562": "c855",
  "3563": "0cdb",
  "3564": "e9aa",
  "3565": "9607",
  "3566": "0daf",
  "3567": "5b0b",
  "3568": "2a1",
  "3569": "6ee2",
  "3570": "23d3",
  "3571": "5c8c",
  "3572": "63aa",
  "3573": "d39b",
  "3574": "9b82",
  "3575": "aca2",
  "3576": "19a4",
  "3577": "9853",
  "3578": "8391",
  "3579": "0802",
  "3580": "7cc",
  "3581": "b49e",
  "3582": "1f7e",
  "3583": "db14",
  "3584": "db9f",
  "3585": "2ac",
  "3586": "231e",
  "3587": "0f17",
  "3588": "de28",
  "3589": "6b62",
  "3590": "245e",
  "3591": "56b7",
  "3592": "d3a9",
  "3593": "5883",
  "3594": "9354",
  "3595": "8697",
  "3596": "aa63",
  "3597": "a35b",
  "3598": "23a3",
  "3599": "3e47",
  "3600": "d8d7",
  "3601": "53f7",
  "3602": "8ca1",
  "3603": "22c3",
  "3604": "87bf",
  "3605": "83fe",
  "3606": "9d23",
  "3607": "bb23",
  "3608": "d38e",
  "3609": "a347",
  "3610": "9486",
  "3611": "ac9e",
  "3612": "82c7",
  "3613": "dbf7",
  "3614": "0400",
  "3615": "b8b1",
  "3616": "90aa",
  "3617": "5e55",
  "3618": "dfe9",
  "3619": "836f",
  "3620": "61f2",
  "3621": "04db",
  "3622": "b1a7",
  "3623": "c153",
  "3624": "a312",
  "3625": "83c7",
  "3626": "9f27",
  "3627": "6fff00",
  "3628": "3f5f",
  "3629": "25b",
  "3630": "1823",
  "3631": "a6b4",
  "3632": "0e61",
  "3633": "a1a1",
  "3634": "6f7f",
  "3635": "be1c",
  "3636": "0fb7",
  "3637": "dc9f",
  "3638": "01b1",
  "3639": "aaa8",
  "3640": "2432",
  "3641": "204",
  "3642": "acb3",
  "3643": "8daf",
  "3644": "cf17",
  "3645": "0e31",
  "3646": "94df",
  "3647": "9791",
  "3648": "df91",
  "3649": "99c7",
  "3650": "1413",
  "3651": "a6a1",
  "3652": "8f32",
  "3653": "a3d3",
  "3654": "dbae",
  "3655": "ad6e",
  "3656": "f11",
  "3657": "5cae",
  "3658": "51d7",
  "3659": "dabf",
  "3660": "c717",
  "3661": "b7c3",
  "3662": "74f",
  "3663": "ce33",
  "3664": "b36f",
  "3665": "dcab",
  "3666": "0cd1",
  "3667": "96d2",
  "3668": "2d4",
  "3669": "866e",
  "3670": "3c6e",
  "3671": "6c67",
  "3672": "5ad7",
  "3673": "b454",
  "3674": "0e97",
  "3675": "3432",
  "3676": "65dc",
  "3677": "c7af",
  "3678": "0264",
  "3679": "91f4",
  "3680": "c953",
  "3681": "188c",
  "3682": "51aa",
  "3683": "a727",
  "3684": "240c",
  "3685": "9e83",
  "3686": "2fb4",
  "3687": "d737",
  "3688": "e17",
  "3689": "1c7",
  "3690": "03e7",
  "3691": "dec2",
  "3692": "5493",
  "3693": "8f24",
  "3694": "5eaa",
  "3695": "fba7",
  "3696": "0491",
  "3697": "ba55",
  "3698": "0122",
  "3699": "d1e1",
  "3700": "d755",
  "3701": "8f54",
  "3702": "872f",
  "3703": "c0a",
  "3704": "0191",
  "3705": "a1a9",
  "3706": "2861",
  "3707": "9996",
  "3708": "9bd4",
  "3709": "1c9f",
  "3710": "a955",
  "3711": "2ed2",
  "3712": "bf7f",
  "3713": "63c8",
  "3714": "f85f",
  "3715": "9b56",
  "3716": "5c6e",
  "3717": "986e",
  "3718": "a523",
  "3719": "dcf3",
  "3720": "e467",
  "3721": "26c",
  "3722": "dcee",
  "3723": "0587",
  "3724": "71b4",
  "3725": "a3b4",
  "3726": "257",
  "3727": "034f",
  "3728": "949e",
  "3729": "b7e3",
  "3730": "5d51",
  "3731": "bfb",
  "3732": "aaa1",
  "3733": "8154",
  "3734": "9ad6",
  "3735": "a5a9",
  "3736": "6391",
  "3737": "a5bf",
  "3738": "54d2",
  "3739": "db7f",
  "3740": "c772",
  "3741": "03b2",
  "3742": "c741",
  "3743": "d2a6",
  "3744": "8cd1",
  "3745": "ae55",
  "3746": "9c96",
  "3747": "8a54",
  "3748": "dbb",
  "3749": "69a9",
  "3750": "8fc1",
  "3751": "8cdb",
  "3752": "b253",
  "3753": "8e92",
  "3754": "514e",
  "3755": "0c55",
  "3756": "0214",
  "3757": "ab86",
  "3758": "f2c1",
  "3759": "2377",
  "3760": "dc5e",
  "3761": "abb2",
  "3762": "b700",
  "3763": "6691",
  "3764": "0196",
  "3765": "9658",
  "3766": "df74",
  "3767": "48e",
  "3768": "83c3",
  "3769": "dbb3",
  "3770": "bf97",
  "3771": "a314",
  "3772": "a6d6",
  "3773": "ac8",
  "3774": "5350",
  "3775": "920e",
  "3776": "81b",
  "3777": "a567",
  "3778": "8e83",
  "3779": "5ca1",
  "3780": "a4a9",
  "3781": "04af",
  "3782": "a324",
  "3783": "d463",
  "3784": "c900",
  "3785": "c923",
  "3786": "bfbf",
  "3787": "5caf",
  "3788": "6600",
  "3789": "95d5",
  "3790": "b581",
  "3791": "dc02",
  "3792": "d777",
  "3793": "0157",
  "3794": "92a2",
  "3795": "08c1",
  "3796": "6ce3",
  "3797": "84a7",
  "3798": "d1c7",
  "3799": "9d8e",
  "3800": "5134",
  "3801": "aa92",
  "3802": "dc2e",
  "3803": "838f",
  "3804": "af00",
  "3805": "dbe4",
  "3806": "9523",
  "3807": "aade",
  "3808": "8717",
  "3809": "5755",
  "3810": "01cf",
  "3811": "e79e",
  "3812": "9673",
  "3813": "cfaa",
  "3814": "9ea6",
  "3815": "dec4",
  "3816": "ba96",
  "3817": "98d1",
  "3818": "5954",
  "3819": "9494",
  "3820": "2a4",
  "3821": "5baf",
  "3822": "dc24",
  "3823": "9863",
  "3824": "d9ce",
  "3825": "91d6",
  "3826": "83aa",
  "3827": "d18f",
  "3828": "adb7",
  "3829": "b892",
  "3830": "04e3",
  "3831": "5864",
  "3832": "1d4",
  "3833": "c796",
  "3834": "c31e",
  "3835": "d8b1",
  "3836": "dedf",
  "3837": "db0c",
  "3838": "be62",
  "3839": "0322",
  "3840": "a300",
  "3841": "95ce",
  "3842": "5894",
  "3843": "d4d1",
  "3844": "5d91",
  "3845": "9eaa",
  "3846": "b2a1",
  "3847": "5304",
  "3848": "a0b4",
  "3849": "d152",
  "3850": "d716",
  "3851": "8e3f",
  "3852": "92df",
  "3853": "0cb2",
  "3854": "96a8",
  "3855": "4492",
  "3856": "dea1",
  "3857": "abd3",
  "3858": "8163",
  "3859": "92e3",
  "3860": "960f",
  "3861": "ee3",
  "3862": "b3b7",
  "3863": "0daa",
  "3864": "471c",
  "3865": "5756",
  "3866": "490c",
  "3867": "b05b",
  "3868": "dee7",
  "3869": "a2d4",
  "3870": "5f0f",
  "3871": "82df",
  "3872": "a804",
  "3873": "add3",
  "3874": "e603",
  "3875": "0ce7",
  "3876": "5727",
  "3877": "d26f",
  "3878": "bad2",
  "3879": "aed1",
  "3880": "de04",
  "3881": "c322",
  "3882": "9f52",
  "3883": "2323",
  "3884": "a994",
  "3885": "d353",
  "3886": "284",
  "3887": "b657",
  "3888": "aaa5",
  "3889": "0f7e",
  "3890": "0781",
  "3891": "0312",
  "3892": "5f52",
  "3893": "b224",
  "3894": "a2af",
  "3895": "c6aa",
  "3896": "a8b4",
  "3897": "d6d4",
  "3898": "0102",
  "3899": "0c92",
  "3900": "9ab7",
  "3901": "aeaf",
  "3902": "b80e",
  "3903": "6464",
  "3904": "afbf",
  "3905": "4714",
  "3906": "9c64",
  "3907": "b754",
  "3908": "aeba",
  "3909": "dc92",
  "3910": "5b8e",
  "3911": "d5d3",
  "3912": "a748",
  "3913": "d5d2",
  "3914": "a655",
  "3915": "6a9e",
  "3916": "9b8",
  "3917": "5356",
  "3918": "a36f",
  "3919": "b474",
  "3920": "616c",
  "3921": "c8c7",
  "3922": "5b81",
  "3923": "d4f4",
  "3924": "8c00",
  "3925": "9686",
  "3926": "c761",
  "3927": "cf42",
  "3928": "6f2f",
  "3929": "a76c",
  "3930": "99c2",
  "3931": "d257",
  "3932": "531c",
  "3933": "6491",
  "3934": "6f4f",
  "3935": "2414",
  "3936": "8edb",
  "3937": "9c82",
  "3938": "6154",
  "3939": "d7a7",
  "3940": "927f",
  "3941": "0b93",
  "3942": "01e7",
  "3943": "9804",
  "3944": "b4e4",
  "3945": "267",
  "3946": "0428",
  "3947": "cee6",
  "3948": "bbef",
  "3949": "bbb7",
  "3950": "9747",
  "3951": "a5b7",
  "3952": "dad6",
  "3953": "9aef",
  "3954": "c7ef",
  "3955": "934d",
  "3956": "b743",
  "3957": "65a2",
  "3958": "d1b",
  "3959": "0300",
  "3960": "af34",
  "3961": "07e7",
  "3962": "a286",
  "3963": "004e",
  "3964": "173736",
  "3965": "5253",
  "3966": "8da3",
  "3967": "dc64",
  "3968": "938f",
  "3969": "4fbf",
  "3970": "5277",
  "3971": "3900",
  "3972": "a495",
  "3973": "9414",
  "3974": "db6f",
  "3975": "13d4",
  "3976": "1b02",
  "3977": "6e56",
  "3978": "a197",
  "3979": "000006",
  "3980": "0727",
  "3981": "8ce3",
  "3982": "9e0c4",
  "3983": "8f3f",
  "3984": "3c67",
  "3985": "6467",
  "3986": "000600",
  "3987": "8bd4",
  "3988": "efd1",
  "3989": "befbf",
  "3990": "64654",
  "3991": "0b901",
  "3992": "0000042a3a0228180000",
  "3993": "00001",
  "3994": "f1010100",
  "3995": "00000000000000c6",
  "3996": "00000200",
  "3997": "018b003703",
  "3998": "36f6e74726f",
  "3999": "616e646c",
  "4000": "1576562566965772e",
  "4001": "1576562566965772e5368",
  "4002": "1576562566965772e53686172",
  "4003": "003c4",
  "4004": "65747",
  "4005": "0053797374656",
  "4006": "27475616c",
  "4007": "260100",
  "4008": "0061006c00",
  "4009": "0b0b",
  "4010": "6101",
  "4011": "14f",
  "4012": "0606",
  "4013": "0411",
  "4014": "0713",
  "4015": "2342",
  "4016": "a2b2",
  "4017": "a3d2",
  "4018": "8493",
  "4019": "0805",
  "4020": "01bf",
  "4021": "6e77",
  "4022": "ae6b",
  "4023": "9fcb",
  "4024": "dc14",
  "4025": "904f",
  "4026": "cc24",
  "4027": "d6e7",
  "4028": "de03",
  "4029": "bfcc",
  "4030": "98c7",
  "4031": "c323",
  "4032": "a991",
  "4033": "a9d1",
  "4034": "5055",
  "4035": "58b1",
  "4036": "b471",
  "4037": "dad7",
  "4038": "5c55",
  "4039": "b5c1",
  "4040": "84b2",
  "4041": "245b",
  "4042": "0392",
  "4043": "b355",
  "4044": "6e14",
  "4045": "5051",
  "4046": "b956",
  "4047": "81d7",
  "4048": "b7be",
  "4049": "b728",
  "4050": "a7c4",
  "4051": "5a67",
  "4052": "936e",
  "4053": "dfc7",
  "4054": "6207",
  "4055": "99bf",
  "4056": "bc53",
  "4057": "6b0b",
  "4058": "5583",
  "4059": "c46e",
  "4060": "b32c",
  "4061": "db52",
  "4062": "620f",
  "4063": "c2c7",
  "4064": "95d3",
  "4065": "6e58",
  "4066": "9a52",
  "4067": "a8ef",
  "4068": "228e",
  "4069": "dfd2",
  "4070": "5866",
  "4071": "95cf",
  "4072": "17b7",
  "4073": "e49e",
  "4074": "abdb",
  "4075": "939f",
  "4076": "56b",
  "4077": "bc91",
  "4078": "60a7",
  "4079": "a1bf",
  "4080": "05cf",
  "4081": "020f",
  "4082": "59a3",
  "4083": "a652",
  "4084": "de24",
  "4085": "a0d3",
  "4086": "b4a8",
  "4087": "6767",
  "4088": "d5b3",
  "4089": "cf4f",
  "4090": "9355",
  "4091": "8d63",
  "4092": "9b55",
  "4093": "5b54",
  "4094": "8b92",
  "4095": "1f0f",
  "4096": "2f3f",
  "4097": "8055",
  "4098": "87c3",
  "4099": "d09b",
  "4100": "aaef",
  "4101": "8fb2",
  "4102": "c41f",
  "4103": "92dc",
  "4104": "1fc2",
  "4105": "dfb7",
  "4106": "6eae",
  "4107": "9524",
  "4108": "5834",
  "4109": "52c3",
  "4110": "bf18",
  "4111": "d69e",
  "4112": "abae",
  "4113": "244c",
  "4114": "82ac",
  "4115": "6fa2",
  "4116": "bab4",
  "4117": "d0a4",
  "4118": "dba5",
  "4119": "b3d4",
  "4120": "5507",
  "4121": "5291",
  "4122": "c903",
  "4123": "98b2",
  "4124": "81bf",
  "4125": "efbe",
  "4126": "580e",
  "4127": "7b7",
  "4128": "2d3",
  "4129": "fae",
  "4130": "11ab",
  "4131": "ac9b",
  "4132": "a9e1",
  "4133": "88f4",
  "4134": "9cb6",
  "4135": "8eb2",
  "4136": "71ef",
  "4137": "8e14",
  "4138": "b727",
  "4139": "2ee",
  "4140": "dbde",
  "4141": "aac1",
  "4142": "ada8",
  "4143": "af17",
  "4144": "5586",
  "4145": "8331",
  "4146": "0253",
  "4147": "3746",
  "4148": "01e3",
  "4149": "95c7",
  "4150": "ae78",
  "4151": "b9b1",
  "4152": "b3e4",
  "4153": "b5b1",
  "4154": "aac2",
  "4155": "9b5c",
  "4156": "5bd3",
  "4157": "a3a2",
  "4158": "695b",
  "4159": "80a4",
  "4160": "5432",
  "4161": "92af",
  "4162": "0fcf",
  "4163": "aae4",
  "4164": "d8a1",
  "4165": "617b",
  "4166": "afe3",
  "4167": "9024",
  "4168": "a591",
  "4169": "81aa",
  "4170": "dddf",
  "4171": "d3aa",
  "4172": "554f",
  "4173": "c4a3",
  "4174": "34b2",
  "4175": "9b50",
  "4176": "5434",
  "4177": "0267",
  "4178": "a4de",
  "4179": "230e",
  "4180": "a983",
  "4181": "a801",
  "4182": "969f",
  "4183": "db2f",
  "4184": "6ea3",
  "4185": "91b2",
  "4186": "8237",
  "4187": "6651",
  "4188": "9e33",
  "4189": "c252",
  "4190": "a653",
  "4191": "d474",
  "4192": "b9d3",
  "4193": "95c3",
  "4194": "c434",
  "4195": "a6b7",
  "4196": "daef",
  "4197": "bbcf",
  "4198": "93e1",
  "4199": "92a1",
  "4200": "9cb3",
  "4201": "63e4",
  "4202": "fd63",
  "4203": "6fcf",
  "4204": "9181",
  "4205": "b924",
  "4206": "9ab2",
  "4207": "04d7",
  "4208": "ab17",
  "4209": "800f",
  "4210": "23cc",
  "4211": "9272",
  "4212": "c374",
  "4213": "8b51",
  "4214": "dc96",
  "4215": "bd55",
  "4216": "0891",
  "4217": "01c7",
  "4218": "08dc",
  "4219": "50ab",
  "4220": "2ac4",
  "4221": "6d61",
  "4222": "a927",
  "4223": "59a7",
  "4224": "d3f4",
  "4225": "6114",
  "4226": "2fa4",
  "4227": "c2d3",
  "4228": "d500",
  "4229": "554c",
  "4230": "5542",
  "4231": "5091",
  "4232": "9456",
  "4233": "8124",
  "4234": "51ef",
  "4235": "ae7e",
  "4236": "0406",
  "4237": "5c61",
  "4238": "b2c7",
  "4239": "1e0f",
  "4240": "c327",
  "4241": "21a4",
  "4242": "a651",
  "4243": "c282",
  "4244": "d6be",
  "4245": "5544",
  "4246": "8cc3",
  "4247": "d0ae",
  "4248": "ada7",
  "4249": "5f4f",
  "4250": "db6d",
  "4251": "6d57",
  "4252": "8fa1",
  "4253": "0ace",
  "4254": "0082",
  "4255": "9abe",
  "4256": "ccb2",
  "4257": "0e7f",
  "4258": "b0c1",
  "4259": "8fc3",
  "4260": "9473",
  "4261": "cfa7",
  "4262": "5867",
  "4263": "5981",
  "4264": "676e",
  "4265": "4e1",
  "4266": "db82",
  "4267": "dc12",
  "4268": "b827",
  "4269": "9e0b",
  "4270": "d867",
  "4271": "9854",
  "4272": "9d63",
  "4273": "fc3",
  "4274": "0fc2",
  "4275": "a212",
  "4276": "5572",
  "4277": "62e3",
  "4278": "d76f",
  "4279": "6cd2",
  "4280": "8da2",
  "4281": "8a97",
  "4282": "14b3",
  "4283": "66a4",
  "4284": "b49f",
  "4285": "01127",
  "4286": "2a3",
  "4287": "6fa8",
  "4288": "0ed2",
  "4289": "ac58",
  "4290": "d314",
  "4291": "b8a8",
  "4292": "1da4",
  "4293": "c411",
  "4294": "d2d1",
  "4295": "9b57",
  "4296": "9e28",
  "4297": "631c",
  "4298": "039f",
  "4299": "3fcb",
  "4300": "dfab",
  "4301": "d554",
  "4302": "dba8",
  "4303": "de0f",
  "4304": "dc53",
  "4305": "941f",
  "4306": "86bf",
  "4307": "0201",
  "4308": "23fe",
  "4309": "676f",
  "4310": "5fff00",
  "4311": "51b4",
  "4312": "bfe9",
  "4313": "c927",
  "4314": "9e98",
  "4315": "d5d1",
  "4316": "8561",
  "4317": "2354",
  "4318": "946e",
  "4319": "2a24",
  "4320": "82af",
  "4321": "95b1",
  "4322": "5534",
  "4323": "6256",
  "4324": "4f6f",
  "4325": "588e",
  "4326": "df64",
  "4327": "ef85",
  "4328": "b1cf",
  "4329": "9296",
  "4330": "e54",
  "4331": "91aa",
  "4332": "63a7",
  "4333": "8edf",
  "4334": "504f",
  "4335": "a293",
  "4336": "af4f",
  "4337": "57f4",
  "4338": "d141",
  "4339": "1fa4",
  "4340": "53ef",
  "4341": "56e7",
  "4342": "0373",
  "4343": "9a62",
  "4344": "9ad7",
  "4345": "b28e",
  "4346": "8693",
  "4347": "a2f1",
  "4348": "1fe7",
  "4349": "9031",
  "4350": "6351",
  "4351": "52aa",
  "4352": "92e7",
  "4353": "e1f",
  "4354": "e7d7",
  "4355": "ba02",
  "4356": "9c65",
  "4357": "cf7e",
  "4358": "acd2",
  "4359": "990c",
  "4360": "303",
  "4361": "dadc",
  "4362": "f97",
  "4363": "dd00",
  "4364": "e782",
  "4365": "8ab2",
  "4366": "8da7",
  "4367": "9593",
  "4368": "af13",
  "4369": "6894",
  "4370": "d1b7",
  "4371": "5662",
  "4372": "dac4",
  "4373": "d73c",
  "4374": "5a47",
  "4375": "5fbf",
  "4376": "9b62",
  "4377": "6e2f",
  "4378": "5203",
  "4379": "d16b",
  "4380": "abb3",
  "4381": "8267",
  "4382": "55e7",
  "4383": "04c7",
  "4384": "b29e",
  "4385": "8e11",
  "4386": "a5b4",
  "4387": "0564",
  "4388": "9fd1",
  "4389": "9632",
  "4390": "b9a3",
  "4391": "5751",
  "4392": "0e47",
  "4393": "8f33",
  "4394": "570e",
  "4395": "a8b1",
  "4396": "5767",
  "4397": "befe",
  "4398": "90d1",
  "4399": "6fcb",
  "4400": "99a4",
  "4401": "569e",
  "4402": "9351",
  "4403": "5752",
  "4404": "cf5f",
  "4405": "048e",
  "4406": "a857",
  "4407": "87f1",
  "4408": "660e",
  "4409": "9aa2",
  "4410": "cf54",
  "4411": "91b1",
  "4412": "6796",
  "4413": "04fe",
  "4414": "b064",
  "4415": "f10f",
  "4416": "dc61",
  "4417": "505c",
  "4418": "9852",
  "4419": "5f4c",
  "4420": "0c8e",
  "4421": "0da7",
  "4422": "669e",
  "4423": "552c",
  "4424": "2396",
  "4425": "186",
  "4426": "e403",
  "4427": "b1c2",
  "4428": "022c",
  "4429": "5777",
  "4430": "a5ab",
  "4431": "ad58",
  "4432": "ea7",
  "4433": "8c54",
  "4434": "d800",
  "4435": "82c1",
  "4436": "63e7",
  "4437": "dbaf",
  "4438": "8f2e",
  "4439": "03b8",
  "4440": "198e",
  "4441": "9b00",
  "4442": "12d3",
  "4443": "94de",
  "4444": "ac53",
  "4445": "5f56",
  "4446": "6fbf",
  "4447": "5b53",
  "4448": "0127",
  "4449": "dc47",
  "4450": "c4cf",
  "4451": "9ab3",
  "4452": "d89f",
  "4453": "da00",
  "4454": "a98e",
  "4455": "a9b3",
  "4456": "a9bc",
  "4457": "2ae",
  "4458": "6193",
  "4459": "e777",
  "4460": "b4b1",
  "4461": "af5e",
  "4462": "9653",
  "4463": "a4d1",
  "4464": "8cf4",
  "4465": "5c5f",
  "4466": "5654",
  "4467": "6fe4",
  "4468": "be33",
  "4469": "5451",
  "4470": "b8c7",
  "4471": "2124",
  "4472": "9b02",
  "4473": "d18e",
  "4474": "1e00",
  "4475": "98a4",
  "4476": "ad86",
  "4477": "a024",
  "4478": "92a5",
  "4479": "d564",
  "4480": "6b6e",
  "4481": "2b2",
  "4482": "8563",
  "4483": "6a63",
  "4484": "6594",
  "4485": "0cc4",
  "4486": "2366",
  "4487": "d2dd",
  "4488": "a392",
  "4489": "a847",
  "4490": "b35b",
  "4491": "e48e",
  "4492": "cf0",
  "4493": "a377",
  "4494": "68aa",
  "4495": "aea2",
  "4496": "ed7",
  "4497": "6f31",
  "4498": "253",
  "4499": "2301",
  "4500": "cbbf",
  "4501": "18d2",
  "4502": "c1bf",
  "4503": "b900",
  "4504": "4624",
  "4505": "648c",
  "4506": "a8d8",
  "4507": "a6ad",
  "4508": "8192",
  "4509": "d694",
  "4510": "a78f",
  "4511": "5963",
  "4512": "d3d2",
  "4513": "92a4",
  "4514": "da56",
  "4515": "090c",
  "4516": "df5e",
  "4517": "de9f",
  "4518": "da0e",
  "4519": "94b7",
  "4520": "c462",
  "4521": "b506",
  "4522": "ba67",
  "4523": "9f24",
  "4524": "5d94",
  "4525": "81ef",
  "4526": "acae",
  "4527": "8462",
  "4528": "ac31",
  "4529": "8e0",
  "4530": "d3c2",
  "4531": "b491",
  "4532": "9eb2",
  "4533": "2b4",
  "4534": "8661",
  "4535": "d655",
  "4536": "9232",
  "4537": "8f6f",
  "4538": "d8df",
  "4539": "01e4",
  "4540": "8f6c",
  "4541": "0e87",
  "4542": "ceef",
  "4543": "5fa7",
  "4544": "81f2",
  "4545": "571c",
  "4546": "8ee4",
  "4547": "dd0f",
  "4548": "5daa",
  "4549": "2d00",
  "4550": "a757",
  "4551": "08b3",
  "4552": "46b2",
  "4553": "b4de",
  "4554": "5591",
  "4555": "8e28",
  "4556": "b7b1",
  "4557": "a668",
  "4558": "d563",
  "4559": "1aa",
  "4560": "de52",
  "4561": "d1d1",
  "4562": "5b6",
  "4563": "de01",
  "4564": "18dc",
  "4565": "ab91",
  "4566": "adc7",
  "4567": "03f7",
  "4568": "61be",
  "4569": "9e93",
  "4570": "b800",
  "4571": "4103",
  "4572": "9694",
  "4573": "b8c3",
  "4574": "a486",
  "4575": "de2f",
  "4576": "a412",
  "4577": "18f",
  "4578": "5596",
  "4579": "a8de",
  "4580": "dec3",
  "4581": "9e78",
  "4582": "27a7",
  "4583": "aab1",
  "4584": "58c8",
  "4585": "d39f",
  "4586": "bab3",
  "4587": "a582",
  "4588": "a901",
  "4589": "a064",
  "4590": "a2b3",
  "4591": "df9e",
  "4592": "c9a8",
  "4593": "a996",
  "4594": "2d2",
  "4595": "8fe3",
  "4596": "d287",
  "4597": "c024",
  "4598": "d471",
  "4599": "5791",
  "4600": "f2e4",
  "4601": "4f54",
  "4602": "0e07",
  "4603": "93fe",
  "4604": "6e42",
  "4605": "25a2",
  "4606": "c152",
  "4607": "acac",
  "4608": "919b",
  "4609": "5275",
  "4610": "c719",
  "4611": "f1c4",
  "4612": "a5df",
  "4613": "0302",
  "4614": "ba23",
  "4615": "5243",
  "4616": "b703",
  "4617": "2e3",
  "4618": "d144",
  "4619": "7f51",
  "4620": "6eb7",
  "4621": "2451",
  "4622": "c952",
  "4623": "cedc",
  "4624": "07cf",
  "4625": "6f5e",
  "4626": "82b2",
  "4627": "c1c",
  "4628": "6e71",
  "4629": "232c",
  "4630": "c6c4",
  "4631": "db63",
  "4632": "d0c2",
  "4633": "6fce",
  "4634": "f353",
  "4635": "bc00",
  "4636": "6884",
  "4637": "96c6",
  "4638": "68b6",
  "4639": "a5d1",
  "4640": "d8c7",
  "4641": "d1c3",
  "4642": "27a1",
  "4643": "9217",
  "4644": "8852",
  "4645": "0724",
  "4646": "8f63",
  "4647": "552d",
  "4648": "52fe",
  "4649": "d2c3",
  "4650": "0c63",
  "4651": "a7f4",
  "4652": "e9df",
  "4653": "2496",
  "4654": "9655",
  "4655": "cd6e",
  "4656": "69ac",
  "4657": "c1c1",
  "4658": "9492",
  "4659": "6327",
  "4660": "c13c",
  "4661": "07db",
  "4662": "8742",
  "4663": "cf04",
  "4664": "9e31",
  "4665": "0ad7",
  "4666": "dc6e",
  "4667": "5174",
  "4668": "dfcb",
  "4669": "3c1",
  "4670": "818e",
  "4671": "dfcf",
  "4672": "aca1",
  "4673": "2327",
  "4674": "515b",
  "4675": "9ba7",
  "4676": "d90c",
  "4677": "0500",
  "4678": "05b7",
  "4679": "738e",
  "4680": "1c81",
  "4681": "be7f",
  "4682": "dee1",
  "4683": "9958",
  "4684": "2fc",
  "4685": "8371",
  "4686": "347",
  "4687": "cfa3",
  "4688": "14d2",
  "4689": "dc54",
  "4690": "dc11",
  "4691": "9b5b",
  "4692": "a664",
  "4693": "b31f",
  "4694": "972f",
  "4695": "6f6f",
  "4696": "8f1f",
  "4697": "01f2",
  "4698": "8451",
  "4699": "a3a7",
  "4700": "a1d3",
  "4701": "51d3",
  "4702": "c2b2",
  "4703": "8383",
  "4704": "a891",
  "4705": "6001",
  "4706": "93d7",
  "4707": "db8b",
  "4708": "5f3f",
  "4709": "ea3",
  "4710": "c75e",
  "4711": "61e3",
  "4712": "aa9e",
  "4713": "b361",
  "4714": "51c",
  "4715": "9f07",
  "4716": "c136",
  "4717": "5d07",
  "4718": "02d2",
  "4719": "a28e",
  "4720": "ae96",
  "4721": "926e",
  "4722": "e300",
  "4723": "756",
  "4724": "8d55",
  "4725": "e3d4",
  "4726": "3fc3",
  "4727": "26f",
  "4728": "c1e3",
  "4729": "a46f",
  "4730": "036e",
  "4731": "ab58",
  "4732": "05c2",
  "4733": "9184",
  "4734": "300",
  "4735": "d7f7",
  "4736": "a3ac",
  "4737": "a0bf",
  "4738": "df68",
  "4739": "5ea4",
  "4740": "0412",
  "4741": "9eb4",
  "4742": "5c62",
  "4743": "a2b6",
  "4744": "a3ae",
  "4745": "6e62",
  "4746": "013c",
  "4747": "a1a6",
  "4748": "8d5e",
  "4749": "da23",
  "4750": "39c7",
  "4751": "e9d7",
  "4752": "afd3",
  "4753": "59e3",
  "4754": "033f",
  "4755": "548f",
  "4756": "1fc7",
  "4757": "20e",
  "4758": "14b2",
  "4759": "9182",
  "4760": "da5b",
  "4761": "5374",
  "4762": "58595",
  "4763": "e003",
  "4764": "2cb4",
  "4765": "92e4",
  "4766": "d73e",
  "4767": "0000001",
  "4768": "616e64",
  "4769": "616e646172",
  "4770": "00610072",
  "4771": "d3a4",
  "4772": "8c81",
  "4773": "9e01",
  "4774": "cfdf",
  "4775": "078f",
  "4776": "93d1",
  "4777": "9c71",
  "4778": "00700",
  "4779": "de00",
  "4780": "9193",
  "4781": "ef9f",
  "4782": "230c",
  "4783": "824f",
  "4784": "924c",
  "4785": "b4f4",
  "4786": "0718",
  "4787": "a09a",
  "4788": "696e",
  "4789": "7700",
  "4790": "0a02037d",
  "4791": "0e0b0600",
  "4792": "9e0c4900",
  "4793": "001a00",
  "4794": "36f6e74726f6c4",
  "4795": "48616e646c",
  "4796": "3736167",
  "4797": "6b5f5f4261636b696e674669656c64003c4",
  "4798": "6174696f6e",
  "4799": "06f73",
  "4800": "17373656d62",
  "4801": "17373656d626c7",
  "4802": "007365745f",
  "4803": "51280b901",
  "4804": "51280b9011280b",
  "4805": "0000000000000000000000000000000000000000000000000000000000000000000000000000000000000000000000000000000000000000000000000000000000000000000000000000000000000000000000000000000000000000000000000000000000000000000000000000000000000000000000000000000000000000",
  "4806": "0800",
  "4807": "b1c1",
  "4808": "443",
  "4809": "c2f1",
  "4810": "8263",
  "4811": "52f1",
  "4812": "d207",
  "4813": "1892",
  "4814": "e58f",
  "4815": "1692",
  "4816": "9dd2",
  "4817": "9371",
  "4818": "db11",
  "4819": "23d2",
  "4820": "5766",
  "4821": "d3a2",
  "4822": "5396",
  "4823": "c197",
  "4824": "d531",
  "4825": "6f51",
  "4826": "6b5e",
  "4827": "9ef7",
  "4828": "02f7",
  "4829": "6100",
  "4830": "df34",
  "4831": "538",
  "4832": "d994",
  "4833": "a38",
  "4834": "153",
  "4835": "585a",
  "4836": "5200",
  "4837": "5463",
  "4838": "5214",
  "4839": "c2d1",
  "4840": "a5be",
  "4841": "b13f",
  "4842": "1293",
  "4843": "d7c4",
  "4844": "9951",
  "4845": "4654",
  "4846": "8f12",
  "4847": "86d3",
  "4848": "b8dc",
  "4849": "6c01",
  "4850": "e7a1",
  "4851": "ba06",
  "4852": "8777",
  "4853": "565c",
  "4854": "a337",
  "4855": "06e7",
  "4856": "57d3",
  "4857": "8134",
  "4858": "f3e",
  "4859": "cf6",
  "4860": "5657",
  "4861": "9e58",
  "4862": "5047",
  "4863": "ad07",
  "4864": "6fef",
  "4865": "726e",
  "4866": "0014",
  "4867": "5473",
  "4868": "041c",
  "4869": "dc15",
  "4870": "8123",
  "4871": "a5b3",
  "4872": "d89e",
  "4873": "d49b",
  "4874": "acaf",
  "4875": "b431",
  "4876": "6e2e",
  "4877": "9986",
  "4878": "7e4f",
  "4879": "9f4c",
  "4880": "0ea6",
  "4881": "0567",
  "4882": "90de",
  "4883": "ae2e",
  "4884": "b35c",
  "4885": "0854",
  "4886": "6ee3",
  "4887": "8e8c",
  "4888": "03bb",
  "4889": "0f52",
  "4890": "d33b",
  "4891": "a9ac",
  "4892": "c738",
  "4893": "63cb",
  "4894": "0ca4",
  "4895": "6dd7",
  "4896": "a191",
  "4897": "0358",
  "4898": "63d1",
  "4899": "acb1",
  "4900": "dea4",
  "4901": "ad61",
  "4902": "5ef7",
  "4903": "69f4",
  "4904": "a9c1",
  "4905": "d15e",
  "4906": "9ee1",
  "4907": "d507",
  "4908": "beff",
  "4909": "0ef2",
  "4910": "e182",
  "4911": "6c07",
  "4912": "bf04",
  "4913": "9122",
  "4914": "6dc1",
  "4915": "5ec4",
  "4916": "0c31",
  "4917": "255",
  "4918": "a16f",
  "4919": "95a3",
  "4920": "b3c",
  "4921": "dd92",
  "4922": "98d2",
  "4923": "5721",
  "4924": "df24",
  "4925": "bdd4",
  "4926": "585c",
  "4927": "dca4",
  "4928": "8c0f",
  "4929": "65b4",
  "4930": "56d2",
  "4931": "5cbe",
  "4932": "b71e",
  "4933": "cfe5f",
  "4934": "7e04",
  "4935": "a3a4",
  "4936": "a6c7",
  "4937": "880c",
  "4938": "a8c4",
  "4939": "2374",
  "4940": "5404",
  "4941": "9437",
  "4942": "9cdf",
  "4943": "c161",
  "4944": "a83f",
  "4945": "8181",
  "4946": "a8bf",
  "4947": "0355",
  "4948": "b494",
  "4949": "0984",
  "4950": "1288",
  "4951": "2dc7",
  "4952": "54aa",
  "4953": "34a8",
  "4954": "d801",
  "4955": "005b",
  "4956": "f2c3",
  "4957": "8daa",
  "4958": "54c3",
  "4959": "2187",
  "4960": "b862",
  "4961": "0de4",
  "4962": "e78b",
  "4963": "89a1",
  "4964": "c718",
  "4965": "cab3",
  "4966": "d223",
  "4967": "8453",
  "4968": "d2d2",
  "4969": "2444",
  "4970": "98bc",
  "4971": "9ab1",
  "4972": "def8",
  "4973": "aec4",
  "4974": "7d07",
  "4975": "c187",
  "4976": "2397",
  "4977": "961f",
  "4978": "64a8",
  "4979": "a6e3",
  "4980": "016f",
  "4981": "b457",
  "4982": "2c4",
  "4983": "d092",
  "4984": "03a7",
  "4985": "9d92",
  "4986": "a70b",
  "4987": "e302",
  "4988": "d3c8",
  "4989": "9062",
  "4990": "8e53",
  "4991": "b6b7",
  "4992": "5334",
  "4993": "b2bc",
  "4994": "8277",
  "4995": "9153",
  "4996": "c708",
  "4997": "e0af",
  "4998": "ee92",
  "4999": "016b",
  "5000": "b1b8",
  "5001": "cca4",
  "5002": "dd6e",
  "5003": "aa83",
  "5004": "a4b2",
  "5005": "698e",
  "5006": "553f",
  "5007": "cf11",
  "5008": "8137",
  "5009": "cea4",
  "5010": "6eb8",
  "5011": "5ac3",
  "5012": "ad67",
  "5013": "1c64",
  "5014": "b762",
  "5015": "11b",
  "5016": "d46f",
  "5017": "6cc",
  "5018": "5597",
  "5019": "af57",
  "5020": "86a7",
  "5021": "8332",
  "5022": "87ed",
  "5023": "c121",
  "5024": "b88e",
  "5025": "61ef",
  "5026": "a332",
  "5027": "c4c2",
  "5028": "dc9e",
  "5029": "acb2",
  "5030": "bee3",
  "5031": "675f",
  "5032": "938c",
  "5033": "96a1",
  "5034": "2cd1",
  "5035": "88de",
  "5036": "c094",
  "5037": "e6c",
  "5038": "61d7",
  "5039": "06a3",
  "5040": "6444",
  "5041": "d5d9",
  "5042": "24de",
  "5043": "6823",
  "5044": "ccaa",
  "5045": "9cc2",
  "5046": "998e",
  "5047": "aac8",
  "5048": "a269",
  "5049": "84c3",
  "5050": "5ebf",
  "5051": "d1c8",
  "5052": "6e3f",
  "5053": "8fe1",
  "5054": "b74c",
  "5055": "c482",
  "5056": "1137",
  "5057": "c0f3",
  "5058": "606f",
  "5059": "db02",
  "5060": "249b",
  "5061": "08a7",
  "5062": "2907",
  "5063": "c804",
  "5064": "6f84",
  "5065": "d888",
  "5066": "5cdb",
  "5067": "6592",
  "5068": "3b3",
  "5069": "ad54",
  "5070": "5784",
  "5071": "87e1",
  "5072": "c481",
  "5073": "d39e",
  "5074": "7faf",
  "5075": "c1c8",
  "5076": "34a4",
  "5077": "6371",
  "5078": "637e",
  "5079": "811f",
  "5080": "9814",
  "5081": "85a2",
  "5082": "d124",
  "5083": "9261",
  "5084": "6fd7",
  "5085": "cb52",
  "5086": "99be",
  "5087": "0d54",
  "5088": "9ac3",
  "5089": "b124",
  "5090": "d741",
  "5091": "abd4",
  "5092": "d443",
  "5093": "90d2",
  "5094": "52b4",
  "5095": "d573",
  "5096": "7201",
  "5097": "aa79",
  "5098": "0bc2",
  "5099": "b582",
  "5100": "9081",
  "5101": "4e83",
  "5102": "820f",
  "5103": "9333",
  "5104": "761",
  "5105": "8037",
  "5106": "626e",
  "5107": "0867",
  "5108": "0893",
  "5109": "912c",
  "5110": "5754",
  "5111": "b5d7",
  "5112": "9e87",
  "5113": "8d51",
  "5114": "0027",
  "5115": "c7ff00",
  "5116": "add6",
  "5117": "a958",
  "5118": "190f",
  "5119": "9554",
  "5120": "d282",
  "5121": "de14",
  "5122": "8f44",
  "5123": "afd7",
  "5124": "d2c1",
  "5125": "6377",
  "5126": "0c83",
  "5127": "9561",
  "5128": "1ee7",
  "5129": "9c9c",
  "5130": "d256",
  "5131": "e5dc",
  "5132": "ebdf",
  "5133": "d5b1",
  "5134": "35d4",
  "5135": "b1f4",
  "5136": "819e",
  "5137": "61f4",
  "5138": "b48e",
  "5139": "5658",
  "5140": "6fc1",
  "5141": "d447",
  "5142": "616",
  "5143": "82aa",
  "5144": "a4f2",
  "5145": "9f32",
  "5146": "dcc6",
  "5147": "aa81",
  "5148": "defc",
  "5149": "02aa",
  "5150": "9444",
  "5151": "98c1",
  "5152": "c907",
  "5153": "91ff00",
  "5154": "dc5f",
  "5155": "6d56",
  "5156": "6655",
  "5157": "8e7f",
  "5158": "06f7",
  "5159": "59a9",
  "5160": "d0d1",
  "5161": "fb8f",
  "5162": "cf97",
  "5163": "e43f",
  "5164": "c4f1",
  "5165": "29a4",
  "5166": "56de",
  "5167": "8c24",
  "5168": "0ea2",
  "5169": "0c07",
  "5170": "db04",
  "5171": "012c",
  "5172": "17b2",
  "5173": "da63",
  "5174": "2c00",
  "5175": "57cc",
  "5176": "a73f",
  "5177": "d7ae",
  "5178": "9612",
  "5179": "5d57",
  "5180": "b1d1",
  "5181": "5faf",
  "5182": "0eb4",
  "5183": "b687",
  "5184": "ae98",
  "5185": "c7f0",
  "5186": "8cc7",
  "5187": "da64",
  "5188": "90c7",
  "5189": "d30f",
  "5190": "ae4e",
  "5191": "edf",
  "5192": "cee1",
  "5193": "cfe3",
  "5194": "a1e4",
  "5195": "0364",
  "5196": "6798",
  "5197": "d45b",
  "5198": "9281",
  "5199": "d79b",
  "5200": "707",
  "5201": "b1bf",
  "5202": "5e9f",
  "5203": "6412",
  "5204": "6c0f",
  "5205": "aeed",
  "5206": "a662",
  "5207": "b6b6",
  "5208": "df52",
  "5209": "b243",
  "5210": "dfb",
  "5211": "2bc",
  "5212": "b901",
  "5213": "6cb5",
  "5214": "4a8",
  "5215": "23c",
  "5216": "d053",
  "5217": "9d67",
  "5218": "d4db",
  "5219": "9562",
  "5220": "8296",
  "5221": "156",
  "5222": "48c1",
  "5223": "6262",
  "5224": "9904",
  "5225": "0388",
  "5226": "c2f7",
  "5227": "a78c",
  "5228": "6772",
  "5229": "2ca4",
  "5230": "a68f",
  "5231": "999e",
  "5232": "91db",
  "5233": "03df",
  "5234": "041e",
  "5235": "94f4",
  "5236": "01d4",
  "5237": "92a3",
  "5238": "8254",
  "5239": "0dc7",
  "5240": "a234",
  "5241": "3cd3",
  "5242": "0804",
  "5243": "a2f0",
  "5244": "a6b1",
  "5245": "212",
  "5246": "3692",
  "5247": "0f00",
  "5248": "b4f1",
  "5249": "923f",
  "5250": "dcb",
  "5251": "6c84",
  "5252": "104",
  "5253": "a501",
  "5254": "d4bc",
  "5255": "8f4f",
  "5256": "9e5c",
  "5257": "690b",
  "5258": "b052",
  "5259": "7cde",
  "5260": "c11e",
  "5261": "ad57",
  "5262": "b8b8",
  "5263": "6baa",
  "5264": "935b",
  "5265": "a9a1",
  "5266": "a3b7",
  "5267": "6c96",
  "5268": "0f04",
  "5269": "8e9f",
  "5270": "5081",
  "5271": "cf71",
  "5272": "5411",
  "5273": "2f24",
  "5274": "cd55",
  "5275": "5aef",
  "5276": "c5b4",
  "5277": "a66c",
  "5278": "5896",
  "5279": "dc03",
  "5280": "0b55",
  "5281": "5b93",
  "5282": "aa66",
  "5283": "25be",
  "5284": "c37e",
  "5285": "989e",
  "5286": "32d4",
  "5287": "c6a1",
  "5288": "4d94",
  "5289": "0782",
  "5290": "a908",
  "5291": "6103",
  "5292": "67cb",
  "5293": "eb2",
  "5294": "afa8",
  "5295": "07a8",
  "5296": "0fa7",
  "5297": "8b73",
  "5298": "62a1",
  "5299": "9a54",
  "5300": "05ae",
  "5301": "65d4",
  "5302": "87aa",
  "5303": "d7b1",
  "5304": "5743",
  "5305": "18e",
  "5306": "0824",
  "5307": "ceae",
  "5308": "99ae",
  "5309": "08db",
  "5310": "1467",
  "5311": "017b",
  "5312": "2eaa",
  "5313": "5063",
  "5314": "5cbf",
  "5315": "2311",
  "5316": "02de",
  "5317": "50b3",
  "5318": "d302",
  "5319": "6f87",
  "5320": "6dd8",
  "5321": "5fc3",
  "5322": "c864",
  "5323": "6faa",
  "5324": "8f3c",
  "5325": "54c1",
  "5326": "23ae",
  "5327": "de27",
  "5328": "1f22",
  "5329": "d9d8",
  "5330": "b761",
  "5331": "ac5b",
  "5332": "029e",
  "5333": "0cb3",
  "5334": "634e",
  "5335": "29a7",
  "5336": "01ce",
  "5337": "6411",
  "5338": "a696",
  "5339": "0e0e",
  "5340": "e703",
  "5341": "58b3",
  "5342": "0fe3",
  "5343": "db4f",
  "5344": "b9ac",
  "5345": "9a53",
  "5346": "8f4e",
  "5347": "82d1",
  "5348": "bd51",
  "5349": "db4e",
  "5350": "923c",
  "5351": "d69",
  "5352": "1c97",
  "5353": "8564",
  "5354": "68b4",
  "5355": "d954",
  "5356": "1b8",
  "5357": "dbbe",
  "5358": "c4a4",
  "5359": "8e38",
  "5360": "b4ff00",
  "5361": "ae24",
  "5362": "b5df",
  "5363": "949c",
  "5364": "5e92",
  "5365": "00e7",
  "5366": "d3d7",
  "5367": "6ed3",
  "5368": "5343",
  "5369": "ccc4",
  "5370": "5481",
  "5371": "aa33",
  "5372": "66b2",
  "5373": "24ee",
  "5374": "55df",
  "5375": "932e",
  "5376": "94a8",
  "5377": "a774",
  "5378": "a18e",
  "5379": "9f5e",
  "5380": "a734",
  "5381": "ad8e",
  "5382": "52cc",
  "5383": "8700",
  "5384": "03ae",
  "5385": "afcc",
  "5386": "d80e",
  "5387": "8a42",
  "5388": "b5b3",
  "5389": "d72e",
  "5390": "0c71",
  "5391": "b2d3",
  "5392": "56d7",
  "5393": "cfa4",
  "5394": "6f6",
  "5395": "0fd3",
  "5396": "51c3",
  "5397": "33c8",
  "5398": "d604",
  "5399": "6596",
  "5400": "cba8",
  "5401": "c17e",
  "5402": "c6bf",
  "5403": "9b64",
  "5404": "23f7",
  "5405": "06b3",
  "5406": "85c3",
  "5407": "6f8e",
  "5408": "732c",
  "5409": "ca54",
  "5410": "91bb",
  "5411": "805c",
  "5412": "55af",
  "5413": "54d6",
  "5414": "6b61",
  "5415": "9764",
  "5416": "b1d2",
  "5417": "a9e4",
  "5418": "dede",
  "5419": "8703",
  "5420": "d802",
  "5421": "1daf",
  "5422": "5349",
  "5423": "b724",
  "5424": "5376",
  "5425": "9984",
  "5426": "cd9",
  "5427": "8fef",
  "5428": "ac74",
  "5429": "6e47",
  "5430": "2309",
  "5431": "5a92",
  "5432": "6c63",
  "5433": "d6f7",
  "5434": "a7f5",
  "5435": "b0c7",
  "5436": "23d1",
  "5437": "6d97",
  "5438": "9797",
  "5439": "a882",
  "5440": "d417",
  "5441": "6b0f",
  "5442": "a2d2",
  "5443": "8e34",
  "5444": "bbb1",
  "5445": "296",
  "5446": "fd3",
  "5447": "0ba8",
  "5448": "dbe1",
  "5449": "81e4",
  "5450": "62ee",
  "5451": "b32f",
  "5452": "58d2",
  "5453": "b796",
  "5454": "5f32",
  "5455": "9164",
  "5456": "5482",
  "5457": "8ea1",
  "5458": "93a1",
  "5459": "c734",
  "5460": "b163",
  "5461": "5a5b",
  "5462": "9f63",
  "5463": "b737",
  "5464": "a3f4",
  "5465": "b492",
  "5466": "a592",
  "5467": "6364",
  "5468": "aa97",
  "5469": "bc83",
  "5470": "d501",
  "5471": "9495",
  "5472": "155",
  "5473": "bee7",
  "5474": "149b",
  "5475": "d4d2",
  "5476": "0f27",
  "5477": "907f",
  "5478": "2bb",
  "5479": "91c6",
  "5480": "291",
  "5481": "ab8e",
  "5482": "d4f9",
  "5483": "e463",
  "5484": "d244",
  "5485": "ee53",
  "5486": "22c4",
  "5487": "06d4",
  "5488": "76df",
  "5489": "2431",
  "5490": "8a9e",
  "5491": "0e3e",
  "5492": "5d0e",
  "5493": "90b2",
  "5494": "86b2",
  "5495": "2455",
  "5496": "02b54",
  "5497": "b64f",
  "5498": "58a3",
  "5499": "a463",
  "5500": "d2be",
  "5501": "9d4f",
  "5502": "934f",
  "5503": "d4ac",
  "5504": "ae37",
  "5505": "08d1",
  "5506": "af46",
  "5507": "578f",
  "5508": "a488",
  "5509": "9152",
  "5510": "ab6e",
  "5511": "59ce",
  "5512": "4951",
  "5513": "8fcc",
  "5514": "3494",
  "5515": "53e4",
  "5516": "df9f",
  "5517": "a854",
  "5518": "94d4",
  "5519": "8d94",
  "5520": "94f1",
  "5521": "55f3",
  "5522": "0c64",
  "5523": "ebbe",
  "5524": "a95c",
  "5525": "cfb3",
  "5526": "acbe",
  "5527": "4f24",
  "5528": "c3ef",
  "5529": "b9a4",
  "5530": "02c3",
  "5531": "671c",
  "5532": "ac2f",
  "5533": "6f6e",
  "5534": "06d3",
  "5535": "b53e",
  "5536": "8374",
  "5537": "b313",
  "5538": "bb57",
  "5539": "ef73",
  "5540": "e382",
  "5541": "01c8",
  "5542": "b1a3",
  "5543": "fab3",
  "5544": "b8b2",
  "5545": "ce92",
  "5546": "03d4",
  "5547": "b95f",
  "5548": "0901",
  "5549": "a8af",
  "5550": "83f7",
  "5551": "8e32",
  "5552": "837e",
  "5553": "009e",
  "5554": "6567",
  "5555": "c212",
  "5556": "8173",
  "5557": "8e24",
  "5558": "cfcc",
  "5559": "51b3",
  "5560": "a4e3",
  "5561": "d78f",
  "5562": "6edc",
  "5563": "c38e",
  "5564": "3607",
  "5565": "62db",
  "5566": "d6e3",
  "5567": "9a9f",
  "5568": "7f7f",
  "5569": "d328",
  "5570": "8b82",
  "5571": "6924",
  "5572": "24f7",
  "5573": "d70f",
  "5574": "252",
  "5575": "673f",
  "5576": "0807",
  "5577": "a391",
  "5578": "0363",
  "5579": "b9df",
  "5580": "4cdb",
  "5581": "7764",
  "5582": "8c9f",
  "5583": "abd2",
  "5584": "a747",
  "5585": "b6d1",
  "5586": "0b03",
  "5587": "99d4",
  "5588": "9c03",
  "5589": "5685",
  "5590": "afb8",
  "5591": "b6db",
  "5592": "a1fb",
  "5593": "f7f",
  "5594": "bad3",
  "5595": "c137",
  "5596": "522c",
  "5597": "cf07",
  "5598": "0e14",
  "5599": "dc6",
  "5600": "4024",
  "5601": "2381",
  "5602": "8d81",
  "5603": "52b7",
  "5604": "d727",
  "5605": "5684",
  "5606": "aaf4",
  "5607": "b5c3",
  "5608": "86a1",
  "5609": "b4f3",
  "5610": "d896",
  "5611": "3fe3",
  "5612": "00a3",
  "5613": "aabe",
  "5614": "873f",
  "5615": "df6c",
  "5616": "927a",
  "5617": "b804",
  "5618": "5b83",
  "5619": "9b74",
  "5620": "ac0f",
  "5621": "263",
  "5622": "57b4",
  "5623": "95a6",
  "5624": "54d7",
  "5625": "6d6e",
  "5626": "a772",
  "5627": "f3f",
  "5628": "d8a9",
  "5629": "1951",
  "5630": "cfe2",
  "5631": "cef7",
  "5632": "976f",
  "5633": "9453",
  "5634": "9e78e",
  "5635": "db1f",
  "5636": "51c1",
  "5637": "d7b",
  "5638": "9768",
  "5639": "554e",
  "5640": "9228",
  "5641": "dc1b",
  "5642": "0b96",
  "5643": "64bc",
  "5644": "8054",
  "5645": "a9c",
  "5646": "ae93",
  "5647": "938e",
  "5648": "526",
  "5649": "1a7",
  "5650": "ac54",
  "5651": "cf3e",
  "5652": "0213",
  "5653": "a993",
  "5654": "a8c2",
  "5655": "803f",
  "5656": "9243",
  "5657": "8736",
  "5658": "6dd3",
  "5659": "2464",
  "5660": "a174",
  "5661": "5aaf",
  "5662": "23b7",
  "5663": "b1f3",
  "5664": "bec3",
  "5665": "2823",
  "5666": "cb04"
}