{
  "0": "\u0000",
  "1": "\u0001",
  "2": "\u0002",
  "3": "\u0003",
  "4": "\u0004",
  "5": "\u0005",
  "6": "\u0006",
  "7": "\u0007",
  "8": "\b",
  "9": "\t",
  "10": "\n",
  "11": "\u000b",
  "12": "\f",
  "13": "\r",
  "14": "\u000e",
  "15": "\u000f",
  "16": "\u0010",
  "17": "\u0011",
  "18": "\u0012",
  "19": "\u0013",
  "20": "\u0014",
  "21": "\u0015",
  "22": "\u0016",
  "23": "\u0017",
  "24": "\u0018",
  "25": "\u0019",
  "26": "\u001a",
  "27": "\u001b",
  "28": "\u001c",
  "29": "\u001d",
  "30": "\u001e",
  "31": "\u001f",
  "32": " ",
  "33": "!",
  "34": "\"",
  "35": "#",
  "36": "$",
  "37": "%",
  "38": "&",
  "39": "'",
  "40": "(",
  "41": ")",
  "42": "*",
  "43": "+",
  "44": ",",
  "45": "-",
  "46": ".",
  "47": "/",
  "48": "0",
  "49": "1",
  "50": "2",
  "51": "3",
  "52": "4",
  "53": "5",
  "54": "6",
  "55": "7",
  "56": "8",
  "57": "9",
  "58": ":",
  "59": ";",
  "60": "<",
  "61": "=",
  "62": ">",
  "63": "?",
  "64": "@",
  "65": "A",
  "66": "B",
  "67": "C",
  "68": "D",
  "69": "E",
  "70": "F",
  "71": "G",
  "72": "H",
  "73": "I",
  "74": "J",
  "75": "K",
  "76": "L",
  "77": "M",
  "78": "N",
  "79": "O",
  "80": "P",
  "81": "Q",
  "82": "R",
  "83": "S",
  "84": "T",
  "85": "U",
  "86": "V",
  "87": "W",
  "88": "X",
  "89": "Y",
  "90": "Z",
  "91": "[",
  "92": "\\",
  "93": "]",
  "94": "^",
  "95": "_",
  "96": "`",
  "97": "a",
  "98": "b",
  "99": "c",
  "100": "d",
  "101": "e",
  "102": "f",
  "103": "g",
  "104": "h",
  "105": "i",
  "106": "j",
  "107": "k",
  "108": "l",
  "109": "m",
  "110": "n",
  "111": "o",
  "112": "p",
  "113": "q",
  "114": "r",
  "115": "s",
  "116": "t",
  "117": "u",
  "118": "v",
  "119": "w",
  "120": "x",
  "121": "y",
  "122": "z",
  "123": "{",
  "124": "|",
  "125": "}",
  "126": "~",
  "127": "",
  "128": "",
  "129": "",
  "130": "",
  "131": "",
  "132": "",
  "133": "",
  "134": "",
  "135": "",
  "136": "",
  "137": "",
  "138": "",
  "139": "",
  "140": "",
  "141": "",
  "142": "",
  "143": "",
  "144": "",
  "145": "",
  "146": "",
  "147": "",
  "148": "",
  "149": "",
  "150": "",
  "151": "",
  "152": "",
  "153": "",
  "154": "",
  "155": "",
  "156": "",
  "157": "",
  "158": "",
  "159": "",
  "160": " ",
  "161": "¡",
  "162": "¢",
  "163": "£",
  "164": "¤",
  "165": "¥",
  "166": "¦",
  "167": "§",
  "168": "¨",
  "169": "©",
  "170": "ª",
  "171": "«",
  "172": "¬",
  "173": "­",
  "174": "®",
  "175": "¯",
  "176": "°",
  "177": "±",
  "178": "²",
  "179": "³",
  "180": "´",
  "181": "µ",
  "182": "¶",
  "183": "·",
  "184": "¸",
  "185": "¹",
  "186": "º",
  "187": "»",
  "188": "¼",
  "189": "½",
  "190": "¾",
  "191": "¿",
  "192": "À",
  "193": "Á",
  "194": "Â",
  "195": "Ã",
  "196": "Ä",
  "197": "Å",
  "198": "Æ",
  "199": "Ç",
  "200": "È",
  "201": "É",
  "202": "Ê",
  "203": "Ë",
  "204": "Ì",
  "205": "Í",
  "206": "Î",
  "207": "Ï",
  "208": "Ð",
  "209": "Ñ",
  "210": "Ò",
  "211": "Ó",
  "212": "Ô",
  "213": "Õ",
  "214": "Ö",
  "215": "×",
  "216": "Ø",
  "217": "Ù",
  "218": "Ú",
  "219": "Û",
  "220": "Ü",
  "221": "Ý",
  "222": "Þ",
  "223": "ß",
  "224": "à",
  "225": "á",
  "226": "â",
  "227": "ã",
  "228": "ä",
  "229": "å",
  "230": "æ",
  "231": "ç",
  "232": "è",
  "233": "é",
  "234": "ê",
  "235": "ë",
  "236": "ì",
  "237": "í",
  "238": "î",
  "239": "ï",
  "240": "ð",
  "241": "ñ",
  "242": "ò",
  "243": "ó",
  "244": "ô",
  "245": "õ",
  "246": "ö",
  "247": "÷",
  "248": "ø",
  "249": "ù",
  "250": "ú",
  "251": "û",
  "252": "ü",
  "253": "ý",
  "254": "þ",
  "255": "ÿ",
  "256": "Ġ",
  "257": "00",
  "258": "0000",
  "259": "01",
  "260": "48",
  "261": "cc",
  "262": "15",
  "263": "02",
  "264": "488",
  "265": "ff",
  "266": "03",
  "267": "0a",
  "268": "04",
  "269": "06",
  "270": "05",
  "271": "12",
  "272": "488b",
  "273": "000000",
  "274": "74",
  "275": "08",
  "276": "cccc",
  "277": "13",
  "278": "65",
  "279": "8b",
  "280": "09",
  "281": "e4",
  "282": "000a",
  "283": "07",
  "284": "00000000",
  "285": "6f",
  "286": "001",
  "287": "3e",
  "288": "ff15",
  "289": "18",
  "290": "72",
  "291": "73",
  "292": "128",
  "293": "004",
  "294": "75",
  "295": "7b",
  "296": "7d",
  "297": "61",
  "298": "92",
  "299": "69",
  "300": "0c",
  "301": "28",
  "302": "0b",
  "303": "003",
  "304": "11",
  "305": "038",
  "306": "55",
  "307": "49",
  "308": "415",
  "309": "6e",
  "310": "3c",
  "311": "2a",
  "312": "6c",
  "313": "63",
  "314": "0100",
  "315": "015",
  "316": "45",
  "317": "23",
  "318": "005",
  "319": "8bf",
  "320": "6d",
  "321": "cccccccc",
  "322": "93",
  "323": "488bf",
  "324": "0488",
  "325": "0500",
  "326": "0f",
  "327": "4c",
  "328": "0e",
  "329": "41",
  "330": "8e4",
  "331": "001000000",
  "332": "0d",
  "333": "038001000000",
  "334": "8e4038001000000",
  "335": "2c",
  "336": "ffff",
  "337": "64",
  "338": "0300",
  "339": "79",
  "340": "15128",
  "341": "0000000000000000",
  "342": "0600",
  "343": "2d",
  "344": "24",
  "345": "dc",
  "346": "14",
  "347": "25",
  "348": "f5",
  "349": "00000a",
  "350": "2b",
  "351": "19",
  "352": "0900",
  "353": "85",
  "354": "027b",
  "355": "35",
  "356": "1d",
  "357": "0200",
  "358": "68",
  "359": "015128",
  "360": "2e",
  "361": "95",
  "362": "488d",
  "363": "300",
  "364": "8a",
  "365": "67",
  "366": "8d",
  "367": "43",
  "368": "6b",
  "369": "1e",
  "370": "4d",
  "371": "1c",
  "372": "1b",
  "373": "16",
  "374": "0488b",
  "375": "04000000",
  "376": "1a",
  "377": "7a",
  "378": "1300",
  "379": "013e",
  "380": "29",
  "381": "118",
  "382": "83",
  "383": "2f",
  "384": "7c",
  "385": "d8",
  "386": "5b",
  "387": "33",
  "388": "7f",
  "389": "62",
  "390": "e8",
  "391": "66",
  "392": "200",
  "393": "7e",
  "394": "05000a",
  "395": "004c",
  "396": "53",
  "397": "010000",
  "398": "02000a",
  "399": "4a",
  "400": "99",
  "401": "c8",
  "402": "6a",
  "403": "fe",
  "404": "04000a",
  "405": "78",
  "406": "04889",
  "407": "3e3e",
  "408": "3b",
  "409": "1f",
  "410": "100",
  "411": "3a",
  "412": "44",
  "413": "01000a",
  "414": "00000000000000000000000000000000",
  "415": "9b",
  "416": "54",
  "417": "f00",
  "418": "dc3",
  "419": "498bf",
  "420": "77",
  "421": "03000a",
  "422": "4015128",
  "423": "de",
  "424": "b8",
  "425": "a2",
  "426": "049",
  "427": "488b7d",
  "428": "ffffff",
  "429": "32",
  "430": "038e4",
  "431": "9c",
  "432": "3d",
  "433": "600",
  "434": "58e4038001000000",
  "435": "58e403800100000058e4038001000000",
  "436": "eb",
  "437": "84",
  "438": "8e40380010000008",
  "439": "4889",
  "440": "040000008",
  "441": "22",
  "442": "488bfb",
  "443": "7465",
  "444": "c3",
  "445": "488bf8",
  "446": "9a",
  "447": "3c4",
  "448": "f3",
  "449": "e415",
  "450": "1301",
  "451": "415e415",
  "452": "55415",
  "453": "f5dc3",
  "454": "17",
  "455": "0ff15",
  "456": "011300",
  "457": "074",
  "458": "be",
  "459": "cccccccccccccccc",
  "460": "0488d",
  "461": "498b",
  "462": "df",
  "463": "93f",
  "464": "ac",
  "465": "101",
  "466": "0400",
  "467": "8e403800100000088e40380010000008",
  "468": "0228",
  "469": "94",
  "470": "0074",
  "471": "52",
  "472": "3f",
  "473": "98",
  "474": "6f6e",
  "475": "a8",
  "476": "003f00",
  "477": "185",
  "478": "cccccc",
  "479": "003f0015",
  "480": "0049",
  "481": "05b",
  "482": "8d1d",
  "483": "38",
  "484": "dd",
  "485": "4b",
  "486": "ff13",
  "487": "a5",
  "488": "706",
  "489": "f8",
  "490": "76",
  "491": "7415",
  "492": "1512",
  "493": "39",
  "494": "013e8",
  "495": "42",
  "496": "4e",
  "497": "00393f",
  "498": "59",
  "499": "ba",
  "500": "0000038e4",
  "501": "5f",
  "502": "d3",
  "503": "005e",
  "504": "415e415f5dc3",
  "505": "4883e",
  "506": "5c",
  "507": "ec",
  "508": "fff",
  "509": "004c8bf",
  "510": "151280c",
  "511": "6572",
  "512": "554157415",
  "513": "90488",
  "514": "002",
  "515": "0101",
  "516": "db",
  "517": "c1",
  "518": "4f",
  "519": "34883e",
  "520": "0019",
  "521": "0715128",
  "522": "023e3e",
  "523": "21",
  "524": "26",
  "525": "d5",
  "526": "da",
  "527": "488bfbff15",
  "528": "000001",
  "529": "6174",
  "530": "15118",
  "531": "005e003f0015",
  "532": "fc",
  "533": "415d",
  "534": "134015128",
  "535": "3c408",
  "536": "e9",
  "537": "ab",
  "538": "700",
  "539": "501",
  "540": "00000100",
  "541": "d4",
  "542": "4c8b",
  "543": "696e",
  "544": "3c4085b",
  "545": "89",
  "546": "fb",
  "547": "92c",
  "548": "0000000000000000000000000000000000000000000000000000000000000000",
  "549": "6765",
  "550": "14b",
  "551": "a9",
  "552": "004c8b",
  "553": "fff15",
  "554": "0603",
  "555": "af",
  "556": "a3",
  "557": "bc",
  "558": "01512",
  "559": "48ff",
  "560": "0600488b",
  "561": "85c",
  "562": "41ff13",
  "563": "0202",
  "564": "04c",
  "565": "8c",
  "566": "608",
  "567": "6c24",
  "568": "e5",
  "569": "0500488b",
  "570": "48ff2",
  "571": "ad",
  "572": "e3",
  "573": "048897d",
  "574": "58e403800100000058e403800100000058e403800100000058e4038001000000",
  "575": "043",
  "576": "702",
  "577": "2e4",
  "578": "4c8d1d",
  "579": "030006",
  "580": "0498bf",
  "581": "46",
  "582": "696f6e",
  "583": "6500",
  "584": "707",
  "585": "b9",
  "586": "47",
  "587": "bd",
  "588": "aa",
  "589": "060355",
  "590": "6573",
  "591": "488bf3",
  "592": "ed",
  "593": "1201",
  "594": "88",
  "595": "0700",
  "596": "00393f41ff13",
  "597": "6f72",
  "598": "9d",
  "599": "010004",
  "600": "01000000",
  "601": "06000a",
  "602": "2acccccc",
  "603": "18502",
  "604": "6173",
  "605": "71",
  "606": "6415",
  "607": "5d",
  "608": "0203",
  "609": "400",
  "610": "6c6f",
  "611": "0000038e40300",
  "612": "415d415e415f5dc3",
  "613": "900",
  "614": "000011",
  "615": "488d05",
  "616": "201",
  "617": "b5",
  "618": "102",
  "619": "6963",
  "620": "c5",
  "621": "603",
  "622": "401",
  "623": "5541574156415",
  "624": "703",
  "625": "ae",
  "626": "108",
  "627": "13001301",
  "628": "74656d",
  "629": "9e",
  "630": "3501",
  "631": "1512812",
  "632": "9f",
  "633": "36",
  "634": "1015128",
  "635": "bb",
  "636": "498bff",
  "637": "488bf8ff15",
  "638": "7d005e003f0015",
  "639": "205",
  "640": "172",
  "641": "24488d",
  "642": "58",
  "643": "b4",
  "644": "7265",
  "645": "f4",
  "646": "a4",
  "647": "0807",
  "648": "ee",
  "649": "022",
  "650": "6c65",
  "651": "004c8bf8",
  "652": "34",
  "653": "0488b2f",
  "654": "0488b2f488",
  "655": "0488b2f48892c",
  "656": "0488b2f48892c24488d",
  "657": "06035504",
  "658": "4c8bf",
  "659": "7973",
  "660": "030019",
  "661": "3c41",
  "662": "e00",
  "663": "0041",
  "664": "488b7b",
  "665": "f6",
  "666": "8e403800100000088e403800100000088e403800100000088e40380010000008",
  "667": "003c",
  "668": "d9",
  "669": "2001",
  "670": "206",
  "671": "010006",
  "672": "00000200",
  "673": "676574",
  "674": "415c",
  "675": "015118",
  "676": "1511818502",
  "677": "fa",
  "678": "ea",
  "679": "3c4105b",
  "680": "075",
  "681": "488bf3ff15",
  "682": "797374656d",
  "683": "27",
  "684": "109",
  "685": "033",
  "686": "ca",
  "687": "f9",
  "688": "0488b2f48892c24488d6d",
  "689": "0a488b7d",
  "690": "000000000000",
  "691": "86",
  "692": "fd",
  "693": "c6",
  "694": "c4",
  "695": "c2",
  "696": "1200",
  "697": "0488d6c24",
  "698": "b3",
  "699": "0ffffff",
  "700": "5e",
  "701": "10b",
  "702": "8e",
  "703": "34883ec1",
  "704": "22c",
  "705": "d2",
  "706": "56",
  "707": "6900",
  "708": "020000",
  "709": "6564",
  "710": "b6",
  "711": "b2",
  "712": "57",
  "713": "6365",
  "714": "6100",
  "715": "bf",
  "716": "8e40380010000009",
  "717": "2acc",
  "718": "5a",
  "719": "6f75",
  "720": "005f",
  "721": "672",
  "722": "97",
  "723": "82",
  "724": "48ff20",
  "725": "00001b",
  "726": "4883c4085b",
  "727": "6f00",
  "728": "d1",
  "729": "006500",
  "730": "e4c",
  "731": "2acccc",
  "732": "040000008608",
  "733": "0488bdf",
  "734": "800",
  "735": "901",
  "736": "c7",
  "737": "ef",
  "738": "555",
  "739": "054",
  "740": "0405",
  "741": "04000000e",
  "742": "cb",
  "743": "050090488",
  "744": "104",
  "745": "8bff",
  "746": "6f6d",
  "747": "d6",
  "748": "f5d",
  "749": "0206",
  "750": "5415",
  "751": "7300",
  "752": "488945",
  "753": "e49",
  "754": "801",
  "755": "d7",
  "756": "168",
  "757": "61736b",
  "758": "cccccccccccccccccccccccc",
  "759": "301",
  "760": "1302",
  "761": "93fff15",
  "762": "0053",
  "763": "6374",
  "764": "00002b",
  "765": "32027b",
  "766": "6f73",
  "767": "807",
  "768": "ce",
  "769": "8f",
  "770": "657373",
  "771": "415c415d415e415f5dc3",
  "772": "203",
  "773": "772",
  "774": "91",
  "775": "013e84",
  "776": "96",
  "777": "541545",
  "778": "00000000000000000000000000000000000000000000000000000000000000000000000000000000000000000000000000000000000000000000000000000000",
  "779": "0505",
  "780": "37",
  "781": "5541575",
  "782": "58e403800100000058e403800100000058e403800100000058e403800100000058e403800100000058e403800100000058e403800100000058e4038001000000",
  "783": "cd",
  "784": "00300",
  "785": "1e00",
  "786": "060049",
  "787": "7200",
  "788": "d02",
  "789": "f5f3",
  "790": "165",
  "791": "00000adc",
  "792": "601",
  "793": "9c00",
  "794": "51",
  "795": "636b",
  "796": "282d",
  "797": "202",
  "798": "a1",
  "799": "3fff15",
  "800": "000006",
  "801": "d06",
  "802": "032",
  "803": "5541574156415541545",
  "804": "00000a7a",
  "805": "cf",
  "806": "1180b",
  "807": "c9",
  "808": "625",
  "809": "050049",
  "810": "04a",
  "811": "3009c00",
  "812": "3009c007d005e003f0015",
  "813": "488b7f",
  "814": "706c",
  "815": "6674",
  "816": "4d8b",
  "817": "726f73",
  "818": "1601",
  "819": "023e3e8",
  "820": "6963726f73",
  "821": "6963726f736f",
  "822": "6963726f736f6674",
  "823": "d8ff15",
  "824": "415f5dc3",
  "825": "00000000000000",
  "826": "048",
  "827": "6275",
  "828": "018",
  "829": "03c",
  "830": "5461736b",
  "831": "a8e4038001000000",
  "832": "902",
  "833": "a8e4038001000000a8e4038001000000",
  "834": "08d",
  "835": "55415741565",
  "836": "0488b7d",
  "837": "151280c401",
  "838": "616c",
  "839": "158",
  "840": "e1",
  "841": "0a3009c007d005e003f0015",
  "842": "33c",
  "843": "00f",
  "844": "10c",
  "845": "134",
  "846": "d8488b",
  "847": "488d7d",
  "848": "975",
  "849": "06004c8b",
  "850": "4d85",
  "851": "072",
  "852": "02000000",
  "853": "500",
  "854": "0b3",
  "855": "03000000",
  "856": "05004c8b",
  "857": "2b00000a",
  "858": "282d00000adc",
  "859": "0000000000",
  "860": "92a",
  "861": "10a",
  "862": "a00",
  "863": "6d65",
  "864": "797374656d2e",
  "865": "b7",
  "866": "8e40380010000007",
  "867": "0075",
  "868": "01c",
  "869": "65737361",
  "870": "0500393f41ff13",
  "871": "8e403800100000078e40380010000007",
  "872": "616e",
  "873": "04d",
  "874": "0403",
  "875": "0000038e4030019",
  "876": "488d7b",
  "877": "3bff15",
  "878": "617461",
  "879": "0e8",
  "880": "2b06",
  "881": "1001",
  "882": "038e40300",
  "883": "6c6f636b",
  "884": "0041ff13",
  "885": "18514b",
  "886": "040000008300",
  "887": "06004",
  "888": "1104",
  "889": "095",
  "890": "6c2",
  "891": "fe06",
  "892": "7ff15",
  "893": "027c",
  "894": "3e3e3e",
  "895": "151275",
  "896": "6e74",
  "897": "6164",
  "898": "923",
  "899": "00500",
  "900": "00200",
  "901": "175",
  "902": "3005e003f0015",
  "903": "08488b",
  "904": "00740a488b7d",
  "905": "060090488",
  "906": "1304",
  "907": "e01",
  "908": "05a",
  "909": "248",
  "910": "0488965",
  "911": "eff15",
  "912": "643",
  "913": "929",
  "914": "732e4",
  "915": "040518",
  "916": "4011300",
  "917": "011",
  "918": "f7",
  "919": "574",
  "920": "0f8",
  "921": "2c06",
  "922": "2c5",
  "923": "103",
  "924": "045",
  "925": "696e672",
  "926": "61746166",
  "927": "617461666c6f",
  "928": "033e3e3e",
  "929": "6e4",
  "930": "6574",
  "931": "6e00",
  "932": "13001",
  "933": "a7",
  "934": "6ff15",
  "935": "044",
  "936": "554157415641555",
  "937": "1100000a",
  "938": "1106",
  "939": "043003f0015",
  "940": "0b02",
  "941": "0fb",
  "942": "09003",
  "943": "498bf5",
  "944": "13e8",
  "945": "258",
  "946": "02281100000a",
  "947": "8e403800100000098e40380010000009",
  "948": "5468",
  "949": "e2",
  "950": "089",
  "951": "488d75",
  "952": "c8ff15",
  "953": "13000a",
  "954": "81",
  "955": "000002",
  "956": "0213001301",
  "957": "645",
  "958": "6174696f6e",
  "959": "7565",
  "960": "70d",
  "961": "31",
  "962": "51e",
  "963": "0812",
  "964": "d01",
  "965": "000c",
  "966": "6f7572",
  "967": "4883c4105b",
  "968": "00074",
  "969": "282b00000a",
  "970": "7269",
  "971": "000019",
  "972": "33f",
  "973": "09004",
  "974": "252d",
  "975": "046f",
  "976": "657373616765",
  "977": "0807d",
  "978": "0400000083",
  "979": "6765745f",
  "980": "7474",
  "981": "6400",
  "982": "9303",
  "983": "135",
  "984": "350488b2f48892c24488d6d",
  "985": "12808d",
  "986": "303",
  "987": "099",
  "988": "10488b",
  "989": "48897d",
  "990": "6172",
  "991": "007400",
  "992": "0600488bf8",
  "993": "1512808",
  "994": "4617461666c6f",
  "995": "04b",
  "996": "701",
  "997": "0488945",
  "998": "02000a6f",
  "999": "09005",
  "1000": "f2",
  "1001": "488d6c24",
  "1002": "8bffff15",
  "1003": "2acccccc32027b",
  "1004": "0043",
  "1005": "0cc",
  "1006": "4883",
  "1007": "68975",
  "1008": "09001",
  "1009": "0113000715128",
  "1010": "08300",
  "1011": "92b",
  "1012": "00100",
  "1013": "498bffff15",
  "1014": "ffffffff",
  "1015": "9b040518",
  "1016": "4d6963726f736f6674",
  "1017": "0313",
  "1018": "f73",
  "1019": "06004c8bf8",
  "1020": "03000a6f",
  "1021": "0023e3e",
  "1022": "6973",
  "1023": "6f6d706c",
  "1024": "028",
  "1025": "554157534883ec1",
  "1026": "0500488bf8ff15",
  "1027": "1181f",
  "1028": "082",
  "1029": "6e63",
  "1030": "6c00",
  "1031": "a6",
  "1032": "083007d005e003f0015",
  "1033": "23000001",
  "1034": "3e625",
  "1035": "2b0601",
  "1036": "f300",
  "1037": "72656164",
  "1038": "4885c",
  "1039": "4883c",
  "1040": "415e415f5d",
  "1041": "0400000086",
  "1042": "13401512822c",
  "1043": "042",
  "1044": "6974",
  "1045": "c00",
  "1046": "085",
  "1047": "148",
  "1048": "0600393f41ff13",
  "1049": "0500488bf",
  "1050": "3e3",
  "1051": "546872656164",
  "1052": "c0ff15",
  "1053": "b054",
  "1054": "1512812501",
  "1055": "90100",
  "1056": "e7",
  "1057": "030000",
  "1058": "1b8",
  "1059": "518",
  "1060": "51a",
  "1061": "85c074",
  "1062": "0701",
  "1063": "1e001",
  "1064": "11c",
  "1065": "797374656d2e546872656164",
  "1066": "696e672e",
  "1067": "0c0600",
  "1068": "51c",
  "1069": "e0ff15",
  "1070": "040000008618514b",
  "1071": "004015128",
  "1072": "675",
  "1073": "48b",
  "1074": "13e",
  "1075": "797374656d2e546872656164696e672e",
  "1076": "080400",
  "1077": "036f",
  "1078": "0615128",
  "1079": "013",
  "1080": "002e",
  "1081": "617465",
  "1082": "0b72",
  "1083": "797374656d2e546872656164696e672e5461736b",
  "1084": "0c06000c",
  "1085": "488b75",
  "1086": "3f68975",
  "1087": "0500488bf8",
  "1088": "151280c4011300",
  "1089": "0f5",
  "1090": "070206",
  "1091": "17267",
  "1092": "033c",
  "1093": "0488bdf4c8bf",
  "1094": "488b55",
  "1095": "488b3bff15",
  "1096": "0000003",
  "1097": "87",
  "1098": "0800",
  "1099": "09d",
  "1100": "7379",
  "1101": "00000019",
  "1102": "000011027b",
  "1103": "04000000e101",
  "1104": "503",
  "1105": "c74",
  "1106": "749",
  "1107": "1600",
  "1108": "0b06",
  "1109": "4d657373616765",
  "1110": "000004",
  "1111": "696e67",
  "1112": "30015",
  "1113": "070500",
  "1114": "070500070206",
  "1115": "0705000702063005e003f0015",
  "1116": "038e4030019",
  "1117": "ffffffff15",
  "1118": "05004c8bf8",
  "1119": "1105",
  "1120": "163",
  "1121": "1307",
  "1122": "0a3009c007d005e003f00150000038e40300",
  "1123": "6f75726365",
  "1124": "0488d6c242",
  "1125": "0488d6c243",
  "1126": "488bd",
  "1127": "252d17267",
  "1128": "3e625f5f3",
  "1129": "626c65",
  "1130": "4617461666c6f772",
  "1131": "124",
  "1132": "5dc3",
  "1133": "05004",
  "1134": "0054",
  "1135": "0e04",
  "1136": "0201",
  "1137": "d8b",
  "1138": "e6",
  "1139": "922",
  "1140": "05000a6f",
  "1141": "168023e3e",
  "1142": "200101",
  "1143": "7900",
  "1144": "092a",
  "1145": "797374656d2e546872656164696e672e5461736b732e4",
  "1146": "083",
  "1147": "6ff",
  "1148": "0488b7f",
  "1149": "fe15",
  "1150": "70733f",
  "1151": "70733f00000a7a",
  "1152": "1652",
  "1153": "73796e63",
  "1154": "06b",
  "1155": "0e4",
  "1156": "0a06",
  "1157": "34883ec",
  "1158": "2d0b72",
  "1159": "01000a6f",
  "1160": "01004",
  "1161": "6300",
  "1162": "797374656d2e546872656164696e672e5461736b732e44617461666c6f772",
  "1163": "498bfd",
  "1164": "2c5015128",
  "1165": "323",
  "1166": "03300",
  "1167": "28a",
  "1168": "c01",
  "1169": "4ff15",
  "1170": "f30003c",
  "1171": "8e403800100000088e403800100000088e403800100000088e403800100000088e403800100000088e403800100000088e403800100000088e40380010000008",
  "1172": "c013e",
  "1173": "6172676574",
  "1174": "7574",
  "1175": "0498b",
  "1176": "1512808501",
  "1177": "088",
  "1178": "909",
  "1179": "00400",
  "1180": "0706",
  "1181": "104c",
  "1182": "048897dd",
  "1183": "0600488bf8ff15",
  "1184": "11102",
  "1185": "010200",
  "1186": "020200",
  "1187": "58e403800100000058e403800100000058e403800100000058e403800100000058e403800100000058e403800100000058e403800100000058e403800100000058e403800100000058e403800100000058e403800100000058e403800100000058e403800100000058e403800100000058e403800100000058e4038001000000",
  "1188": "13401512822c013e84",
  "1189": "d00",
  "1190": "953",
  "1191": "6374696f6e",
  "1192": "161",
  "1193": "0374",
  "1194": "488b3d",
  "1195": "06003",
  "1196": "0500393f",
  "1197": "000a00000000",
  "1198": "674",
  "1199": "0300e",
  "1200": "019",
  "1201": "0128",
  "1202": "55415741564155534883ec1",
  "1203": "b8ff15",
  "1204": "040000008100",
  "1205": "05c",
  "1206": "03b",
  "1207": "0e5",
  "1208": "0b0700",
  "1209": "938",
  "1210": "4883c4",
  "1211": "7074",
  "1212": "797374656d2e4",
  "1213": "453",
  "1214": "86488",
  "1215": "864886f",
  "1216": "864886f70d",
  "1217": "02c",
  "1218": "0603551d",
  "1219": "023",
  "1220": "483",
  "1221": "081",
  "1222": "669",
  "1223": "1305",
  "1224": "a2a",
  "1225": "6c241",
  "1226": "0488d7d",
  "1227": "0500488b7d",
  "1228": "2101",
  "1229": "426c6f636b",
  "1230": "071512",
  "1231": "0000002",
  "1232": "f72",
  "1233": "3c9",
  "1234": "03001",
  "1235": "ff74",
  "1236": "0f29",
  "1237": "15127501",
  "1238": "033e3e3e8",
  "1239": "03d",
  "1240": "6e64",
  "1241": "0204",
  "1242": "025",
  "1243": "0e0700",
  "1244": "0a16",
  "1245": "85c075",
  "1246": "2347",
  "1247": "1111",
  "1248": "02037d",
  "1249": "8a703",
  "1250": "14b3501",
  "1251": "265",
  "1252": "204",
  "1253": "696f",
  "1254": "756d",
  "1255": "0000000000000000000000000000000000000000000000000000000000000000000000000000000000000000000000000000000000000000000000000000000000000000000000000000000000000000000000000000000000000000000000000000000000000000000000000000000000000000000000000000000000000000",
  "1256": "06c",
  "1257": "992",
  "1258": "053",
  "1259": "5f5",
  "1260": "0030000",
  "1261": "000001001",
  "1262": "e498bf",
  "1263": "e4c8bf",
  "1264": "02001",
  "1265": "234700000200",
  "1266": "01511818502",
  "1267": "61626c65",
  "1268": "657276",
  "1269": "024",
  "1270": "293",
  "1271": "030003",
  "1272": "05003",
  "1273": "0323",
  "1274": "a23",
  "1275": "90d",
  "1276": "95a",
  "1277": "73a",
  "1278": "498bf7ff15",
  "1279": "36488bfbff15",
  "1280": "de0a",
  "1281": "0400488b",
  "1282": "04000a6f",
  "1283": "0726f",
  "1284": "5374",
  "1285": "704",
  "1286": "01003",
  "1287": "01005",
  "1288": "145",
  "1289": "0488d05",
  "1290": "000740a488b7d",
  "1291": "0488d6c242048897d",
  "1292": "1628",
  "1293": "60900",
  "1294": "10b23",
  "1295": "207",
  "1296": "02e",
  "1297": "4465",
  "1298": "113",
  "1299": "0fc",
  "1300": "2043",
  "1301": "343",
  "1302": "14c",
  "1303": "106",
  "1304": "715",
  "1305": "09a",
  "1306": "630d",
  "1307": "70a",
  "1308": "185b",
  "1309": "0488d75",
  "1310": "2a1e",
  "1311": "040000008108",
  "1312": "a8e4038001000000a8e4038001000000a8e4038001000000a8e4038001000000",
  "1313": "792",
  "1314": "774",
  "1315": "0702",
  "1316": "130a",
  "1317": "035",
  "1318": "0100c",
  "1319": "d0ff15",
  "1320": "ccff15",
  "1321": "012d",
  "1322": "4173796e63",
  "1323": "0bd02",
  "1324": "0011300",
  "1325": "130013011302",
  "1326": "275",
  "1327": "004e00",
  "1328": "065",
  "1329": "01a",
  "1330": "218",
  "1331": "cccccccccc",
  "1332": "e4c8d1d",
  "1333": "0500488945",
  "1334": "02027b",
  "1335": "15128125",
  "1336": "01001",
  "1337": "b00",
  "1338": "092a864886f70d",
  "1339": "e18",
  "1340": "921",
  "1341": "03030003",
  "1342": "030300030202",
  "1343": "03030003020230015",
  "1344": "0b07000b02",
  "1345": "1f010000",
  "1346": "fc3",
  "1347": "415e415f5d48ff20",
  "1348": "0488bfb",
  "1349": "488985",
  "1350": "00000000000004000000",
  "1351": "00000500",
  "1352": "00000100234700000200",
  "1353": "74747269",
  "1354": "747472696275",
  "1355": "7474726962757465",
  "1356": "756c",
  "1357": "436f6d706c",
  "1358": "dc8",
  "1359": "7808",
  "1360": "0579",
  "1361": "498bf5ff15",
  "1362": "488b77",
  "1363": "0328",
  "1364": "00000a6f",
  "1365": "05000a7b",
  "1366": "01010101",
  "1367": "12809d",
  "1368": "8e403800100000078e403800100000078e403800100000078e40380010000007",
  "1369": "013e1",
  "1370": "0e00",
  "1371": "70b",
  "1372": "07d",
  "1373": "2e63",
  "1374": "0a8",
  "1375": "8a1",
  "1376": "6031",
  "1377": "0c06000c12",
  "1378": "0c06000c12083007d005e003f0015",
  "1379": "fe13",
  "1380": "0440f29",
  "1381": "151181850213000a",
  "1382": "0ff",
  "1383": "0000000000000a",
  "1384": "493",
  "1385": "224",
  "1386": "90a",
  "1387": "07c",
  "1388": "0804000812",
  "1389": "0804000812043003f0015",
  "1390": "07b",
  "1391": "4585",
  "1392": "d8488b35",
  "1393": "10498bf",
  "1394": "b0ff15",
  "1395": "05004c8bf",
  "1396": "01100",
  "1397": "0100f",
  "1398": "1512811102",
  "1399": "1512812902",
  "1400": "1000000",
  "1401": "0100a",
  "1402": "311",
  "1403": "45d",
  "1404": "213",
  "1405": "05e",
  "1406": "10d",
  "1407": "402",
  "1408": "2100",
  "1409": "0f85",
  "1410": "05b415f5dc3",
  "1411": "4885c074",
  "1412": "488b7b08",
  "1413": "6368",
  "1414": "0000000000000a000000",
  "1415": "120028",
  "1416": "282b00000a027b",
  "1417": "707574",
  "1418": "01d",
  "1419": "0058",
  "1420": "7665",
  "1421": "6700",
  "1422": "906",
  "1423": "14be",
  "1424": "9b04",
  "1425": "0100b",
  "1426": "0407",
  "1427": "0600498d",
  "1428": "488b3fff15",
  "1429": "488bbd",
  "1430": "0500904883c4085b",
  "1431": "02000a7b",
  "1432": "10f",
  "1433": "021",
  "1434": "0808",
  "1435": "b92",
  "1436": "0100d",
  "1437": "4885",
  "1438": "02003",
  "1439": "06004c8bf",
  "1440": "0500904883c4105b",
  "1441": "0700001b",
  "1442": "040070733f00000a7a",
  "1443": "3e395",
  "1444": "15118185021180b",
  "1445": "013e1015128",
  "1446": "5265",
  "1447": "665",
  "1448": "25c",
  "1449": "12c",
  "1450": "055",
  "1451": "0ac",
  "1452": "892",
  "1453": "292",
  "1454": "007",
  "1455": "f301",
  "1456": "657465",
  "1457": "04c8b",
  "1458": "0500488d7b",
  "1459": "5901",
  "1460": "151280c503",
  "1461": "34a",
  "1462": "2300",
  "1463": "12b",
  "1464": "02a",
  "1465": "e03",
  "1466": "930b",
  "1467": "1c02",
  "1468": "0300b",
  "1469": "004000000",
  "1470": "cccccccccccccccccccccc",
  "1471": "0488bf",
  "1472": "060041ff13",
  "1473": "e498b",
  "1474": "1758",
  "1475": "0409",
  "1476": "200201",
  "1477": "d85",
  "1478": "61007400",
  "1479": "084",
  "1480": "2b060104",
  "1481": "2b060104018",
  "1482": "0ec",
  "1483": "92e",
  "1484": "12a",
  "1485": "005c",
  "1486": "0003",
  "1487": "01000000ff15",
  "1488": "488bd3",
  "1489": "554157534883ec10488b2f48892c24488d6d",
  "1490": "0ffffffff15",
  "1491": "b2000000",
  "1492": "15128125011300",
  "1493": "10900",
  "1494": "154",
  "1495": "369",
  "1496": "412",
  "1497": "08c",
  "1498": "41ff",
  "1499": "7b08",
  "1500": "0c07",
  "1501": "fe137b",
  "1502": "02004",
  "1503": "3e395f5f3",
  "1504": "15128125011301",
  "1505": "d03",
  "1506": "4578",
  "1507": "4d6963726f736f66742043",
  "1508": "1315",
  "1509": "22d",
  "1510": "233",
  "1511": "d04",
  "1512": "188",
  "1513": "1306",
  "1514": "498bf6ff15",
  "1515": "498bf4ff15",
  "1516": "488b7f08",
  "1517": "feffff",
  "1518": "488b7db8",
  "1519": "0b061201",
  "1520": "0304",
  "1521": "225",
  "1522": "828",
  "1523": "7500",
  "1524": "708",
  "1525": "7c24",
  "1526": "554157415641554154534883ec",
  "1527": "05b415d415e415f5dc3",
  "1528": "104c8d1d",
  "1529": "488975",
  "1530": "0b300",
  "1531": "177d",
  "1532": "7028a1",
  "1533": "7028a100000a",
  "1534": "01300",
  "1535": "1512812501130015128125011301",
  "1536": "105",
  "1537": "696d65",
  "1538": "63746f72",
  "1539": "6600",
  "1540": "0074006500",
  "1541": "01b",
  "1542": "07e",
  "1543": "066f",
  "1544": "3c5",
  "1545": "16f",
  "1546": "6fff",
  "1547": "1400000000",
  "1548": "0705000702063005e003f00150000038e4030019",
  "1549": "0600904883c4085b",
  "1550": "415c415d",
  "1551": "70900",
  "1552": "072c06",
  "1553": "4400000a",
  "1554": "252d17267e",
  "1555": "ac00",
  "1556": "6f7265",
  "1557": "7279",
  "1558": "80a",
  "1559": "623",
  "1560": "02d",
  "1561": "74c",
  "1562": "308",
  "1563": "18c",
  "1564": "628",
  "1565": "90b",
  "1566": "664",
  "1567": "00000038e4",
  "1568": "0e07000e",
  "1569": "0214",
  "1570": "5541574156535",
  "1571": "0c01",
  "1572": "48ff20488b7f",
  "1573": "06d",
  "1574": "417474726962757465",
  "1575": "a2f",
  "1576": "903",
  "1577": "0dd",
  "1578": "0811",
  "1579": "0000f",
  "1580": "180b",
  "1581": "26c6f636b",
  "1582": "488bc3",
  "1583": "0488d6c241",
  "1584": "0600488bf",
  "1585": "e8ff15",
  "1586": "85b",
  "1587": "7409",
  "1588": "0500498d",
  "1589": "0a160b061201",
  "1590": "072c0606",
  "1591": "072c0606282d00000adc",
  "1592": "086f",
  "1593": "9118",
  "1594": "15122101",
  "1595": "248013e84",
  "1596": "13401512",
  "1597": "09c",
  "1598": "36f",
  "1599": "756d6572",
  "1600": "0b8",
  "1601": "918",
  "1602": "472",
  "1603": "241",
  "1604": "0ba",
  "1605": "403",
  "1606": "9292",
  "1607": "45c8",
  "1608": "18488d6c24",
  "1609": "33ff",
  "1610": "e0498bf",
  "1611": "5558a703",
  "1612": "797374656d2e546872656164696e672e5461736b732e44617461666c6f772e4",
  "1613": "00000020000000000",
  "1614": "696f6e4",
  "1615": "6c656374696f6e",
  "1616": "08b",
  "1617": "6f72706",
  "1618": "6f72706f72",
  "1619": "6f72706f726174696f6e",
  "1620": "0eb",
  "1621": "f33",
  "1622": "f18",
  "1623": "2004",
  "1624": "70c",
  "1625": "20a",
  "1626": "0a3009c007d005e003f00150000038e4030019",
  "1627": "0f84",
  "1628": "350488d6c241",
  "1629": "7535",
  "1630": "cccccccccccccccccccccccccccccc",
  "1631": "4885c0740e",
  "1632": "4c8d",
  "1633": "00000a2c",
  "1634": "151280c801",
  "1635": "151280bd02",
  "1636": "000c000c",
  "1637": "a06",
  "1638": "496e",
  "1639": "6f6e73",
  "1640": "656e",
  "1641": "45c",
  "1642": "d06092a864886f70d",
  "1643": "d06092a864886f70d0101",
  "1644": "62a",
  "1645": "192",
  "1646": "008",
  "1647": "05d",
  "1648": "94f",
  "1649": "01e",
  "1650": "050000",
  "1651": "06009",
  "1652": "923a",
  "1653": "0d5",
  "1654": "595",
  "1655": "cccccccccccc",
  "1656": "55415741565350488b2f48892c24488d6d",
  "1657": "285b",
  "1658": "7409488bf3ff15",
  "1659": "1600000a",
  "1660": "02000a027b",
  "1661": "01008",
  "1662": "040000008618514b3501",
  "1663": "04000000e601",
  "1664": "00000100234700000200b054",
  "1665": "6f64",
  "1666": "626c",
  "1667": "553",
  "1668": "1e4",
  "1669": "7384",
  "1670": "0500eb",
  "1671": "093",
  "1672": "48a",
  "1673": "1900",
  "1674": "833c",
  "1675": "3e0a",
  "1676": "498bff488bf3ff15",
  "1677": "48837b",
  "1678": "e800740a488b7d",
  "1679": "498bf6",
  "1680": "05009",
  "1681": "8d0c",
  "1682": "1e0009",
  "1683": "2000000",
  "1684": "005300",
  "1685": "6c6c656374696f6e",
  "1686": "7074696f6e",
  "1687": "4d6963726f736f667420436f72706f726174696f6e",
  "1688": "04e",
  "1689": "2003",
  "1690": "0703",
  "1691": "45b",
  "1692": "06a",
  "1693": "92d",
  "1694": "3c24",
  "1695": "03004",
  "1696": "526573",
  "1697": "0600488d7b",
  "1698": "d0488b",
  "1699": "d800740a488b7d",
  "1700": "85c00f",
  "1701": "33f6",
  "1702": "4885db",
  "1703": "488bc34885c0740e",
  "1704": "488bc34885c0740e483",
  "1705": "488bc34885c0740e483938",
  "1706": "488bc34885c0740e4839387409488bf3ff15",
  "1707": "4c8bff",
  "1708": "6d01",
  "1709": "02281100000a02037d",
  "1710": "3a027b",
  "1711": "080615128",
  "1712": "168023e3e83",
  "1713": "013e2c5015128",
  "1714": "0000000000000000000000",
  "1715": "0b5",
  "1716": "803",
  "1717": "7365",
  "1718": "2b06010401823",
  "1719": "6d6f6e",
  "1720": "169",
  "1721": "1dc",
  "1722": "418b",
  "1723": "195",
  "1724": "64b",
  "1725": "029",
  "1726": "005400",
  "1727": "0102",
  "1728": "a001",
  "1729": "925",
  "1730": "1202",
  "1731": "0807de800740a488b7d",
  "1732": "b403",
  "1733": "46027b",
  "1734": "120228",
  "1735": "9118574",
  "1736": "9118574be",
  "1737": "14be108",
  "1738": "f3019303",
  "1739": "af1400000000",
  "1740": "44656275",
  "1741": "750900",
  "1742": "7261",
  "1743": "0406",
  "1744": "35303",
  "1745": "617368",
  "1746": "92f",
  "1747": "406",
  "1748": "3011",
  "1749": "64311",
  "1750": "097",
  "1751": "823",
  "1752": "304",
  "1753": "07f",
  "1754": "223",
  "1755": "295",
  "1756": "0205",
  "1757": "62d",
  "1758": "66f",
  "1759": "1515",
  "1760": "0a7d",
  "1761": "cccccccccccccccccc",
  "1762": "488b05",
  "1763": "48bf",
  "1764": "415f5d",
  "1765": "393fff15",
  "1766": "0500488b36488bfbff15",
  "1767": "7c1600000a",
  "1768": "de0a072c0606282d00000adc",
  "1769": "2a00",
  "1770": "2a027b",
  "1771": "04000a28",
  "1772": "003a",
  "1773": "f80409",
  "1774": "7600",
  "1775": "c83",
  "1776": "061302",
  "1777": "55533",
  "1778": "e301c",
  "1779": "e301c06035504",
  "1780": "13154d6963726f736f667420436f72706f726174696f6e",
  "1781": "672d",
  "1782": "73e",
  "1783": "0a5",
  "1784": "09b",
  "1785": "13c",
  "1786": "141",
  "1787": "0b0000",
  "1788": "119",
  "1789": "6001",
  "1790": "e65",
  "1791": "0912",
  "1792": "4157535",
  "1793": "488b73",
  "1794": "0f57c",
  "1795": "a8ff15",
  "1796": "02177d",
  "1797": "05000a2d",
  "1798": "05000a027b",
  "1799": "01002",
  "1800": "42930b",
  "1801": "7574707574",
  "1802": "1280a",
  "1803": "c013e83",
  "1804": "0ce",
  "1805": "36f6c6c656374696f6e",
  "1806": "11b",
  "1807": "648",
  "1808": "10b300",
  "1809": "10b3009",
  "1810": "10b300906035504",
  "1811": "10b300906035504061302",
  "1812": "10b30090603550406130255533",
  "1813": "10b30090603550406130255533113",
  "1814": "10b300906035504061302555331133011",
  "1815": "10b30090603550406130255533113301106035504",
  "1816": "10b3009060355040613025553311330110603550408",
  "1817": "10b3009060355040613025553311330110603550408130a",
  "1818": "10b3009060355040613025553311330110603550408130a57",
  "1819": "10b3009060355040613025553311330110603550408130a57617368",
  "1820": "10b3009060355040613025553311330110603550408130a57617368696e67",
  "1821": "10b3009060355040613025553311330110603550408130a57617368696e6774",
  "1822": "10b3009060355040613025553311330110603550408130a57617368696e67746f6e",
  "1823": "10b3009060355040613025553311330110603550408130a57617368696e67746f6e311",
  "1824": "10b3009060355040613025553311330110603550408130a57617368696e67746f6e3110300e",
  "1825": "10b3009060355040613025553311330110603550408130a57617368696e67746f6e3110300e06035504",
  "1826": "10b3009060355040613025553311330110603550408130a57617368696e67746f6e3110300e0603550407",
  "1827": "10b3009060355040613025553311330110603550408130a57617368696e67746f6e3110300e06035504071307",
  "1828": "10b3009060355040613025553311330110603550408130a57617368696e67746f6e3110300e0603550407130752",
  "1829": "10b3009060355040613025553311330110603550408130a57617368696e67746f6e3110300e06035504071307526564",
  "1830": "10b3009060355040613025553311330110603550408130a57617368696e67746f6e3110300e060355040713075265646d6f6e",
  "1831": "10b3009060355040613025553311330110603550408130a57617368696e67746f6e3110300e060355040713075265646d6f6e64311",
  "1832": "10b3009060355040613025553311330110603550408130a57617368696e67746f6e3110300e060355040713075265646d6f6e64311e301c06035504",
  "1833": "10b3009060355040613025553311330110603550408130a57617368696e67746f6e3110300e060355040713075265646d6f6e64311e301c060355040a",
  "1834": "10b3009060355040613025553311330110603550408130a57617368696e67746f6e3110300e060355040713075265646d6f6e64311e301c060355040a13154d6963726f736f667420436f72706f726174696f6e",
  "1835": "353",
  "1836": "2b06010505",
  "1837": "0a02",
  "1838": "49b",
  "1839": "312",
  "1840": "173",
  "1841": "05f",
  "1842": "a92",
  "1843": "959",
  "1844": "ff23",
  "1845": "0c06000c12083007d005e003f0015038e4030019",
  "1846": "0804000812043003f0015038e4030019",
  "1847": "d92",
  "1848": "616c7565",
  "1849": "cccccccccccccccccccc",
  "1850": "4d85ed",
  "1851": "498bfdff15",
  "1852": "4c8bd8",
  "1853": "397",
  "1854": "001e",
  "1855": "001000a",
  "1856": "b3010004",
  "1857": "1d1300",
  "1858": "8011300",
  "1859": "0900b",
  "1860": "802",
  "1861": "6c6c",
  "1862": "004f",
  "1863": "407",
  "1864": "69006f00",
  "1865": "6d00",
  "1866": "02b",
  "1867": "01006",
  "1868": "418",
  "1869": "1002",
  "1870": "6808",
  "1871": "495",
  "1872": "00000038e40300",
  "1873": "6c245",
  "1874": "0c06",
  "1875": "3c43",
  "1876": "0506",
  "1877": "ce8",
  "1878": "cccccccccccccccccccccccccccc",
  "1879": "55415741564155534883ec10488b2f48892c24488d6d",
  "1880": "7498b",
  "1881": "34883ec3",
  "1882": "38ffffff",
  "1883": "7300000a6f",
  "1884": "02281100000a2a",
  "1885": "2c07",
  "1886": "003000a",
  "1887": "000000100",
  "1888": "63746f723e625f5f3",
  "1889": "a29",
  "1890": "f8040900000020000000000",
  "1891": "413",
  "1892": "3c42",
  "1893": "0c3",
  "1894": "af5",
  "1895": "c03",
  "1896": "e4b",
  "1897": "08a",
  "1898": "955",
  "1899": "010100",
  "1900": "0216",
  "1901": "709",
  "1902": "261",
  "1903": "f1",
  "1904": "0488975",
  "1905": "415e415f5dc355415741565350488b2f48892c24488d6d",
  "1906": "05004c8be8",
  "1907": "0400488bf8",
  "1908": "0f0128",
  "1909": "00000672",
  "1910": "707397",
  "1911": "70739700000a7a",
  "1912": "027b1b",
  "1913": "0200b",
  "1914": "9600",
  "1915": "13001180b",
  "1916": "10c23",
  "1917": "465",
  "1918": "4000000",
  "1919": "793",
  "1920": "082b06010505",
  "1921": "0bc",
  "1922": "718",
  "1923": "94c",
  "1924": "41c",
  "1925": "00c",
  "1926": "052",
  "1927": "9101",
  "1928": "2002",
  "1929": "e92",
  "1930": "3c4185b",
  "1931": "0600ff15",
  "1932": "49ff23",
  "1933": "0600488bfbff15",
  "1934": "cccccccccccccc",
  "1935": "b801000000",
  "1936": "0807dd800740a488b7d",
  "1937": "04d8b",
  "1938": "033c0488945",
  "1939": "498bfe498bf",
  "1940": "048893c24",
  "1941": "488b7b18",
  "1942": "0488d6c242048897de8",
  "1943": "349",
  "1944": "4533c",
  "1945": "0500488bfbff15",
  "1946": "0200c",
  "1947": "05000a2c",
  "1948": "0100e",
  "1949": "040000009118574be",
  "1950": "012d00000100",
  "1951": "546172676574",
  "1952": "0151280c",
  "1953": "58e403800100000058e403800100000058e403800100000058e403800100000058e403800100000058e403800100000058e403800100000058e403800100000058e403800100000058e403800100000058e403800100000058e403800100000058e403800100000058e403800100000058e403800100000058e403800100000058e403800100000058e403800100000058e403800100000058e403800100000058e403800100000058e403800100000058e403800100000058e403800100000058e403800100000058e403800100000058e403800100000058e403800100000058e403800100000058e403800100000058e403800100000058e4038001000000",
  "1954": "0900f",
  "1955": "0e8013e8",
  "1956": "00000300",
  "1957": "00f8",
  "1958": "0045",
  "1959": "16c",
  "1960": "007500",
  "1961": "0cd",
  "1962": "45a",
  "1963": "83c",
  "1964": "3d2",
  "1965": "238",
  "1966": "040300",
  "1967": "f101",
  "1968": "011c",
  "1969": "164",
  "1970": "488bf0ff15",
  "1971": "e4c8bf2",
  "1972": "df4c8bf",
  "1973": "93f41ff13",
  "1974": "0488955",
  "1975": "448b",
  "1976": "06004c8be8",
  "1977": "554157534883ec10488d6c242048897de8",
  "1978": "a0ff15",
  "1979": "01000a2c",
  "1980": "03000a7b",
  "1981": "004000a",
  "1982": "005000a",
  "1983": "05a00000000",
  "1984": "797374656d2e436f6c6c656374696f6e",
  "1985": "1181f48",
  "1986": "081015128",
  "1987": "7a04a",
  "1988": "7065",
  "1989": "004d",
  "1990": "666572",
  "1991": "234",
  "1992": "d83",
  "1993": "004e",
  "1994": "2400",
  "1995": "010f",
  "1996": "10e",
  "1997": "35b",
  "1998": "a01",
  "1999": "0b07",
  "2000": "00a",
  "2001": "03003",
  "2002": "027",
  "2003": "0a05000a",
  "2004": "0b07000b020a3009c007d005e003f00150000038e4030019",
  "2005": "14fe",
  "2006": "e100",
  "2007": "2d3",
  "2008": "08f",
  "2009": "0779",
  "2010": "555350488d6c241",
  "2011": "34883ec2",
  "2012": "e0498bfc",
  "2013": "08000000",
  "2014": "498bf7",
  "2015": "498bd",
  "2016": "3c0488945",
  "2017": "4883c4105b415f5d",
  "2018": "498bfeff15",
  "2019": "020328",
  "2020": "4312",
  "2021": "990b",
  "2022": "797374656d2e436f6c6c656374696f6e732e4",
  "2023": "15118185021180b01300",
  "2024": "8e403800100000098e403800100000098e403800100000098e40380010000009",
  "2025": "6f74",
  "2026": "6966",
  "2027": "6767",
  "2028": "795",
  "2029": "676e",
  "2030": "63657074696f6e",
  "2031": "726c",
  "2032": "a2f2f",
  "2033": "2e636f6d",
  "2034": "15a",
  "2035": "0000000000000004000000",
  "2036": "70006",
  "2037": "6003",
  "2038": "612",
  "2039": "409",
  "2040": "f92",
  "2041": "61b",
  "2042": "7a5",
  "2043": "c06",
  "2044": "489",
  "2045": "0215",
  "2046": "03005",
  "2047": "3005e003f00150000038e40300",
  "2048": "023e",
  "2049": "d05",
  "2050": "558",
  "2051": "629",
  "2052": "cccccccccccccccccccccccccc",
  "2053": "d8488bfbff15",
  "2054": "415fc3",
  "2055": "554157415641554154535",
  "2056": "488b7db",
  "2057": "4c03",
  "2058": "0500498bf",
  "2059": "033003",
  "2060": "738400000a",
  "2061": "050070739700000a7a",
  "2062": "03046f",
  "2063": "0300a",
  "2064": "1003c",
  "2065": "4974656d",
  "2066": "15125901",
  "2067": "0900a",
  "2068": "004300",
  "2069": "03f",
  "2070": "0ab",
  "2071": "943",
  "2072": "0038",
  "2073": "685",
  "2074": "e6d",
  "2075": "933",
  "2076": "04f",
  "2077": "37d",
  "2078": "bd3",
  "2079": "609",
  "2080": "6c006f00",
  "2081": "9714",
  "2082": "7000000",
  "2083": "8be",
  "2084": "0900d",
  "2085": "756d65",
  "2086": "e0488b",
  "2087": "488b35",
  "2088": "20488b",
  "2089": "904883c4085b",
  "2090": "488b7dc8",
  "2091": "7b18",
  "2092": "488bde498b",
  "2093": "488bde498b3fff15",
  "2094": "0500904883c4105b415f5dc3",
  "2095": "9538ffffff",
  "2096": "172a",
  "2097": "067b",
  "2098": "25801",
  "2099": "002000a",
  "2100": "04000a027b",
  "2101": "672d3501",
  "2102": "000001001145",
  "2103": "000200",
  "2104": "00205a00000000",
  "2105": "2e63746f723e625f5f3",
  "2106": "10a23",
  "2107": "0669",
  "2108": "657274",
  "2109": "005835303",
  "2110": "115",
  "2111": "649",
  "2112": "01f",
  "2113": "4db",
  "2114": "272",
  "2115": "079",
  "2116": "13a",
  "2117": "059",
  "2118": "62e",
  "2119": "034",
  "2120": "25b",
  "2121": "0273",
  "2122": "112",
  "2123": "12498bff488bf3ff15",
  "2124": "1b808",
  "2125": "0600393f",
  "2126": "0600498bf",
  "2127": "0488d6c243048897d",
  "2128": "28ffffff",
  "2129": "23010000",
  "2130": "9b040c01",
  "2131": "02200",
  "2132": "a8e4038001000000a8e4038001000000a8e4038001000000a8e4038001000000a8e4038001000000a8e4038001000000a8e4038001000000a8e4038001000000",
  "2133": "013e843",
  "2134": "011300071512",
  "2135": "013e101512",
  "2136": "001b",
  "2137": "7374",
  "2138": "6178",
  "2139": "456e",
  "2140": "313",
  "2141": "687474",
  "2142": "2e636f6d2f",
  "2143": "060355040313",
  "2144": "703a2f2f",
  "2145": "42a",
  "2146": "26f",
  "2147": "153",
  "2148": "0bb",
  "2149": "616d",
  "2150": "7501",
  "2151": "20200",
  "2152": "6b00",
  "2153": "10000",
  "2154": "0000038e403008",
  "2155": "9300",
  "2156": "00600",
  "2157": "7f08",
  "2158": "488b15",
  "2159": "0600498bffff15",
  "2160": "4883c4085b5d",
  "2161": "0807de800740a488b7de0ff15",
  "2162": "de000740a488b7d",
  "2163": "6fff000006",
  "2164": "1e027b",
  "2165": "0a160b061201282b00000a027b",
  "2166": "4a42930b",
  "2167": "436f6d706c657465",
  "2168": "0a01",
  "2169": "151280c401130015118185021180b01300",
  "2170": "151221011301",
  "2171": "09008",
  "2172": "140023e3e",
  "2173": "151275013e2c5015128",
  "2174": "023e3e1015128",
  "2175": "013e1652",
  "2176": "0c000000",
  "2177": "040000",
  "2178": "756c74",
  "2179": "696c",
  "2180": "f5f",
  "2181": "0a3",
  "2182": "443",
  "2183": "1bc",
  "2184": "69006f006e",
  "2185": "004400",
  "2186": "05043",
  "2187": "29b",
  "2188": "005a",
  "2189": "23a",
  "2190": "0109",
  "2191": "663",
  "2192": "10200",
  "2193": "3ff",
  "2194": "262b",
  "2195": "26d",
  "2196": "1f8",
  "2197": "0f4",
  "2198": "4dc",
  "2199": "002e005400",
  "2200": "b2b",
  "2201": "22b",
  "2202": "2800",
  "2203": "0679",
  "2204": "d0c",
  "2205": "6f69",
  "2206": "616e6365",
  "2207": "4883c4085b5dc3",
  "2208": "4157415",
  "2209": "0600488945",
  "2210": "7808ff",
  "2211": "7808ff501",
  "2212": "0fb6c",
  "2213": "00000045",
  "2214": "cff15",
  "2215": "5541574156415541545350488b2f48892c24488d6d",
  "2216": "55415741564155534883ec10488d6c243048897d",
  "2217": "488b47",
  "2218": "85c00f85",
  "2219": "48a5",
  "2220": "78ffffff",
  "2221": "00000000000002000000",
  "2222": "0a027b",
  "2223": "03000628",
  "2224": "25010006",
  "2225": "257b",
  "2226": "70300",
  "2227": "0900c",
  "2228": "040000009118574be600",
  "2229": "e51b",
  "2230": "536f75726365",
  "2231": "151280c40113001180b",
  "2232": "8e403800100000078e403800100000078e403800100000078e403800100000078e403800100000078e403800100000078e403800100000078e40380010000007",
  "2233": "0715128168023e3e",
  "2234": "2e00",
  "2235": "705",
  "2236": "73656d",
  "2237": "73656d626c",
  "2238": "73696f6e",
  "2239": "746572",
  "2240": "61746f72",
  "2241": "039",
  "2242": "1003",
  "2243": "7073",
  "2244": "1ff",
  "2245": "d0b",
  "2246": "97d",
  "2247": "c04",
  "2248": "07a",
  "2249": "114",
  "2250": "069",
  "2251": "08040008",
  "2252": "043003f0015038e40300",
  "2253": "8000000",
  "2254": "22c01",
  "2255": "006",
  "2256": "2e73",
  "2257": "9212",
  "2258": "0cde",
  "2259": "6616c7565",
  "2260": "6f756e64",
  "2261": "6574696f6e",
  "2262": "0600488bd8ff15",
  "2263": "488d3c",
  "2264": "4883c4085b415e415f5dc3",
  "2265": "d8488d75",
  "2266": "284d8b",
  "2267": "418bf",
  "2268": "0a000000",
  "2269": "2a000000",
  "2270": "2a000001",
  "2271": "2a02",
  "2272": "011000000",
  "2273": "00000a26",
  "2274": "03300300",
  "2275": "c5030006",
  "2276": "01000a258",
  "2277": "1355",
  "2278": "06f73",
  "2279": "006765745f",
  "2280": "1e001e01",
  "2281": "6f0900",
  "2282": "0900e",
  "2283": "11c013e8",
  "2284": "9217a",
  "2285": "01000001",
  "2286": "2e3",
  "2287": "060000",
  "2288": "905",
  "2289": "697374",
  "2290": "7943",
  "2291": "696e674",
  "2292": "607",
  "2293": "7a3",
  "2294": "790073",
  "2295": "05043412",
  "2296": "014",
  "2297": "687474703a2f2f",
  "2298": "6963726f736f66742e636f6d2f",
  "2299": "6963726f736f66742e636f6d2f706",
  "2300": "0fa",
  "2301": "11d",
  "2302": "4d6963726f736f6674205",
  "2303": "785",
  "2304": "0002",
  "2305": "1953",
  "2306": "696d652d",
  "2307": "696d652d5374",
  "2308": "696d652d5374616d",
  "2309": "696d652d5374616d702",
  "2310": "0728",
  "2311": "03e",
  "2312": "693",
  "2313": "0503",
  "2314": "18b",
  "2315": "004200",
  "2316": "063005e003f00150000038e40300",
  "2317": "696e6b",
  "2318": "63657373",
  "2319": "488bec",
  "2320": "93f5d",
  "2321": "488bfce8",
  "2322": "10488d05",
  "2323": "554157534883ec10488d6c242048897de84c8bff",
  "2324": "0500498bffff15",
  "2325": "0500488bf0488d7d",
  "2326": "000000a",
  "2327": "032d0b72",
  "2328": "2d102",
  "2329": "0000110228",
  "2330": "2a1e02281100000a2a",
  "2331": "0b16",
  "2332": "000000027b",
  "2333": "02000a2acccccc",
  "2334": "0c06000a",
  "2335": "0300c",
  "2336": "70200",
  "2337": "63686564",
  "2338": "66666572",
  "2339": "151280c8011300",
  "2340": "700900",
  "2341": "6e0900",
  "2342": "3c013e",
  "2343": "134013e8",
  "2344": "13148",
  "2345": "004173",
  "2346": "436f6e73",
  "2347": "757265",
  "2348": "2de",
  "2349": "735",
  "2350": "15b",
  "2351": "65b",
  "2352": "063",
  "2353": "0fd",
  "2354": "11e",
  "2355": "673",
  "2356": "62f",
  "2357": "2408",
  "2358": "60d",
  "2359": "64c",
  "2360": "2865",
  "2361": "0207",
  "2362": "66b",
  "2363": "720f",
  "2364": "837d",
  "2365": "d403",
  "2366": "0e9",
  "2367": "209",
  "2368": "030300030202300150000038e4030019",
  "2369": "0705000702063005e003f00150000038e40300",
  "2370": "0000000019",
  "2371": "405",
  "2372": "03008",
  "2373": "546f",
  "2374": "5541574156415541545350488d6c243",
  "2375": "0488965d",
  "2376": "05b415f5dc3554157534883ec10488b2f48892c24488d6d",
  "2377": "4883c4085b415e415f5d48ff20",
  "2378": "0488965b",
  "2379": "0488bfbff15",
  "2380": "0498bff",
  "2381": "55415741565350488d6c242048897d",
  "2382": "4d85f6",
  "2383": "554157534883ec10488d6c242048897de84c8bff488bde498b3fff15",
  "2384": "c745",
  "2385": "c0488b",
  "2386": "0500ff15",
  "2387": "050085c075",
  "2388": "a203",
  "2389": "02284400000a",
  "2390": "0c027b",
  "2391": "250a7d",
  "2392": "0a05",
  "2393": "04000a027c",
  "2394": "01009",
  "2395": "e51b1201",
  "2396": "8b0030000",
  "2397": "00195a",
  "2398": "6765745f5",
  "2399": "151281110213001301",
  "2400": "151280c503130013011302",
  "2401": "8e403800100000088e403800100000088e403800100000088e403800100000088e403800100000088e403800100000088e403800100000088e403800100000088e403800100000088e403800100000088e403800100000088e403800100000088e403800100000088e403800100000088e403800100000088e40380010000008",
  "2402": "08c013e8",
  "2403": "160023e3e",
  "2404": "170023e3e",
  "2405": "135015128",
  "2406": "151280c40113008",
  "2407": "e43",
  "2408": "41a",
  "2409": "525",
  "2410": "552",
  "2411": "068",
  "2412": "69006e00",
  "2413": "00740065006d",
  "2414": "00000000000000000000000000000000000000000000000000000000000000000000000000000000000000000000000000000000000000000000000000000000000000000000000000000000000000000000000000000000000000000000000000000000000000000000000000000000000000000000000000000000000000000000000000000000000000000000000000000000000000000000000000000000000000000000000000000000000000000000000000000000000000000000000000000000000000000000000000000000000000000000000000000000000000000000000000000000000000000000000000000000000000000000000000000000",
  "2415": "723",
  "2416": "25a",
  "2417": "098",
  "2418": "314",
  "2419": "79a",
  "2420": "17a",
  "2421": "768",
  "2422": "0af",
  "2423": "a2b",
  "2424": "18a",
  "2425": "55a",
  "2426": "61e",
  "2427": "7f2",
  "2428": "5612",
  "2429": "0dc",
  "2430": "775",
  "2431": "62b",
  "2432": "004f00",
  "2433": "0020000",
  "2434": "0b07000b020a3009c007d005e003f00150000038e40300",
  "2435": "0428",
  "2436": "094",
  "2437": "49d",
  "2438": "0047",
  "2439": "0b05",
  "2440": "140a",
  "2441": "4803",
  "2442": "6578",
  "2443": "6d15",
  "2444": "394",
  "2445": "e101",
  "2446": "4883c4185b",
  "2447": "555350488b2f48892c24488d6d",
  "2448": "0600904883c4105b",
  "2449": "488bfb4c8d1d",
  "2450": "85c00f8",
  "2451": "0404",
  "2452": "0500cc",
  "2453": "fe150700001b",
  "2454": "a300000a",
  "2455": "09002",
  "2456": "73a0600",
  "2457": "110003",
  "2458": "110003715",
  "2459": "1581601",
  "2460": "591601",
  "2461": "300c7",
  "2462": "300c70b",
  "2463": "5958b0030000",
  "2464": "0200f",
  "2465": "457863657074696f6e",
  "2466": "f31003c",
  "2467": "466f72",
  "2468": "061512",
  "2469": "015124c",
  "2470": "10923",
  "2471": "763",
  "2472": "0000009",
  "2473": "0ca",
  "2474": "6963617465",
  "2475": "00417373656d626c",
  "2476": "7061",
  "2477": "21c",
  "2478": "446973",
  "2479": "14d",
  "2480": "0500038",
  "2481": "0a4",
  "2482": "058",
  "2483": "7f5",
  "2484": "0801",
  "2485": "06082b06010505",
  "2486": "7777",
  "2487": "7777772",
  "2488": "7777772e6d",
  "2489": "d06092a864886f70d01010b",
  "2490": "4be",
  "2491": "7db",
  "2492": "217a",
  "2493": "04bc",
  "2494": "b53",
  "2495": "71b",
  "2496": "0c8",
  "2497": "06e",
  "2498": "65726963",
  "2499": "184",
  "2500": "3c93",
  "2501": "004e002f",
  "2502": "083007d005e003f0015038e40300",
  "2503": "3901",
  "2504": "02008",
  "2505": "0c08",
  "2506": "0828",
  "2507": "159",
  "2508": "062",
  "2509": "c92",
  "2510": "0010000",
  "2511": "7572",
  "2512": "5553",
  "2513": "ff75",
  "2514": "7808ff5018",
  "2515": "e0498bfc498bf5ff15",
  "2516": "807b",
  "2517": "7f18",
  "2518": "dff15",
  "2519": "0807de000740a488b7d",
  "2520": "4157535048893c24",
  "2521": "050041ff13",
  "2522": "040049",
  "2523": "00000a2d",
  "2524": "738400000a258",
  "2525": "082c06",
  "2526": "01000a2acccc",
  "2527": "01000a28",
  "2528": "a00000000",
  "2529": "02000a2acccccc32027b",
  "2530": "02000a7d",
  "2531": "040000008308",
  "2532": "22d02",
  "2533": "00000100b054",
  "2534": "0915128",
  "2535": "1511818502151280c401130015118185021180b01300",
  "2536": "15128125011300151281250113011512812501",
  "2537": "02005",
  "2538": "1ac013e83",
  "2539": "14c033e3e3e8",
  "2540": "64b0a",
  "2541": "6475",
  "2542": "456e756d6572",
  "2543": "16d",
  "2544": "20e",
  "2545": "79b",
  "2546": "00000000000000000000",
  "2547": "2da",
  "2548": "606",
  "2549": "24a",
  "2550": "641",
  "2551": "55c",
  "2552": "6a5",
  "2553": "4939",
  "2554": "02f",
  "2555": "00b",
  "2556": "33a",
  "2557": "1cc",
  "2558": "0bd",
  "2559": "268",
  "2560": "45e",
  "2561": "75b",
  "2562": "728",
  "2563": "149",
  "2564": "6fbe",
  "2565": "0fe",
  "2566": "d5a",
  "2567": "00440061007400",
  "2568": "435",
  "2569": "408",
  "2570": "20d",
  "2571": "41b",
  "2572": "2a5",
  "2573": "0a6",
  "2574": "00fb",
  "2575": "6800",
  "2576": "9295",
  "2577": "f6e",
  "2578": "4a23",
  "2579": "445",
  "2580": "70600",
  "2581": "2005",
  "2582": "f5dc",
  "2583": "0200a",
  "2584": "1206",
  "2585": "6f6d706c657465",
  "2586": "93f5d49ff23",
  "2587": "18488b",
  "2588": "ff15c",
  "2589": "e8488d75",
  "2590": "e4c8bfa",
  "2591": "498b3fff15",
  "2592": "4883c4105b415d",
  "2593": "55415741565350488d6c242048897de",
  "2594": "48837f",
  "2595": "0500488985",
  "2596": "0500393f48ff20488b7f",
  "2597": "04004c8b",
  "2598": "7c1600000afe137b",
  "2599": "0b300200",
  "2600": "0300062d",
  "2601": "07282d00000adc",
  "2602": "2acccc32027b",
  "2603": "01000a7d",
  "2604": "027bb6",
  "2605": "7eb7",
  "2606": "7eb7010004",
  "2607": "03000a2a",
  "2608": "04000a2a",
  "2609": "04000000e109",
  "2610": "6577",
  "2611": "526573657276",
  "2612": "3c54",
  "2613": "0053797374656d2e546872656164696e672e5461736b732e44617461666c6f772e4",
  "2614": "0151280c801",
  "2615": "151280dd",
  "2616": "02130013010715128",
  "2617": "8e403800100000088e40380010000009",
  "2618": "0cc013e8",
  "2619": "190013e",
  "2620": "158023e3e8",
  "2621": "011e0009",
  "2622": "0f00",
  "2623": "03a",
  "2624": "697665",
  "2625": "17e",
  "2626": "e302",
  "2627": "79007300740065006d",
  "2628": "170d",
  "2629": "dd3",
  "2630": "765",
  "2631": "49c",
  "2632": "773",
  "2633": "005d",
  "2634": "0c5",
  "2635": "72b",
  "2636": "7ca",
  "2637": "ffc",
  "2638": "65a",
  "2639": "15c",
  "2640": "d07",
  "2641": "76a",
  "2642": "13b",
  "2643": "cd5",
  "2644": "0c0000",
  "2645": "1309",
  "2646": "1401",
  "2647": "2ab",
  "2648": "725",
  "2649": "0300f",
  "2650": "6401",
  "2651": "474",
  "2652": "0705000702063005e003f00150000038e40300190705000702063005e003f00150000038e4030019",
  "2653": "1108",
  "2654": "001f",
  "2655": "95c",
  "2656": "0c24",
  "2657": "de0c",
  "2658": "0105",
  "2659": "6f757263",
  "2660": "75727265",
  "2661": "060048ff20",
  "2662": "55488bec",
  "2663": "498bc",
  "2664": "3f63",
  "2665": "8b3c",
  "2666": "488b7b1",
  "2667": "0e4889",
  "2668": "10488b75",
  "2669": "ff155",
  "2670": "1b8080000003",
  "2671": "5541574156534883ec",
  "2672": "488bda",
  "2673": "498bd7",
  "2674": "c8488b",
  "2675": "04c8d1d",
  "2676": "48ff205",
  "2677": "34883ec38",
  "2678": "dc800740a488b7d",
  "2679": "3f6ff15",
  "2680": "415fc3cccccccccc",
  "2681": "10393fff15",
  "2682": "dd000740a488b7d",
  "2683": "48ff20ff15",
  "2684": "78ffffffff15",
  "2685": "923010000",
  "2686": "0400488bd8488b35",
  "2687": "042d0b72",
  "2688": "120128",
  "2689": "250100062d102",
  "2690": "250100062d10280a",
  "2691": "250100062d10280a00000672",
  "2692": "250100062d10280a0000067219",
  "2693": "250100062d10280a0000067219050070739700000a7a",
  "2694": "2000a",
  "2695": "02000a2a",
  "2696": "02000a2c",
  "2697": "0301100",
  "2698": "6a703",
  "2699": "0400000081085558a703",
  "2700": "4930b",
  "2701": "cc05",
  "2702": "701000000",
  "2703": "0726f63657373",
  "2704": "6273",
  "2705": "6f756e74",
  "2706": "65015128",
  "2707": "004900",
  "2708": "004b",
  "2709": "666f72",
  "2710": "732e",
  "2711": "646572",
  "2712": "469",
  "2713": "706f73",
  "2714": "35c",
  "2715": "732f",
  "2716": "0a2b06010401823",
  "2717": "302",
  "2718": "050434120323",
  "2719": "973",
  "2720": "1c8",
  "2721": "687474703a2f2f7777772e6d",
  "2722": "f323",
  "2723": "19e",
  "2724": "9b5",
  "2725": "10b3009060355040613025553311330110603550408130a57617368696e67746f6e3110300e060355040713075265646d6f6e64311e301c060355040a13154d6963726f736f667420436f72706f726174696f6e312",
  "2726": "4d6963726f736f66742054",
  "2727": "4d6963726f736f66742054696d652d5374616d702",
  "2728": "653",
  "2729": "907",
  "2730": "18f",
  "2731": "70f",
  "2732": "e45",
  "2733": "0ae",
  "2734": "00d",
  "2735": "212",
  "2736": "695",
  "2737": "294",
  "2738": "16b",
  "2739": "7c5",
  "2740": "030300030202300150000038e40300",
  "2741": "0e07000e22",
  "2742": "198",
  "2743": "032c",
  "2744": "2429",
  "2745": "09200",
  "2746": "026f",
  "2747": "7e08",
  "2748": "44e",
  "2749": "193",
  "2750": "9200",
  "2751": "0200e",
  "2752": "1265",
  "2753": "da3b",
  "2754": "6f756e646564",
  "2755": "26573",
  "2756": "696e675",
  "2757": "498d",
  "2758": "04c8bff",
  "2759": "18488d6c244",
  "2760": "480075",
  "2761": "0498bfe4c8d1d",
  "2762": "498bfe4c8d1d",
  "2763": "3f68975d8488d75",
  "2764": "284d8b2e",
  "2765": "1b808000000393f41ff13",
  "2766": "554157534883ec2",
  "2767": "33f6ff15",
  "2768": "04d85",
  "2769": "e048897d",
  "2770": "0600498d7d",
  "2771": "3c4285b",
  "2772": "0c488bf3ff15",
  "2773": "0488bf8",
  "2774": "08488975",
  "2775": "485b",
  "2776": "0837d",
  "2777": "98ff15",
  "2778": "488b7f18",
  "2779": "17c",
  "2780": "4883c608",
  "2781": "4883c6084883c",
  "2782": "0500ccff15",
  "2783": "050085c074",
  "2784": "0400488bfbff15",
  "2785": "0100000000000004000000",
  "2786": "0000042a",
  "2787": "00000a2a",
  "2788": "02147d",
  "2789": "0b3003",
  "2790": "00000a28",
  "2791": "0f0128250100062d10280a0000067219050070739700000a7a",
  "2792": "2d08",
  "2793": "00001b6f",
  "2794": "01000a2a",
  "2795": "160d",
  "2796": "000002003",
  "2797": "04010006",
  "2798": "161304",
  "2799": "03000a2acccccc32027b",
  "2800": "05000a2a",
  "2801": "05050505",
  "2802": "481601",
  "2803": "f30003c3e395f5f3",
  "2804": "436f6d706c6574696f6e",
  "2805": "4f7574707574",
  "2806": "75657565",
  "2807": "757272656e74",
  "2808": "9536f75726365",
  "2809": "9536f75726365426c6f636b",
  "2810": "656e65726963",
  "2811": "44656275675",
  "2812": "44656275675669",
  "2813": "446562756756696577",
  "2814": "151280bd021300",
  "2815": "1281f8",
  "2816": "15128111021512812501130015128125011301",
  "2817": "151280c50315128125011300151281250113011512812501",
  "2818": "03130013011302",
  "2819": "09009",
  "2820": "790900",
  "2821": "92a2",
  "2822": "760900",
  "2823": "00401512",
  "2824": "124023e3e8",
  "2825": "10c033e3e3e8",
  "2826": "101512",
  "2827": "165015128",
  "2828": "0db",
  "2829": "4b65",
  "2830": "732",
  "2831": "2323",
  "2832": "0065006e",
  "2833": "08201",
  "2834": "7d3",
  "2835": "14e",
  "2836": "1ec",
  "2837": "761",
  "2838": "27b",
  "2839": "13d",
  "2840": "4da",
  "2841": "0aa",
  "2842": "0bf",
  "2843": "9e4",
  "2844": "97b",
  "2845": "90c",
  "2846": "21a",
  "2847": "062c",
  "2848": "191",
  "2849": "09f",
  "2850": "95b",
  "2851": "4501",
  "2852": "7e8",
  "2853": "245",
  "2854": "249",
  "2855": "82f",
  "2856": "6ba",
  "2857": "26b",
  "2858": "62c",
  "2859": "001a",
  "2860": "229",
  "2861": "6108",
  "2862": "0ad",
  "2863": "0018",
  "2864": "0cb",
  "2865": "de00",
  "2866": "c07",
  "2867": "616c69",
  "2868": "0498bfe498bf",
  "2869": "415e415fc3",
  "2870": "5f674",
  "2871": "3d23",
  "2872": "284d8b2eff15",
  "2873": "498bff4c8d1d",
  "2874": "0498bffff15",
  "2875": "4c8be",
  "2876": "4d85ff",
  "2877": "4883c43",
  "2878": "0f57c0440f29",
  "2879": "4883c4105b415d415e415f5d48ff20",
  "2880": "488b7f084c8d1d",
  "2881": "7c2408488b",
  "2882": "c84889",
  "2883": "00f11",
  "2884": "048897dd0488bdf",
  "2885": "dd1e",
  "2886": "488b9538ffffff",
  "2887": "660b",
  "2888": "0602",
  "2889": "00000a7d",
  "2890": "011000000200",
  "2891": "076f",
  "2892": "05007028a100000a",
  "2893": "0b160c07",
  "2894": "0b160c07120228",
  "2895": "0b160c071202282b00000a",
  "2896": "082c0607282d00000adc",
  "2897": "12000228",
  "2898": "01000a26",
  "2899": "2e02000a7b",
  "2900": "1c00000200",
  "2901": "05000a2acccccc",
  "2902": "0100046f",
  "2903": "027b1b05000a7b",
  "2904": "000001001b2000000",
  "2905": "700701000000",
  "2906": "49664",
  "2907": "49664e65",
  "2908": "0053797374656d2e546872656164696e672e5461736b732e44617461666c6f772e49536f75726365426c6f636b",
  "2909": "0215118",
  "2910": "00213001301",
  "2911": "1850202",
  "2912": "005c23",
  "2913": "04bcff",
  "2914": "96e",
  "2915": "20000",
  "2916": "6000000",
  "2917": "139",
  "2918": "0402",
  "2919": "666f726d",
  "2920": "66c",
  "2921": "e83",
  "2922": "ffe",
  "2923": "007200",
  "2924": "69006e0067",
  "2925": "3003",
  "2926": "020101",
  "2927": "53a",
  "2928": "4a5",
  "2929": "63c",
  "2930": "602",
  "2931": "228",
  "2932": "2a4",
  "2933": "66d",
  "2934": "20f",
  "2935": "17d",
  "2936": "44b",
  "2937": "6ec",
  "2938": "429",
  "2939": "0ea",
  "2940": "24b",
  "2941": "585",
  "2942": "07c3",
  "2943": "99b",
  "2944": "016",
  "2945": "72d",
  "2946": "754",
  "2947": "60e",
  "2948": "722",
  "2949": "91d",
  "2950": "661",
  "2951": "274",
  "2952": "70e",
  "2953": "040300043003f0015",
  "2954": "0c06000c12083007d005e003f0015038e40300",
  "2955": "a200",
  "2956": "38a",
  "2957": "9294",
  "2958": "0d00",
  "2959": "4101",
  "2960": "89f",
  "2961": "f94c",
  "2962": "21001",
  "2963": "11a",
  "2964": "02295",
  "2965": "37a",
  "2966": "6f7572636573",
  "2967": "0700488b",
  "2968": "55534883e",
  "2969": "55415753",
  "2970": "55415753488d",
  "2971": "55415753488d6c241",
  "2972": "554157415641554154534883ec18488d6c244",
  "2973": "0042",
  "2974": "0488965c",
  "2975": "807d",
  "2976": "0600488b7d",
  "2977": "04885c",
  "2978": "554157534883ec20488d6c243",
  "2979": "3f68975e8488d75",
  "2980": "488d6c245",
  "2981": "415c415d415e415f5d",
  "2982": "415c415d415e415f5dc3ff15",
  "2983": "0600488b12498bff488bf3ff15",
  "2984": "415c415d415e415f5dc35541574156415541545350488b2f48892c24488d6d",
  "2985": "4533c04",
  "2986": "0ffffff488b",
  "2987": "48ffffff",
  "2988": "0709",
  "2989": "0500904883c4105b415d415e415f5dc3",
  "2990": "0500488b7b",
  "2991": "b917",
  "2992": "00000a2acc",
  "2993": "286500000a",
  "2994": "0b300400",
  "2995": "120072",
  "2996": "01000a2d",
  "2997": "250228",
  "2998": "03000a027b",
  "2999": "03000a2acccccc",
  "3000": "04000a2acc",
  "3001": "05000a28",
  "3002": "030000009600",
  "3003": "0f58a703",
  "3004": "1091a",
  "3005": "6459",
  "3006": "b2000000400",
  "3007": "04514b",
  "3008": "3019303",
  "3009": "5958b0030000cd5",
  "3010": "5958b0030000cd57b",
  "3011": "5958b0030000cd57b0030000",
  "3012": "10b0000",
  "3013": "49664e6563",
  "3014": "49664e656365737361",
  "3015": "77426c6f636b",
  "3016": "003c2e63746f723e625f5f3",
  "3017": "797374656d2e436f6c6c656374696f6e732e47",
  "3018": "797374656d2e436f6c6c656374696f6e732e47656e65726963",
  "3019": "650900",
  "3020": "770900",
  "3021": "1c013e",
  "3022": "124023e3e",
  "3023": "9023e3e",
  "3024": "135015118",
  "3025": "c000000",
  "3026": "6572746966",
  "3027": "65727469666963617465",
  "3028": "74656e",
  "3029": "64a",
  "3030": "69006300",
  "3031": "6eb",
  "3032": "0b13",
  "3033": "706572",
  "3034": "687474703a2f2f7777772e6d6963726f736f66742e636f6d2f706",
  "3035": "63726c",
  "3036": "0500038202",
  "3037": "72a",
  "3038": "9cc",
  "3039": "719",
  "3040": "178",
  "3041": "0818",
  "3042": "3eb",
  "3043": "28b",
  "3044": "713",
  "3045": "714",
  "3046": "f4c",
  "3047": "16a",
  "3048": "1bd",
  "3049": "46f",
  "3050": "618",
  "3051": "69b",
  "3052": "498",
  "3053": "424",
  "3054": "a25",
  "3055": "43b",
  "3056": "3e08",
  "3057": "90e",
  "3058": "2c00200",
  "3059": "72006500",
  "3060": "0e07000e220a3009c007d005e003f00150000038e40300",
  "3061": "702c",
  "3062": "0804000812043003f0015038e40300",
  "3063": "0e42",
  "3064": "107",
  "3065": "604",
  "3066": "c02",
  "3067": "2b01",
  "3068": "0e06",
  "3069": "f000000",
  "3070": "7265617465",
  "3071": "4361",
  "3072": "83f8",
  "3073": "488bde",
  "3074": "4c8b73",
  "3075": "554157534883ec20488d6c2430488965d",
  "3076": "4885db74",
  "3077": "74c8d1d",
  "3078": "f48ff20",
  "3079": "94000000",
  "3080": "4d85ff74",
  "3081": "3c4385b",
  "3082": "0d488bbd",
  "3083": "9209",
  "3084": "0500498b",
  "3085": "0400488945",
  "3086": "0b300300",
  "3087": "45040070733f00000a7a",
  "3088": "16fe01",
  "3089": "28c5030006",
  "3090": "7300000a6fbe",
  "3091": "26010006",
  "3092": "320374",
  "3093": "03000a2acc",
  "3094": "e4b0600",
  "3095": "032110003715",
  "3096": "70100",
  "3097": "7b32",
  "3098": "94f6d15",
  "3099": "f7310000",
  "3100": "f731000003001",
  "3101": "f731000003001b2000000400",
  "3102": "f731000003001b20000004006459",
  "3103": "49664e6563657373617279",
  "3104": "72616e",
  "3105": "6f696e4",
  "3106": "797374656d2e436f6c6c656374696f6e732e47656e657269632e4",
  "3107": "3e2e4",
  "3108": "64006765745f",
  "3109": "3c53",
  "3110": "67676572",
  "3111": "12808",
  "3112": "0e501",
  "3113": "20010115128",
  "3114": "07151280e8",
  "3115": "0e0013e8",
  "3116": "4015128248013e84",
  "3117": "0fc023e3e8",
  "3118": "15128129023e3e",
  "3119": "013e101511818502",
  "3120": "7a05a",
  "3121": "9264b0a",
  "3122": "4cc",
  "3123": "0c00000000",
  "3124": "6c000000",
  "3125": "605",
  "3126": "616e64",
  "3127": "616d65",
  "3128": "0726f6475",
  "3129": "0e05",
  "3130": "706c61",
  "3131": "738",
  "3132": "07200",
  "3133": "3800",
  "3134": "0165",
  "3135": "8bb",
  "3136": "67b",
  "3137": "919",
  "3138": "74b",
  "3139": "060355040b13",
  "3140": "696d",
  "3141": "0b6",
  "3142": "68d",
  "3143": "459",
  "3144": "1c3",
  "3145": "41e",
  "3146": "67f",
  "3147": "cca",
  "3148": "0d8",
  "3149": "cc4",
  "3150": "b55",
  "3151": "a12",
  "3152": "1a3",
  "3153": "635",
  "3154": "e02",
  "3155": "004400610074006100",
  "3156": "79f",
  "3157": "55b",
  "3158": "71d",
  "3159": "79d",
  "3160": "e475",
  "3161": "8d5",
  "3162": "6865",
  "3163": "7b5",
  "3164": "66006c006f00",
  "3165": "66006c006f0077",
  "3166": "6f007500",
  "3167": "0804000832",
  "3168": "0804000832043003f0015038e40300",
  "3169": "0e07000e42",
  "3170": "1101",
  "3171": "7de",
  "3172": "2401",
  "3173": "692",
  "3174": "2f18",
  "3175": "1e02",
  "3176": "f3b",
  "3177": "0d4",
  "3178": "523",
  "3179": "0200d",
  "3180": "55534883ec",
  "3181": "5dc3555350488b2f48892c24488d6d",
  "3182": "0488bd",
  "3183": "20498bf",
  "3184": "30488b",
  "3185": "498bf5488bd3",
  "3186": "3f68975e8488d75e8ff15",
  "3187": "488d7dd0ff15",
  "3188": "554157415641554154534883ec28",
  "3189": "0488965b048897d",
  "3190": "60807",
  "3191": "0488bdf4c8bf6",
  "3192": "34883ec104889",
  "3193": "d848897d",
  "3194": "7a1",
  "3195": "254",
  "3196": "0600488b7db8",
  "3197": "80ff15",
  "3198": "68ffffff",
  "3199": "08ffffff",
  "3200": "417",
  "3201": "0500488bf8488bc34885c0740e4839387409488bf3ff15",
  "3202": "3c44",
  "3203": "0500488bd8ff15",
  "3204": "01000023000001",
  "3205": "0c02",
  "3206": "0d09",
  "3207": "3a02281100000a02037d",
  "3208": "2a1e027b",
  "3209": "28a000000a",
  "3210": "176a",
  "3211": "01000a73",
  "3212": "6fbe01000a2c",
  "3213": "6166f",
  "3214": "257bb3010004",
  "3215": "6104000a",
  "3216": "000ad5a",
  "3217": "6009714",
  "3218": "0040000008",
  "3219": "293501",
  "3220": "2b591601",
  "3221": "000001003a",
  "3222": "00000100dd1e",
  "3223": "205a00000000",
  "3224": "4173796e6349664e6563657373617279",
  "3225": "4f6e",
  "3226": "005f74",
  "3227": "003c3e395f5f3",
  "3228": "d207b",
  "3229": "d1300",
  "3230": "151280c4011301",
  "3231": "13d01",
  "3232": "10100",
  "3233": "02202",
  "3234": "000c000c000c000c",
  "3235": "780900",
  "3236": "4390100",
  "3237": "d0300",
  "3238": "05401512",
  "3239": "4015128134013e8",
  "3240": "10c033e3e3e81d",
  "3241": "13401512822c013e843",
  "3242": "015118185023e",
  "3243": "033e3e3e1015128",
  "3244": "151280c4011300809a",
  "3245": "4d5",
  "3246": "1eb",
  "3247": "000005",
  "3248": "0d3",
  "3249": "72c",
  "3250": "6d0065006e",
  "3251": "453b",
  "3252": "3db",
  "3253": "219",
  "3254": "0418",
  "3255": "1604",
  "3256": "a04",
  "3257": "908",
  "3258": "64e",
  "3259": "6b75",
  "3260": "1303",
  "3261": "2e72",
  "3262": "68a",
  "3263": "79c",
  "3264": "6d3",
  "3265": "0b9",
  "3266": "7f4",
  "3267": "325",
  "3268": "7b3",
  "3269": "71e",
  "3270": "0c2b",
  "3271": "785c",
  "3272": "83b",
  "3273": "20c",
  "3274": "375",
  "3275": "129",
  "3276": "2902",
  "3277": "064",
  "3278": "133",
  "3279": "7dd",
  "3280": "60a",
  "3281": "55d",
  "3282": "1c010000",
  "3283": "0230015",
  "3284": "027e",
  "3285": "0000038e40300818",
  "3286": "001c",
  "3287": "0d12",
  "3288": "44f",
  "3289": "6c5",
  "3290": "04c8",
  "3291": "0f95",
  "3292": "004a",
  "3293": "8ba",
  "3294": "538a",
  "3295": "1585",
  "3296": "626572",
  "3297": "2074",
  "3298": "706163",
  "3299": "7061636974",
  "3300": "ff15a",
  "3301": "0600488bf84c8d1d",
  "3302": "ff15e",
  "3303": "3c3",
  "3304": "488bfa",
  "3305": "05b415d415e415f5dc355415741564155534883ec10488b2f48892c24488d6d",
  "3306": "0807dd800740a488b7dc8ff15",
  "3307": "448bfe",
  "3308": "d8bec",
  "3309": "7e18",
  "3310": "488b7dc8ff15",
  "3311": "05b415f5dc3554157534883ec10488b2f48892c24488d6d3",
  "3312": "4883c4085b415c415d415e415f5dc3",
  "3313": "0488bdf4c8bfe4",
  "3314": "4883c4285b",
  "3315": "488b5",
  "3316": "e000000",
  "3317": "4883c4105b415f5d48ff20",
  "3318": "34883ec1048897c2408488b",
  "3319": "0600488b36488bfbff15",
  "3320": "0600488bf8488bc34885c0740e4839387409488bf3ff15",
  "3321": "033c089",
  "3322": "4584",
  "3323": "3c03",
  "3324": "488b4d",
  "3325": "0807dd000740a488b7d",
  "3326": "d80074",
  "3327": "4533c0453",
  "3328": "8ffffff",
  "3329": "20ffffff",
  "3330": "3e32",
  "3331": "0000f85",
  "3332": "488b7dd8ff15",
  "3333": "4dc8",
  "3334": "60100",
  "3335": "072c",
  "3336": "0400488bf8ff15",
  "3337": "00000a1200",
  "3338": "7300000a6fbe00000a26",
  "3339": "021628",
  "3340": "03300600",
  "3341": "2c0609",
  "3342": "16010006",
  "3343": "02000a12",
  "3344": "c002000a",
  "3345": "03000a6f37",
  "3346": "0d161304",
  "3347": "04000a73",
  "3348": "05000a2acc",
  "3349": "05000a7d",
  "3350": "06000a6f",
  "3351": "011000ad5a",
  "3352": "2b3501",
  "3353": "04000000e1090f58a703",
  "3354": "040000008318514b",
  "3355": "dc34930b",
  "3356": "423",
  "3357": "0e5000000100",
  "3358": "00000200375",
  "3359": "0b029303",
  "3360": "630d2f18",
  "3361": "3943c",
  "3362": "00af1400000000",
  "3363": "6c6f77",
  "3364": "436f7265",
  "3365": "616e63656c6c",
  "3366": "6273657276",
  "3367": "706f6e",
  "3368": "6f696e426c6f636b",
  "3369": "436f756e74",
  "3370": "3c543",
  "3371": "4465627567566965770000",
  "3372": "151280c001",
  "3373": "00113000715128",
  "3374": "19901",
  "3375": "1281a",
  "3376": "151280c503151281250113001512812501130115128125011302",
  "3377": "58e403800100000058e403800100000058e403800100000058e403800100000058e403800100000058e403800100000058e403800100000058e403800100000058e403800100000058e403800100000058e403800100000058e403800100000058e403800100000058e403800100000058e403800100000058e403800100000058e403800100000058e403800100000058e403800100000058e403800100000058e403800100000058e403800100000058e403800100000058e403800100000058e403800100000058e403800100000058e403800100000058e403800100000058e403800100000058e403800100000058e403800100000058e403800100000058e403800100000058e403800100000058e403800100000058e403800100000058e403800100000058e403800100000058e403800100000058e403800100000058e403800100000058e403800100000058e403800100000058e403800100000058e403800100000058e403800100000058e403800100000058e403800100000058e403800100000058e403800100000058e403800100000058e403800100000058e403800100000058e403800100000058e403800100000058e403800100000058e403800100000058e403800100000058e403800100000058e403800100000058e403800100000058e403800100000058e403800100000058e4038001000000",
  "3378": "570900",
  "3379": "64015128",
  "3380": "023e3e83",
  "3381": "c5015128",
  "3382": "2c501512",
  "3383": "13108",
  "3384": "1340151280e8013e8",
  "3385": "603213",
  "3386": "9293",
  "3387": "a293",
  "3388": "234a23",
  "3389": "12203",
  "3390": "6f6465",
  "3391": "44000000",
  "3392": "2900",
  "3393": "04100",
  "3394": "00417373656d626c79",
  "3395": "696f6e41",
  "3396": "457874656e",
  "3397": "94b",
  "3398": "456e756d657261746f72",
  "3399": "6572766963",
  "3400": "7301",
  "3401": "446973706c61",
  "3402": "004600",
  "3403": "6e007300",
  "3404": "72006f00",
  "3405": "65000000",
  "3406": "d0609",
  "3407": "d0609608",
  "3408": "d0609608648",
  "3409": "d06096086480165",
  "3410": "d060960864801650304",
  "3411": "d0609608648016503040201",
  "3412": "0a2b06010401823702",
  "3413": "0df",
  "3414": "1333",
  "3415": "0504341203230313",
  "3416": "170d323",
  "3417": "2049",
  "3418": "7065726174696f6e",
  "3419": "e55",
  "3420": "b696f",
  "3421": "b696f7073",
  "3422": "b696f70732f",
  "3423": "4d6963",
  "3424": "031315",
  "3425": "1e8",
  "3426": "fb6f",
  "3427": "49a",
  "3428": "3ba",
  "3429": "edd",
  "3430": "092b06010401823",
  "3431": "6801",
  "3432": "526f",
  "3433": "06082b0601050507",
  "3434": "081d",
  "3435": "895",
  "3436": "005b",
  "3437": "f32",
  "3438": "19c",
  "3439": "475",
  "3440": "404",
  "3441": "615",
  "3442": "2a3",
  "3443": "624",
  "3444": "02300150000038e40300",
  "3445": "010100015",
  "3446": "0c06000c12083007d005e003f0015038e40300190c06000c12083007d005e003f0015038e4030019",
  "3447": "8bc",
  "3448": "48c",
  "3449": "f5c",
  "3450": "63b",
  "3451": "179",
  "3452": "71c",
  "3453": "893",
  "3454": "4008",
  "3455": "1501",
  "3456": "2200",
  "3457": "f85",
  "3458": "a2d",
  "3459": "174",
  "3460": "1b9",
  "3461": "0474",
  "3462": "e902",
  "3463": "1045",
  "3464": "072d",
  "3465": "769",
  "3466": "670065",
  "3467": "6f756e6465644361",
  "3468": "6f756e64656443617061636974",
  "3469": "0fb6",
  "3470": "20488d05",
  "3471": "488b3",
  "3472": "0600488bd8",
  "3473": "ff15b",
  "3474": "0600488bd8488b35",
  "3475": "483b",
  "3476": "7c241",
  "3477": "488b43",
  "3478": "488bdf4c8bf",
  "3479": "10498bf6ff15",
  "3480": "85c07",
  "3481": "488b7f104c8d1d",
  "3482": "498bfe498b",
  "3483": "5d275",
  "3484": "26010000",
  "3485": "dc00074",
  "3486": "4883c4385b",
  "3487": "3c9ff15",
  "3488": "0ffffffff",
  "3489": "488b7808ff5018",
  "3490": "36498bffff15",
  "3491": "18488b75",
  "3492": "18488d",
  "3493": "0488d6c245",
  "3494": "45b8",
  "3495": "33c9",
  "3496": "488dac",
  "3497": "70ffffff",
  "3498": "488dbd",
  "3499": "0500393f41ff1385c074",
  "3500": "0500488bd8488b35",
  "3501": "df0500",
  "3502": "e91b",
  "3503": "162a",
  "3504": "2600",
  "3505": "03300200",
  "3506": "02fe137b",
  "3507": "0a160b061201282b00000a",
  "3508": "14fe03",
  "3509": "001e28",
  "3510": "030405",
  "3511": "01000a027b",
  "3512": "01000a2acccccc",
  "3513": "010006250228",
  "3514": "7028a100000a12000228",
  "3515": "02000a73",
  "3516": "02000a2d",
  "3517": "7db3010004",
  "3518": "1205",
  "3519": "0d1613040912",
  "3520": "0d161304091204",
  "3521": "11042c0609",
  "3522": "11042c0609282d00000adc",
  "3523": "03000a73",
  "3524": "04000a1200",
  "3525": "0806",
  "3526": "027b0c06000a",
  "3527": "a71d",
  "3528": "7770b",
  "3529": "1355990b",
  "3530": "7661",
  "3531": "785c1201",
  "3532": "60200",
  "3533": "00000100234700000200f731000003001b20000004006459",
  "3534": "02000300",
  "3535": "ec18",
  "3536": "000001003a1c00000200",
  "3537": "0c05",
  "3538": "93038",
  "3539": "74706f6e",
  "3540": "61746368",
  "3541": "005265",
  "3542": "4974656d73",
  "3543": "65644d657373616765",
  "3544": "006765745f5",
  "3545": "4d6178",
  "3546": "200102",
  "3547": "151280c4011e00",
  "3548": "151280d",
  "3549": "68011300",
  "3550": "1512590112808d",
  "3551": "12902",
  "3552": "00715128",
  "3553": "1512825c",
  "3554": "600900",
  "3555": "620900",
  "3556": "630900",
  "3557": "134015128248013e84",
  "3558": "124023e3e82",
  "3559": "158023e3e82d",
  "3560": "011e00091106",
  "3561": "0769",
  "3562": "10d23",
  "3563": "34a51a",
  "3564": "1c828",
  "3565": "1c828002",
  "3566": "005374",
  "3567": "0053797374656d2e",
  "3568": "6e74696d65",
  "3569": "949",
  "3570": "613",
  "3571": "3cf",
  "3572": "0c9",
  "3573": "726f",
  "3574": "4973",
  "3575": "2b5",
  "3576": "6c8",
  "3577": "22a",
  "3578": "617365",
  "3579": "073",
  "3580": "61006c",
  "3581": "7003",
  "3582": "00308",
  "3583": "a99",
  "3584": "cc5",
  "3585": "4ab",
  "3586": "160a",
  "3587": "f99",
  "3588": "999",
  "3589": "748",
  "3590": "358",
  "3591": "e9a",
  "3592": "9ca",
  "3593": "75d",
  "3594": "a27a",
  "3595": "255",
  "3596": "259",
  "3597": "1405",
  "3598": "7308",
  "3599": "8b5",
  "3600": "d63",
  "3601": "273",
  "3602": "14f",
  "3603": "48f",
  "3604": "2aa",
  "3605": "021a",
  "3606": "7b4",
  "3607": "dca",
  "3608": "0000f8",
  "3609": "23b",
  "3610": "012c",
  "3611": "638",
  "3612": "6ed",
  "3613": "161305",
  "3614": "61007300",
  "3615": "67007500",
  "3616": "0424",
  "3617": "06030006",
  "3618": "040300043003f00150000038e40300",
  "3619": "00000038e403000100",
  "3620": "461",
  "3621": "0073",
  "3622": "b01",
  "3623": "1406",
  "3624": "8b0e",
  "3625": "438",
  "3626": "14a",
  "3627": "1603",
  "3628": "c600",
  "3629": "244",
  "3630": "6004",
  "3631": "448",
  "3632": "6502",
  "3633": "0012",
  "3634": "0000f84",
  "3635": "009",
  "3636": "0a9",
  "3637": "f84",
  "3638": "12d",
  "3639": "e04",
  "3640": "897d",
  "3641": "03ff",
  "3642": "3433",
  "3643": "0600488b3d",
  "3644": "0600cc",
  "3645": "833c089",
  "3646": "5ff15",
  "3647": "0488bf0ff15",
  "3648": "f674",
  "3649": "40488965c",
  "3650": "060085c074",
  "3651": "04883c4085b",
  "3652": "488bfb488d05",
  "3653": "4883c4085b5d48ff20",
  "3654": "75284d8b2eff15",
  "3655": "000f85",
  "3656": "904883c4085b415c415d415e415f5dc3",
  "3657": "b901000000",
  "3658": "04989",
  "3659": "e033f68975e8488d75e8ff15",
  "3660": "4c8d1dc",
  "3661": "d0498bf",
  "3662": "498bfe498bd7",
  "3663": "498bd7498b",
  "3664": "0174",
  "3665": "10488bfb",
  "3666": "55415741564155534883ec10488d6c243048897dd8488b",
  "3667": "488b55a8",
  "3668": "4d85ed74",
  "3669": "dc49",
  "3670": "beffffffff",
  "3671": "5006",
  "3672": "498bfcff15",
  "3673": "88ff15",
  "3674": "488d7db0ff15",
  "3675": "729",
  "3676": "488b7b0848897d",
  "3677": "0500488bd8488bfbff15",
  "3678": "00007c",
  "3679": "010000000000000a000000",
  "3680": "077b",
  "3681": "00000673",
  "3682": "9202",
  "3683": "6ffd",
  "3684": "1628d4",
  "3685": "0000110f0128250100062d10280a0000067219050070739700000a7a",
  "3686": "9a00000a",
  "3687": "01000afe06",
  "3688": "282d00002b",
  "3689": "3c01000a26",
  "3690": "02000a2acc",
  "3691": "04000a2d",
  "3692": "04000afe06",
  "3693": "5b04000a",
  "3694": "04000a12",
  "3695": "8f010004",
  "3696": "9100",
  "3697": "c205000a",
  "3698": "fc2c",
  "3699": "03009",
  "3700": "14ba",
  "3701": "5527770b",
  "3702": "923a0200",
  "3703": "02000300ec18",
  "3704": "02000300ec1800000100234700000200b054",
  "3705": "02000300ec1800000100234700000200b05400000100234700000200b054",
  "3706": "00000200375000000100",
  "3707": "9304",
  "3708": "5f53",
  "3709": "436f6e73756d6572",
  "3710": "5175657565",
  "3711": "706167",
  "3712": "0726f647563",
  "3713": "0726f6475636572",
  "3714": "46172676574",
  "3715": "72616e73",
  "3716": "65006765745f",
  "3717": "1180b0151280c801",
  "3718": "151280dd011300",
  "3719": "1c15128",
  "3720": "00900",
  "3721": "640900",
  "3722": "401512811c013e8",
  "3723": "0151182100",
  "3724": "2109",
  "3725": "9212a",
  "3726": "9012a",
  "3727": "92b12",
  "3728": "12f",
  "3729": "48000000",
  "3730": "755",
  "3731": "5275",
  "3732": "457874656e73696f6e",
  "3733": "a5d",
  "3734": "d50a",
  "3735": "9d5",
  "3736": "69006c00",
  "3737": "4308",
  "3738": "1fc",
  "3739": "12d3",
  "3740": "01ff",
  "3741": "21b",
  "3742": "77e",
  "3743": "63e",
  "3744": "67a",
  "3745": "2b3",
  "3746": "2cc",
  "3747": "a05",
  "3748": "78a",
  "3749": "17b",
  "3750": "043b",
  "3751": "1cd",
  "3752": "2eb",
  "3753": "799",
  "3754": "913",
  "3755": "7d08",
  "3756": "0f01",
  "3757": "6fb",
  "3758": "0be",
  "3759": "0da",
  "3760": "458",
  "3761": "28c",
  "3762": "4ae",
  "3763": "15d",
  "3764": "68c",
  "3765": "f11",
  "3766": "0009",
  "3767": "46174",
  "3768": "208",
  "3769": "1a5",
  "3770": "27a",
  "3771": "4ac",
  "3772": "1ac",
  "3773": "0911",
  "3774": "0f3",
  "3775": "463",
  "3776": "4b03",
  "3777": "e9b",
  "3778": "3e2e",
  "3779": "61006400",
  "3780": "6b007300",
  "3781": "00440061007400610066006c006f0077",
  "3782": "040203",
  "3783": "279",
  "3784": "001d",
  "3785": "cc8a",
  "3786": "449",
  "3787": "6e5",
  "3788": "ca5",
  "3789": "935",
  "3790": "0c11",
  "3791": "215",
  "3792": "10128",
  "3793": "11f",
  "3794": "26c",
  "3795": "8b3",
  "3796": "473",
  "3797": "95d",
  "3798": "0498d",
  "3799": "0b2b",
  "3800": "19b",
  "3801": "80200",
  "3802": "6009",
  "3803": "2c205",
  "3804": "670075006d0065006e",
  "3805": "670075006d0065006e0074",
  "3806": "005200",
  "3807": "6f6e73756d65",
  "3808": "6c65616e",
  "3809": "7a65",
  "3810": "f0ff15",
  "3811": "0600905b",
  "3812": "0907",
  "3813": "0708",
  "3814": "0488bf3ff15",
  "3815": "498bff498bf5488bd3",
  "3816": "498bd4",
  "3817": "06004c8bc8",
  "3818": "904883c42",
  "3819": "4883c4105b415d415e415f5dc3",
  "3820": "04885",
  "3821": "488b7dc0ff15",
  "3822": "3d2ff15",
  "3823": "6500ff15",
  "3824": "0488965a",
  "3825": "0600ccff15",
  "3826": "e4c8b",
  "3827": "415e415f5dc",
  "3828": "48894d",
  "3829": "004c8be8",
  "3830": "4157535048893c24ff15",
  "3831": "0383f",
  "3832": "048897dd048897d",
  "3833": "0498bfd",
  "3834": "4c8bfa",
  "3835": "4533c04533c93",
  "3836": "0600488985",
  "3837": "488d78",
  "3838": "bd30ffffff",
  "3839": "0000005b",
  "3840": "f8feffff",
  "3841": "dc1f",
  "3842": "fe07",
  "3843": "050048a5",
  "3844": "0488b2f48892c24488da",
  "3845": "9550ffffff",
  "3846": "04004c8bf",
  "3847": "59000000",
  "3848": "0000000000000c000000",
  "3849": "000000d1",
  "3850": "090000",
  "3851": "00000a2acccccc",
  "3852": "1e0228",
  "3853": "8e69",
  "3854": "1a00000a",
  "3855": "2a0000011000000",
  "3856": "2806",
  "3857": "00000428",
  "3858": "020e",
  "3859": "6fff03000628",
  "3860": "6fff0300062825",
  "3861": "6fff030006282500002b",
  "3862": "001e287300000a6fbe00000a26",
  "3863": "0d027b",
  "3864": "0000001f",
  "3865": "01000a2acc",
  "3866": "0c160d",
  "3867": "7300000a6f3c01000a26",
  "3868": "3500000adc",
  "3869": "1728",
  "3870": "c4030006",
  "3871": "0225",
  "3872": "03000a252d17267e",
  "3873": "03000a2c",
  "3874": "04000a2acccc",
  "3875": "027b1d",
  "3876": "e71",
  "3877": "030000008",
  "3878": "24660b",
  "3879": "040000009300",
  "3880": "04000000e1011355990b",
  "3881": "4c65",
  "3882": "02000200",
  "3883": "00514b",
  "3884": "3e99",
  "3885": "d81d",
  "3886": "2b000c",
  "3887": "93046808",
  "3888": "3943c10b0000",
  "3889": "5c1f010000",
  "3890": "f5f33",
  "3891": "5f536c6f77",
  "3892": "461736b",
  "3893": "7661696c",
  "3894": "616e63656c6c6174696f6e",
  "3895": "06f7374706f6e",
  "3896": "706c65",
  "3897": "00436f6d706c657465",
  "3898": "00476574",
  "3899": "00547279",
  "3900": "005f63",
  "3901": "200202",
  "3902": "15123c",
  "3903": "1512808901",
  "3904": "15128085011e00",
  "3905": "08501",
  "3906": "1011301",
  "3907": "1281b8",
  "3908": "a8e4038001000000a8e4038001000000a8e4038001000000a8e4038001000000a8e4038001000000a8e4038001000000a8e4038001000000a8e4038001000000a8e4038001000000a8e4038001000000a8e4038001000000a8e4038001000000a8e4038001000000a8e4038001000000a8e4038001000000a8e4038001000000",
  "3909": "60300",
  "3910": "f0900",
  "3911": "740900",
  "3912": "80900",
  "3913": "e0900",
  "3914": "9049",
  "3915": "50013e8",
  "3916": "01512808c013e8",
  "3917": "0f8013e8",
  "3918": "015118210013e8",
  "3919": "401512822c",
  "3920": "238013e8",
  "3921": "4015128140023e3e",
  "3922": "01511818c",
  "3923": "401512810c033e3e3e81d",
  "3924": "15118185023e0a",
  "3925": "13048",
  "3926": "16108",
  "3927": "1ac013e",
  "3928": "a22a",
  "3929": "043703",
  "3930": "3595",
  "3931": "1a518",
  "3932": "004465",
  "3933": "96c",
  "3934": "626a",
  "3935": "697468",
  "3936": "0053797374656d2e4",
  "3937": "46961",
  "3938": "46961676e",
  "3939": "46961676e6f73",
  "3940": "46961676e6f7374",
  "3941": "46961676e6f73746963",
  "3942": "1dd",
  "3943": "f48",
  "3944": "007400200",
  "3945": "005600",
  "3946": "0a2b0601040182370201",
  "3947": "d06092a864886f70d010101",
  "3948": "2fe",
  "3949": "3d5",
  "3950": "8db",
  "3951": "f0603551d",
  "3952": "0418301",
  "3953": "687474703a2f2f7777772e6d6963726f736f66742e636f6d2f706b696f70732f",
  "3954": "732f4d6963",
  "3955": "6b3",
  "3956": "3ee",
  "3957": "762",
  "3958": "1ab",
  "3959": "a5a",
  "3960": "b06",
  "3961": "9343",
  "3962": "633",
  "3963": "08ff",
  "3964": "6fa",
  "3965": "35d",
  "3966": "ffb",
  "3967": "6ac",
  "3968": "91a",
  "3969": "806",
  "3970": "0301",
  "3971": "656c",
  "3972": "07c310b3009060355040613025553311330110603550408130a57617368696e67746f6e3110300e060355040713075265646d6f6e64311e301c060355040a13154d6963726f736f667420436f72706f726174696f6e312",
  "3973": "07c310b3009060355040613025553311330110603550408130a57617368696e67746f6e3110300e060355040713075265646d6f6e64311e301c060355040a13154d6963726f736f667420436f72706f726174696f6e31263",
  "3974": "07c310b3009060355040613025553311330110603550408130a57617368696e67746f6e3110300e060355040713075265646d6f6e64311e301c060355040a13154d6963726f736f667420436f72706f726174696f6e31263024",
  "3975": "07c310b3009060355040613025553311330110603550408130a57617368696e67746f6e3110300e060355040713075265646d6f6e64311e301c060355040a13154d6963726f736f667420436f72706f726174696f6e31263024060355040313",
  "3976": "07c310b3009060355040613025553311330110603550408130a57617368696e67746f6e3110300e060355040713075265646d6f6e64311e301c060355040a13154d6963726f736f667420436f72706f726174696f6e312630240603550403131d",
  "3977": "07c310b3009060355040613025553311330110603550408130a57617368696e67746f6e3110300e060355040713075265646d6f6e64311e301c060355040a13154d6963726f736f667420436f72706f726174696f6e312630240603550403131d4d6963726f736f66742054696d652d5374616d702",
  "3978": "90f",
  "3979": "b83",
  "3980": "7d5",
  "3981": "7e3",
  "3982": "22e",
  "3983": "6dc",
  "3984": "a02",
  "3985": "1701",
  "3986": "2f3",
  "3987": "83f",
  "3988": "6db",
  "3989": "0de",
  "3990": "3f6",
  "3991": "e005",
  "3992": "00e",
  "3993": "020a",
  "3994": "6031004",
  "3995": "6de",
  "3996": "77b",
  "3997": "0ee",
  "3998": "e25",
  "3999": "690064",
  "4000": "79007300740065006d002e005400",
  "4001": "79007300740065006d002e0054006800",
  "4002": "79007300740065006d002e005400680072006500",
  "4003": "79007300740065006d002e00540068007200650061006400",
  "4004": "79007300740065006d002e0054006800720065006100640069006e0067",
  "4005": "79007300740065006d002e0054006800720065006100640069006e0067002e005400",
  "4006": "79007300740065006d002e0054006800720065006100640069006e0067002e00540061007300",
  "4007": "79007300740065006d002e0054006800720065006100640069006e0067002e005400610073006b007300",
  "4008": "79007300740065006d002e0054006800720065006100640069006e0067002e005400610073006b0073002e",
  "4009": "79007300740065006d002e0054006800720065006100640069006e0067002e005400610073006b0073002e00440061007400610066006c006f0077",
  "4010": "6c006f006300",
  "4011": "6c006f0063006b",
  "4012": "6c04",
  "4013": "053004e002f",
  "4014": "040300040203",
  "4015": "040300040203300",
  "4016": "0403000402033002f",
  "4017": "9211",
  "4018": "020019",
  "4019": "bc06",
  "4020": "f03",
  "4021": "00101",
  "4022": "121a",
  "4023": "65d",
  "4024": "1c4",
  "4025": "9269",
  "4026": "433",
  "4027": "745",
  "4028": "6f7",
  "4029": "9503",
  "4030": "8441",
  "4031": "f202",
  "4032": "5f08",
  "4033": "0059",
  "4034": "6b656e",
  "4035": "4900",
  "4036": "756d626572",
  "4037": "72656564",
  "4038": "06004c8bf8ff15",
  "4039": "0600488bd8488bfbff15",
  "4040": "48033d",
  "4041": "0600498b",
  "4042": "41574156415",
  "4043": "333c",
  "4044": "8bf8",
  "4045": "d0488955",
  "4046": "10488975",
  "4047": "0488bdf4c8bfe",
  "4048": "6488bda",
  "4049": "048837d",
  "4050": "0488bde",
  "4051": "554157415641554154534883ec38",
  "4052": "554157415641554154534883ec38488d6c24",
  "4053": "10488b7f",
  "4054": "7d00",
  "4055": "00498bf",
  "4056": "2c4d8b",
  "4057": "488b55b",
  "4058": "0498bfeff15",
  "4059": "db74",
  "4060": "0e488b7d",
  "4061": "55415741564155534883ec10488d6c243048897dd8",
  "4062": "488bfe",
  "4063": "488d7db8ff15",
  "4064": "60ffffff",
  "4065": "90ff15",
  "4066": "488b8d",
  "4067": "28ffffffff15",
  "4068": "05004c8bc8",
  "4069": "18488975",
  "4070": "0500488bf0488bfb",
  "4071": "5f2c",
  "4072": "0400393f41ff13",
  "4073": "000000000000000a000000",
  "4074": "081203",
  "4075": "0607",
  "4076": "0d06",
  "4077": "0928",
  "4078": "28c503000628a000000a",
  "4079": "2d08027b",
  "4080": "252d17267ee",
  "4081": "00001112",
  "4082": "120028a300000a",
  "4083": "032d0b72df0500",
  "4084": "032d0b72df050070733f00000a7a",
  "4085": "3b01000a258",
  "4086": "0215250a7d",
  "4087": "6fc1",
  "4088": "1717",
  "4089": "027bf4",
  "4090": "3002000a",
  "4091": "1304161305",
  "4092": "176a58",
  "4093": "a4030006",
  "4094": "04000afe15",
  "4095": "03211000371500000500",
  "4096": "f44d",
  "4097": "0300000093",
  "4098": "081118",
  "4099": "603000000",
  "4100": "a406",
  "4101": "850f",
  "4102": "040000008608b",
  "4103": "0850b",
  "4104": "c81d",
  "4105": "000001003e32",
  "4106": "00000100a",
  "4107": "01514b",
  "4108": "e91b1f010000",
  "4109": "00195a00000000",
  "4110": "1e01",
  "4111": "417661696c",
  "4112": "496e707574",
  "4113": "0726f706167",
  "4114": "6616c75655461736b",
  "4115": "617374",
  "4116": "65645",
  "4117": "696e676c65",
  "4118": "72616e73666f726d",
  "4119": "797374656d2e436f6c6c656374696f6e732e47656e657269632e494c",
  "4120": "797374656d2e436f6c6c656374696f6e732e47656e657269632e494c697374",
  "4121": "797374656d2e436f6c6c656374696f6e732e47656e657269632e494c6973743c543",
  "4122": "06572",
  "4123": "60312b",
  "4124": "151268011300",
  "4125": "1c118",
  "4126": "1181f4",
  "4127": "015125901",
  "4128": "1181f41",
  "4129": "8e403800100000078e403800100000078e403800100000078e403800100000078e403800100000078e403800100000078e403800100000078e403800100000078e403800100000078e403800100000078e403800100000078e403800100000078e403800100000078e403800100000078e403800100000078e40380010000007",
  "4130": "a10900",
  "4131": "6d0900",
  "4132": "660900",
  "4133": "7a0900",
  "4134": "44013e8",
  "4135": "40151280cc013e8",
  "4136": "013e83",
  "4137": "154015128",
  "4138": "4015128168023e3e83",
  "4139": "170023e3e83",
  "4140": "15128129023e3e2c5015128",
  "4141": "03e8",
  "4142": "134015128168023e3e83",
  "4143": "10012a",
  "4144": "92229",
  "4145": "04b7",
  "4146": "92902295",
  "4147": "0d0a",
  "4148": "05000000",
  "4149": "000000000000000000000000000000",
  "4150": "005835303943",
  "4151": "7275",
  "4152": "e58",
  "4153": "7955",
  "4154": "63d",
  "4155": "61c",
  "4156": "727565",
  "4157": "c2a",
  "4158": "deb",
  "4159": "6c65617365",
  "4160": "6100740069006f006e",
  "4161": "5300",
  "4162": "07400",
  "4163": "4d00",
  "4164": "a202",
  "4165": "66e",
  "4166": "25e",
  "4167": "9b3",
  "4168": "d95",
  "4169": "77f",
  "4170": "61a",
  "4171": "697465",
  "4172": "7274",
  "4173": "42b",
  "4174": "cce",
  "4175": "269",
  "4176": "99c",
  "4177": "2a12",
  "4178": "6cc",
  "4179": "8b8",
  "4180": "77d",
  "4181": "80e",
  "4182": "a69",
  "4183": "2ac",
  "4184": "f7f",
  "4185": "6bb",
  "4186": "042c",
  "4187": "c18",
  "4188": "ccd",
  "4189": "ebc",
  "4190": "1323",
  "4191": "5368",
  "4192": "b9a",
  "4193": "8b9",
  "4194": "23d",
  "4195": "f95",
  "4196": "f3f",
  "4197": "1c5",
  "4198": "a9e",
  "4199": "96a",
  "4200": "24c",
  "4201": "439",
  "4202": "1ce",
  "4203": "75c",
  "4204": "d99",
  "4205": "6101",
  "4206": "d1a",
  "4207": "753",
  "4208": "9bc",
  "4209": "7ee",
  "4210": "453a",
  "4211": "89a",
  "4212": "15e",
  "4213": "ab5",
  "4214": "2407",
  "4215": "1b5",
  "4216": "25d",
  "4217": "0065007300",
  "4218": "00650064",
  "4219": "d000000",
  "4220": "0108",
  "4221": "010019",
  "4222": "0403000402033002f0000038e40300",
  "4223": "a2c",
  "4224": "9201",
  "4225": "679",
  "4226": "5475",
  "4227": "0e07000e62",
  "4228": "0e07000e620a3009c007d005e003f00150000038e40300",
  "4229": "6464",
  "4230": "b714",
  "4231": "23001",
  "4232": "090400",
  "4233": "0034",
  "4234": "0d9",
  "4235": "c64",
  "4236": "0909",
  "4237": "422",
  "4238": "65e",
  "4239": "7b15",
  "4240": "9c04",
  "4241": "143",
  "4242": "20b",
  "4243": "eb03",
  "4244": "1100",
  "4245": "1c0a",
  "4246": "6c02",
  "4247": "625b",
  "4248": "092d",
  "4249": "007200670075006d0065006e0074",
  "4250": "004700",
  "4251": "76006100",
  "4252": "20202",
  "4253": "0498bfe498bf7ff15",
  "4254": "be01000000ff15",
  "4255": "3433498bffff15",
  "4256": "0704",
  "4257": "3d3",
  "4258": "7708",
  "4259": "c3cccccccccccccccccccccc",
  "4260": "04885f674",
  "4261": "488bdf",
  "4262": "3f633d23",
  "4263": "4c2408",
  "4264": "488b7b1048897d",
  "4265": "3f68975d8488d75d8ff15",
  "4266": "04d8b6e",
  "4267": "41bc",
  "4268": "415c415d415e415f5d48ff20",
  "4269": "ff45",
  "4270": "498bfc",
  "4271": "06004c8be0498bfc498bf5ff15",
  "4272": "1833c",
  "4273": "01000000b901000000",
  "4274": "c3cccccccccccccccccccccccccccccc",
  "4275": "06008b",
  "4276": "0488bdf4c8bfe4c8bf2",
  "4277": "48be",
  "4278": "0498bfe",
  "4279": "3f68975e",
  "4280": "3f68975e0488d75",
  "4281": "30498bfe4c8d1d",
  "4282": "08488b75",
  "4283": "6033c0488945",
  "4284": "6400fb6f",
  "4285": "06004c8bf8488b15",
  "4286": "0600904883c4285b",
  "4287": "0600488bf8498bf7ff15",
  "4288": "415741565",
  "4289": "98000000",
  "4290": "4c8b7b",
  "4291": "10498bf4ff15",
  "4292": "488d75c8",
  "4293": "104d85",
  "4294": "498bd5",
  "4295": "48488d6c24",
  "4296": "7498bf",
  "4297": "4c8bd8ff",
  "4298": "d0488b7d",
  "4299": "50807dd000740a488b7d",
  "4300": "807dc00074",
  "4301": "4d85ed7412",
  "4302": "4d85ed74124939",
  "4303": "4d85ed741249397d",
  "4304": "4d85ed741249397d0074",
  "4305": "007d",
  "4306": "488bfce",
  "4307": "0f57c00f11",
  "4308": "488b7b10393fff15",
  "4309": "104889",
  "4310": "953a",
  "4311": "0500488bf8498bf7ff15",
  "4312": "05004c8be",
  "4313": "0500393f41ff13eb",
  "4314": "70500",
  "4315": "dc000000",
  "4316": "05004c8bf0488b",
  "4317": "020000000000000a000000",
  "4318": "46000001",
  "4319": "0100000000000002000000",
  "4320": "2e28",
  "4321": "7c1600000afe137b17",
  "4322": "12006f",
  "4323": "0705",
  "4324": "cf040070733f00000a7a",
  "4325": "2c05",
  "4326": "11027b",
  "4327": "2e010006",
  "4328": "7583",
  "4329": "7583000002",
  "4330": "0f012826010006",
  "4331": "00001b0a06",
  "4332": "0000001f00001112",
  "4333": "0100042a",
  "4334": "096f",
  "4335": "11066f",
  "4336": "2c071104",
  "4337": "027c83",
  "4338": "02167d",
  "4339": "06027b",
  "4340": "7eb70100040b07",
  "4341": "0228bf",
  "4342": "02037b",
  "4343": "02000a163",
  "4344": "00001b7b",
  "4345": "2f03000a",
  "4346": "03000afe06",
  "4347": "0b00000000",
  "4348": "04000a7d",
  "4349": "04000a252d17267e",
  "4350": "6104000a6f",
  "4351": "b905000a",
  "4352": "1106000a",
  "4353": "011000ad5a00000500",
  "4354": "9401",
  "4355": "9380500",
  "4356": "fc2ca001",
  "4357": "b4031600",
  "4358": "eea3",
  "4359": "0300d",
  "4360": "63501",
  "4361": "ae39",
  "4362": "932",
  "4363": "dd31a",
  "4364": "00000100234700000200b05402000300ec1800000100234700000200b05400000100234700000200b054",
  "4365": "dc4902000200",
  "4366": "dc4902000200923a0200",
  "4367": "dc4902000200923a0200010004",
  "4368": "dc4902000200923a02000100044f",
  "4369": "5405",
  "4370": "1100000000",
  "4371": "3e625f5f323",
  "4372": "f30003c436f6d706c657465",
  "4373": "7369",
  "4374": "797374656d2e546872656164696e672e5461736b732e44617461666c6f772e49",
  "4375": "4c696e6b",
  "4376": "436f6e73756d65725175657565",
  "4377": "6f72646572",
  "4378": "657874",
  "4379": "5374617465",
  "4380": "4465627567676572",
  "4381": "151280850108",
  "4382": "1280b5",
  "4383": "0b15128",
  "4384": "0815128",
  "4385": "0715128248",
  "4386": "1511818502151280c40113001180b",
  "4387": "c011301",
  "4388": "13000715128",
  "4389": "12200",
  "4390": "1401151181850213000a",
  "4391": "101511818502",
  "4392": "8e403800100000088e403800100000088e40380010000009",
  "4393": "20900",
  "4394": "560900",
  "4395": "670900",
  "4396": "610900",
  "4397": "6b0900",
  "4398": "02005c23",
  "4399": "10300",
  "4400": "015124c013e8",
  "4401": "40151280e0013e8",
  "4402": "218023e",
  "4403": "218023e1180b",
  "4404": "3e118",
  "4405": "3e1180812",
  "4406": "013e1304",
  "4407": "151280c4",
  "4408": "151280c4013e",
  "4409": "10118",
  "4410": "08101512",
  "4411": "13e1",
  "4412": "0715128158",
  "4413": "13e1015128",
  "4414": "11168",
  "4415": "49d2b",
  "4416": "04213",
  "4417": "24294a",
  "4418": "2469",
  "4419": "686973",
  "4420": "000000000000c6",
  "4421": "40000",
  "4422": "020005",
  "4423": "0e02",
  "4424": "61696e",
  "4425": "6874",
  "4426": "6167",
  "4427": "657273696f6e",
  "4428": "6563",
  "4429": "436f",
  "4430": "7465726e",
  "4431": "06f",
  "4432": "6ae",
  "4433": "9992",
  "4434": "92e302",
  "4435": "299",
  "4436": "6c3",
  "4437": "20001",
  "4438": "2f5",
  "4439": "006d",
  "4440": "584",
  "4441": "0049006e00",
  "4442": "69007400",
  "4443": "6f007200",
  "4444": "0000008",
  "4445": "0063",
  "4446": "0039",
  "4447": "183",
  "4448": "369676e",
  "4449": "6bf",
  "4450": "02030100",
  "4451": "3305",
  "4452": "93d",
  "4453": "3ec",
  "4454": "7bc",
  "4455": "e98",
  "4456": "d28",
  "4457": "0373",
  "4458": "1b2a",
  "4459": "0c1e",
  "4460": "2df",
  "4461": "68f",
  "4462": "be3",
  "4463": "94a",
  "4464": "25f",
  "4465": "b3b",
  "4466": "84d",
  "4467": "300d06092a864886f70d01010b",
  "4468": "43d",
  "4469": "71a",
  "4470": "0148",
  "4471": "4c5",
  "4472": "99d",
  "4473": "7ec",
  "4474": "4590a",
  "4475": "7312",
  "4476": "8ac",
  "4477": "483a",
  "4478": "55f",
  "4479": "015c",
  "4480": "e35",
  "4481": "7bb",
  "4482": "a5c",
  "4483": "69e",
  "4484": "2cb",
  "4485": "954",
  "4486": "76b",
  "4487": "a53",
  "4488": "41d",
  "4489": "419",
  "4490": "d53",
  "4491": "1a4",
  "4492": "19a",
  "4493": "243",
  "4494": "18e",
  "4495": "60c",
  "4496": "7a28",
  "4497": "0419",
  "4498": "267",
  "4499": "659",
  "4500": "156a",
  "4501": "78e",
  "4502": "2d5",
  "4503": "cc04",
  "4504": "00650073007300",
  "4505": "0042006c006f0063006b",
  "4506": "38e4",
  "4507": "080500",
  "4508": "444",
  "4509": "e33",
  "4510": "2fb",
  "4511": "1901",
  "4512": "0912053004e002f",
  "4513": "756",
  "4514": "21802",
  "4515": "45b9",
  "4516": "a225",
  "4517": "2c3",
  "4518": "559",
  "4519": "0b07000b020a3009c007d005e003f00150000038e40300190b07000b020a3009c007d005e003f00150000038e4030019",
  "4520": "0c28",
  "4521": "0e3",
  "4522": "0ade",
  "4523": "17f",
  "4524": "0885",
  "4525": "123",
  "4526": "3488",
  "4527": "1402",
  "4528": "0f8d",
  "4529": "5500",
  "4530": "41007200670075006d0065006e0074",
  "4531": "d657373616765",
  "4532": "6365697665",
  "4533": "0600905bc3",
  "4534": "6905",
  "4535": "55415741565350488d6c242",
  "4536": "00fb6c",
  "4537": "0600904883c4105b415d415e415f5dc3",
  "4538": "7c2408",
  "4539": "4c8bf9",
  "4540": "488bf3498bd7",
  "4541": "48bf2",
  "4542": "0488bdf4c8bfeff15",
  "4543": "4883c4085b415",
  "4544": "4883c4085b415f48ff20",
  "4545": "48ff2055415",
  "4546": "0fb6f",
  "4547": "28488d6c24",
  "4548": "498bf7488d05",
  "4549": "05b415f5dc3ff15",
  "4550": "0600498bfeff15",
  "4551": "4d8b65",
  "4552": "e4752c4d8b",
  "4553": "0600eb",
  "4554": "55415741565350488d6c242048897de04c8bff",
  "4555": "4883c4485b",
  "4556": "1b80800",
  "4557": "488b7708488b",
  "4558": "3f498bffff15",
  "4559": "488d7dc8ff15",
  "4560": "4c8bf6488bda",
  "4561": "4c8bf6488bda498b3fff15",
  "4562": "498bfe498bf4",
  "4563": "6669",
  "4564": "a0488b",
  "4565": "488d55",
  "4566": "4500",
  "4567": "f083",
  "4568": "0100000033c9",
  "4569": "0600393f48ff20488b7f",
  "4570": "5541574156415541545350488d6c243048897dd0488bdf",
  "4571": "18ffffff",
  "4572": "708488b",
  "4573": "184889",
  "4574": "18ffffffff15",
  "4575": "050041b808000000393f41ff13",
  "4576": "28488d05",
  "4577": "05004c8bf8488bfbff15",
  "4578": "b800",
  "4579": "34883ec4",
  "4580": "0807dd800740a488b7dc0ff15",
  "4581": "0807de000740a488b7dc8ff15",
  "4582": "050085c00f85",
  "4583": "0b4",
  "4584": "0500488b85",
  "4585": "b405",
  "4586": "0400ccff15",
  "4587": "0326d",
  "4588": "702803",
  "4589": "702803000006",
  "4590": "7028030000062a",
  "4591": "2a1e0228",
  "4592": "00000a06",
  "4593": "06172",
  "4594": "0b28",
  "4595": "0906",
  "4596": "36027b",
  "4597": "2b0606",
  "4598": "2b06066fff030006282500002b",
  "4599": "726905007028a100000a",
  "4600": "0208",
  "4601": "120172",
  "4602": "166f",
  "4603": "de0a082c0607282d00000adc",
  "4604": "062d",
  "4605": "0000001f00001112001f",
  "4606": "0c160d081203",
  "4607": "01000a0328",
  "4608": "01000a7e",
  "4609": "092c06",
  "4610": "092c0608",
  "4611": "092c0608282d00000adc",
  "4612": "1107",
  "4613": "036f1d",
  "4614": "7eb70100040b076fbe01000a2c",
  "4615": "7d2c",
  "4616": "2c02000a6f",
  "4617": "02000a0228",
  "4618": "080228",
  "4619": "02000afe06",
  "4620": "03000673",
  "4621": "ef02000a",
  "4622": "7e05000a",
  "4623": "06000a03",
  "4624": "06000a2c",
  "4625": "11111111",
  "4626": "d0100",
  "4627": "354a",
  "4628": "03000000e101",
  "4629": "45c803",
  "4630": "5824660b",
  "4631": "1e40850b",
  "4632": "2d31091a",
  "4633": "a2481601",
  "4634": "c65",
  "4635": "0d18",
  "4636": "000001003a1c00000200012d00000100",
  "4637": "000001003",
  "4638": "00514b3501",
  "4639": "6b0030000",
  "4640": "4823010000",
  "4641": "00195a01000000",
  "4642": "010f02000000",
  "4643": "001e1100000000",
  "4644": "49665",
  "4645": "06f737369",
  "4646": "06f737369626c65",
  "4647": "417661696c61626c65",
  "4648": "44f7574707574",
  "4649": "697469",
  "4650": "00436f6e",
  "4651": "6f72654f7574707574",
  "4652": "654d657373616765",
  "4653": "4617461666c6f77426c6f636b",
  "4654": "2e495",
  "4655": "76656e74",
  "4656": "0053797374656d2e436f6c6c656374696f6e732e4",
  "4657": "203d207b",
  "4658": "20011300",
  "4659": "151280c4011e001",
  "4660": "1c901",
  "4661": "151181850202",
  "4662": "1dd03",
  "4663": "15121401151181850213000a",
  "4664": "8e403800100000098e403800100000098e403800100000098e403800100000098e403800100000098e403800100000098e403800100000098e40380010000009",
  "4665": "8e403800100000088e403800100000098e40380010000009",
  "4666": "690900",
  "4667": "6a0900",
  "4668": "6c0900",
  "4669": "8c24",
  "4670": "0390100",
  "4671": "68013e8",
  "4672": "015118088",
  "4673": "015118088013e8",
  "4674": "13c013e8",
  "4675": "190013e83",
  "4676": "160023e3e82f",
  "4677": "015118188",
  "4678": "4953",
  "4679": "3e1180812c5015128",
  "4680": "015118185023e1180b",
  "4681": "2a15118",
  "4682": "013e1106",
  "4683": "05213",
  "4684": "0100506",
  "4685": "92a12",
  "4686": "3e901",
  "4687": "9213a",
  "4688": "9291",
  "4689": "2949d2b",
  "4690": "2949d2b003",
  "4691": "9213",
  "4692": "217a234a23",
  "4693": "7a05a6b75",
  "4694": "00000008",
  "4695": "2063",
  "4696": "6b03",
  "4697": "06100",
  "4698": "090000000000000000000000",
  "4699": "4e616d65",
  "4700": "0044656275",
  "4701": "6661",
  "4702": "4964",
  "4703": "7573",
  "4704": "2e8",
  "4705": "d23",
  "4706": "1df",
  "4707": "6f6e4",
  "4708": "e455",
  "4709": "0454",
  "4710": "6313",
  "4711": "125",
  "4712": "7ac",
  "4713": "d8a",
  "4714": "69006c0065",
  "4715": "61006d00",
  "4716": "6900630072006f00",
  "4717": "6900630072006f007300",
  "4718": "6900630072006f0073006f00",
  "4719": "6900630072006f0073006f0066",
  "4720": "0030002e",
  "4721": "d06096086480165030402010500",
  "4722": "0030201",
  "4723": "00302010202",
  "4724": "128302",
  "4725": "230323",
  "4726": "6c9",
  "4727": "01a38",
  "4728": "01a38201",
  "4729": "301f0603551d",
  "4730": "0603551d0e04",
  "4731": "0603551d0e041604",
  "4732": "764",
  "4733": "0473",
  "4734": "230418301",
  "4735": "0603551d1f",
  "4736": "63726c2f",
  "4737": "031315f323",
  "4738": "04553",
  "4739": "63657274",
  "4740": "0603551d1301",
  "4741": "0603551d130101ff",
  "4742": "1fd",
  "4743": "138",
  "4744": "7005",
  "4745": "7468",
  "4746": "e95",
  "4747": "7ab",
  "4748": "7cb",
  "4749": "fec",
  "4750": "0053007500",
  "4751": "0101ff",
  "4752": "b692f",
  "4753": "732f4d6963526f",
  "4754": "732f4d6963526f6f",
  "4755": "732f4d6963526f6f43",
  "4756": "732f4d6963526f6f436572",
  "4757": "732f4d6963526f6f43657241",
  "4758": "732f4d6963526f6f436572417574",
  "4759": "72e",
  "4760": "201d",
  "4761": "67d",
  "4762": "d65",
  "4763": "137d",
  "4764": "8de",
  "4765": "2fa",
  "4766": "7918",
  "4767": "a08",
  "4768": "06092a864886f70d",
  "4769": "65c",
  "4770": "ecf",
  "4771": "0a2b060104018",
  "4772": "0a2b0601040184590a",
  "4773": "53023",
  "4774": "0cf",
  "4775": "65f",
  "4776": "031302",
  "4777": "76e",
  "4778": "3ac",
  "4779": "92c5",
  "4780": "482",
  "4781": "dd9",
  "4782": "4cf",
  "4783": "a223",
  "4784": "28d",
  "4785": "fe4",
  "4786": "66a",
  "4787": "3e74",
  "4788": "45bc",
  "4789": "1be",
  "4790": "1a8",
  "4791": "02100",
  "4792": "15f",
  "4793": "f3a",
  "4794": "047d",
  "4795": "43a",
  "4796": "eb3",
  "4797": "4cb",
  "4798": "1d3",
  "4799": "1308",
  "4800": "2c53",
  "4801": "006500730073006100",
  "4802": "000a005300",
  "4803": "000a00530079007300740065006d002e0054006800720065006100640069006e0067002e005400610073006b0073002e00440061007400610066006c006f0077",
  "4804": "0100000019",
  "4805": "02000019",
  "4806": "20100",
  "4807": "263",
  "4808": "60019",
  "4809": "0904000912053004e002f",
  "4810": "d8bf",
  "4811": "8ae",
  "4812": "5b8",
  "4813": "0809",
  "4814": "50d",
  "4815": "630a",
  "4816": "2a8",
  "4817": "45a8",
  "4818": "eba",
  "4819": "7a4",
  "4820": "fa2",
  "4821": "4811",
  "4822": "0905",
  "4823": "4c89",
  "4824": "924",
  "4825": "a83",
  "4826": "dc1e",
  "4827": "922a",
  "4828": "0e1e",
  "4829": "001001",
  "4830": "934a",
  "4831": "2e5",
  "4832": "7572653d",
  "4833": "546f6b656e",
  "4834": "004e006f",
  "4835": "760061006c00",
  "4836": "760061006c00690064",
  "4837": "756d656e74",
  "4838": "756c6c",
  "4839": "746564",
  "4840": "63685",
  "4841": "55534883ec18488d6c24",
  "4842": "488d05b",
  "4843": "4708",
  "4844": "08488",
  "4845": "448bf",
  "4846": "ff7e",
  "4847": "48bf8",
  "4848": "4983c",
  "4849": "3c07",
  "4850": "0488bdf448bfe",
  "4851": "498bd6",
  "4852": "343e",
  "4853": "ed74",
  "4854": "04885c074",
  "4855": "0f8c",
  "4856": "488bfb33f6ff15",
  "4857": "3c4205b415f5dc3554157534883ec10488b2f48892c24488d6d3",
  "4858": "488bf84c8d1d",
  "4859": "5541574156534883ec18488d6c24",
  "4860": "ff53",
  "4861": "de4c8bfa",
  "4862": "498bfd498bf6ff15",
  "4863": "4883c4105b415f5dc3",
  "4864": "b1",
  "4865": "488bd8",
  "4866": "f94c6400fb6f",
  "4867": "0807df00",
  "4868": "0807df00074",
  "4869": "0807df000740a488b7d",
  "4870": "0600488bf0488d7d",
  "4871": "10498b",
  "4872": "d85ff74",
  "4873": "4c8bd8498bf5",
  "4874": "93f5d49ff23cccccccccccccccccccccc",
  "4875": "e848897d",
  "4876": "0488b7dd8ff15",
  "4877": "e4752c4d8b6500ff15",
  "4878": "498bf7498b",
  "4879": "488bf33",
  "4880": "904883c4185b",
  "4881": "837dd4",
  "4882": "488b7db0488b",
  "4883": "498bcf",
  "4884": "488b7db0ff15",
  "4885": "0488d75d0488b7d",
  "4886": "c0488b7d",
  "4887": "dc000740a488b7d",
  "4888": "657a",
  "4889": "55415741564155534883ec10488d6c243048897dd84c8bff",
  "4890": "4c8beb",
  "4891": "4c8beb4d85ed741249397d0074",
  "4892": "4c8beb4d85ed741249397d00740c488bf3ff15",
  "4893": "450f57c0440f29",
  "4894": "55a8",
  "4895": "488945c",
  "4896": "415e415f5dc355415741565350488b2f48892c24488d6d5",
  "4897": "415c415d415e415f5d48ff20ff15",
  "4898": "48ff20555",
  "4899": "48ff20555350488d6c241",
  "4900": "488b7b2",
  "4901": "488b7b084c8d1d",
  "4902": "0440f2944",
  "4903": "498bf73",
  "4904": "b538ffffff",
  "4905": "0e48890c24",
  "4906": "0e48890c244883c6084883c",
  "4907": "0e48890c244883c6084883c708488b",
  "4908": "0e48890c244883c6084883c708488b0e4889",
  "4909": "0e48890c244883c6084883c708488b0e48894c2408",
  "4910": "0e48890c244883c6084883c708488b0e48894c24084883c6084883c",
  "4911": "0e48890c244883c6084883c708488b0e48894c24084883c6084883c708",
  "4912": "0e48890c244883c6084883c708488b0e48894c24084883c6084883c70848a5",
  "4913": "488bbd28ffffff",
  "4914": "bd28ffffff",
  "4915": "0f104",
  "4916": "03006",
  "4917": "837e",
  "4918": "5e3c",
  "4919": "488d7dc0ff15",
  "4920": "0500488945c",
  "4921": "0500904883c4105b415f5dc3554157534883ec10488b2f48892c24488d6d",
  "4922": "05004885c",
  "4923": "0500498d7e",
  "4924": "488b7718488975",
  "4925": "0500488bf0488b",
  "4926": "052c",
  "4927": "7020000",
  "4928": "02000023000001",
  "4929": "0000001a",
  "4930": "7b1500000a",
  "4931": "0902",
  "4932": "14fe01",
  "4933": "027d",
  "4934": "2acc033003",
  "4935": "01100000000",
  "4936": "6ffd000006",
  "4937": "02047d",
  "4938": "3e027b",
  "4939": "19289f",
  "4940": "042d0b7245040070733f00000a7a",
  "4941": "02172",
  "4942": "0a1201",
  "4943": "26de",
  "4944": "0000110374",
  "4945": "1028",
  "4946": "0b027b",
  "4947": "13051105",
  "4948": "000c00000000",
  "4949": "1f0a",
  "4950": "1203",
  "4951": "7701000a",
  "4952": "0100066f",
  "4953": "07027b",
  "4954": "0f0228bf",
  "4955": "01000a2a027b",
  "4956": "01000a2acccccc32027b",
  "4957": "07007028a100000a12000228",
  "4958": "2802000a6f",
  "4959": "6ff1",
  "4960": "6f59",
  "4961": "0603000a6f37",
  "4962": "0000b",
  "4963": "17597d",
  "4964": "6b03000a6f",
  "4965": "7103000a7b",
  "4966": "e703000a",
  "4967": "1304000a",
  "4968": "3204000a",
  "4969": "6204000a",
  "4970": "cb04000a",
  "4971": "1919",
  "4972": "0228be",
  "4973": "09004c",
  "4974": "425",
  "4975": "44e0b",
  "4976": "cd4c",
  "4977": "04000000e609",
  "4978": "04000000e6094a42930b",
  "4979": "fa00",
  "4980": "04000000c600",
  "4981": "7b322a02",
  "4982": "ae398b0e",
  "4983": "6434b",
  "4984": "6434bd0b",
  "4985": "2617",
  "4986": "26171601",
  "4987": "f202000000000000",
  "4988": "f202000000000000c3",
  "4989": "430a",
  "4990": "00000100923a",
  "4991": "00000100b05400000200375000000100",
  "4992": "012d00000200",
  "4993": "000001003e32000001003e32",
  "4994": "04514b3501",
  "4995": "ac05",
  "4996": "ec07",
  "4997": "2b000c01",
  "4998": "630d3a",
  "4999": "610c0000",
  "5000": "1241a",
  "5001": "00007c5c1f010000",
  "5002": "10b0000f84",
  "5003": "00700701000000",
  "5004": "4173796e633e",
  "5005": "63757272656e74",
  "5006": "62736572766572",
  "5007": "4f665",
  "5008": "00506",
  "5009": "6f72654f75747075744974656d73",
  "5010": "004f66666572",
  "5011": "7265656479",
  "5012": "756d6265724f",
  "5013": "756d6265724f664",
  "5014": "65745f",
  "5015": "547261",
  "5016": "54726163",
  "5017": "00437265617465",
  "5018": "0053797374656d2e546872656164696e672e5461736b732e44617461666c6f772e49536f75726365426c6f636b3c53",
  "5019": "0053797374656d2e546872656164696e672e5461736b732e44617461666c6f772e49536f75726365426c6f636b3c53797374656d2e",
  "5020": "0053797374656d2e546872656164696e672e5461736b732e44617461666c6f772e49536f75726365426c6f636b3c53797374656d2e5475",
  "5021": "0053797374656d2e546872656164696e672e5461736b732e44617461666c6f772e49536f75726365426c6f636b3c53797374656d2e5475706c65",
  "5022": "7465726e616c",
  "5023": "416374696f6e",
  "5024": "01130006",
  "5025": "1280ac",
  "5026": "02118",
  "5027": "08901",
  "5028": "151280e",
  "5029": "60312b4465627567566965770000",
  "5030": "15123c011300",
  "5031": "14d01",
  "5032": "15128085011301",
  "5033": "1680213001301",
  "5034": "1512808501151221011301",
  "5035": "15128248",
  "5036": "1512825c011300",
  "5037": "68e4038001000000",
  "5038": "8e403800100000088e403800100000088e403800100000088e403800100000088e403800100000088e403800100000088e403800100000088e403800100000088e403800100000088e403800100000088e403800100000088e403800100000088e403800100000088e403800100000088e403800100000088e403800100000088e403800100000088e403800100000088e403800100000088e403800100000088e403800100000088e403800100000088e403800100000088e403800100000088e403800100000088e403800100000088e403800100000088e403800100000088e403800100000088e403800100000088e403800100000088e40380010000008",
  "5039": "8e403800100000088e403800100000088e403800100000088e403800100000088e403800100000088e40380010000008",
  "5040": "8b0900",
  "5041": "02009",
  "5042": "c390100",
  "5043": "20300",
  "5044": "0e4015128",
  "5045": "0b79",
  "5046": "134015128238013e8",
  "5047": "258013e8",
  "5048": "151275013e",
  "5049": "15118185021180b03e8",
  "5050": "023e3e13148",
  "5051": "0715128168023e3e1015128",
  "5052": "151280c40113001180b00715128",
  "5053": "013e1652151280c4011300809a",
  "5054": "023e3e84a",
  "5055": "0467",
  "5056": "9c92",
  "5057": "9296",
  "5058": "34951e",
  "5059": "92329",
  "5060": "1c8280020a",
  "5061": "04bcff4015128248013e84",
  "5062": "010000000000",
  "5063": "0a0000",
  "5064": "002e00",
  "5065": "012e",
  "5066": "6f63",
  "5067": "6174696f6e4",
  "5068": "696f6e417474726962757465",
  "5069": "6d656e74",
  "5070": "2e43",
  "5071": "7175",
  "5072": "6463",
  "5073": "6fc",
  "5074": "00000027",
  "5075": "6c696e",
  "5076": "462",
  "5077": "0035",
  "5078": "001600",
  "5079": "70006f00",
  "5080": "72006100740069006f006e",
  "5081": "72006900",
  "5082": "76006500",
  "5083": "003100",
  "5084": "9af",
  "5085": "4c8",
  "5086": "7ae",
  "5087": "6da",
  "5088": "2b4",
  "5089": "a3e",
  "5090": "96f",
  "5091": "8202",
  "5092": "0114",
  "5093": "afd",
  "5094": "3cb",
  "5095": "d8e",
  "5096": "052b",
  "5097": "838",
  "5098": "73f",
  "5099": "2fd",
  "5100": "9a3",
  "5101": "7072",
  "5102": "776e",
  "5103": "97f",
  "5104": "29f",
  "5105": "afc",
  "5106": "4dd",
  "5107": "83a",
  "5108": "78d",
  "5109": "683",
  "5110": "4535",
  "5111": "d443",
  "5112": "77a",
  "5113": "4af",
  "5114": "acd",
  "5115": "285",
  "5116": "1a05",
  "5117": "7ef",
  "5118": "915",
  "5119": "3c9a",
  "5120": "3ed",
  "5121": "454",
  "5122": "f67",
  "5123": "9333",
  "5124": "e9c",
  "5125": "3b48",
  "5126": "9a4",
  "5127": "ccb",
  "5128": "824",
  "5129": "69f",
  "5130": "dcb",
  "5131": "2345",
  "5132": "0302",
  "5133": "a300",
  "5134": "7aa",
  "5135": "ccc",
  "5136": "155",
  "5137": "9411",
  "5138": "29c",
  "5139": "235",
  "5140": "9c01",
  "5141": "712",
  "5142": "3797374656d2e4",
  "5143": "a403",
  "5144": "7669",
  "5145": "60b",
  "5146": "76d",
  "5147": "3cd",
  "5148": "48e",
  "5149": "e32",
  "5150": "78c",
  "5151": "68b",
  "5152": "dab",
  "5153": "d3f",
  "5154": "1109",
  "5155": "1c01",
  "5156": "790a",
  "5157": "93a",
  "5158": "958",
  "5159": "f4f",
  "5160": "006500200",
  "5161": "041",
  "5162": "0042006c006f0063006b003c",
  "5163": "797374656d2e546872656164696e672e5461736b732e44617461666c6f772e",
  "5164": "01020000",
  "5165": "0102000038e4",
  "5166": "010100013",
  "5167": "0005",
  "5168": "170a",
  "5169": "22063005e003f00150000038e40300",
  "5170": "354",
  "5171": "80008",
  "5172": "020008",
  "5173": "76c",
  "5174": "455",
  "5175": "b905",
  "5176": "b65",
  "5177": "0890f",
  "5178": "945",
  "5179": "083007d005e003f0015038e40300f101",
  "5180": "0c74",
  "5181": "087",
  "5182": "69d",
  "5183": "281001",
  "5184": "0a1a",
  "5185": "0285",
  "5186": "2c4",
  "5187": "d55",
  "5188": "030300030202300150000038e4030019030300030202300150000038e4030019",
  "5189": "2301",
  "5190": "010000d",
  "5191": "13f",
  "5192": "b23",
  "5193": "1808",
  "5194": "0804000812043003f0015038e40300190804000812043003f0015038e4030019",
  "5195": "4443",
  "5196": "a93",
  "5197": "305",
  "5198": "6005",
  "5199": "d22",
  "5200": "758",
  "5201": "0a0a",
  "5202": "9275",
  "5203": "a15",
  "5204": "050505",
  "5205": "467",
  "5206": "67c",
  "5207": "93b",
  "5208": "7718",
  "5209": "6f7574",
  "5210": "0203c",
  "5211": "55534883ec18488d6c242",
  "5212": "55534883ec18488d6c2420488965",
  "5213": "060048ff20cccccccccccccccccccccccc",
  "5214": "0600488d7b08",
  "5215": "0600488bf8488bf3ff15",
  "5216": "07008b",
  "5217": "ff158",
  "5218": "ffffff7f",
  "5219": "0600904883c4185b",
  "5220": "104c8b",
  "5221": "0600393f41ff1385c074",
  "5222": "55415741564155534883ec2",
  "5223": "40807dd800740a488b7dc8ff15",
  "5224": "0000004584",
  "5225": "38498bff4c8d1d",
  "5226": "38ff15",
  "5227": "0410f",
  "5228": "00498d",
  "5229": "498bff498bf5488bd3498bc",
  "5230": "488b7dd",
  "5231": "904883c4105b",
  "5232": "3c4205b415f5dc3554157534883ec10488b2f48892c24488d6d30807de800740a488b7de0ff15",
  "5233": "0600904883c4105b415f5dc3",
  "5234": "488bd8ff15",
  "5235": "d8becff15",
  "5236": "498bfe",
  "5237": "104c8bf",
  "5238": "4885ff74",
  "5239": "488bcb",
  "5240": "f94c6400fb6f641",
  "5241": "0450f57c0440f29",
  "5242": "488b4708",
  "5243": "1185",
  "5244": "41574156534883ec1048897c2408488b",
  "5245": "06004c8bf8488bfbff15",
  "5246": "0600904883c4085b415fc3cccccccccc",
  "5247": "3f68975e0488d75e0ff15",
  "5248": "3301",
  "5249": "343f",
  "5250": "0600488d3c",
  "5251": "488b7708488975",
  "5252": "4c8b5f",
  "5253": "3c4485b",
  "5254": "55415741564155534883ec10488d6c243048897dd84c8bff4c8bf6488bda498b3fff15",
  "5255": "40383f",
  "5256": "041a",
  "5257": "beffffffff393fff15",
  "5258": "488b7dc",
  "5259": "48837d",
  "5260": "b57",
  "5261": "00393f48ff20488b7f",
  "5262": "807f",
  "5263": "280074",
  "5264": "498bf4",
  "5265": "33c089",
  "5266": "6f184889",
  "5267": "6f1848896c24",
  "5268": "6f1848896c2418488d",
  "5269": "0498bf6",
  "5270": "a3000000",
  "5271": "60ffffffff15",
  "5272": "944",
  "5273": "aa2",
  "5274": "1006",
  "5275": "01000000eb",
  "5276": "0500904883c4085b415fc3cccccccccc",
  "5277": "0500488d7b08",
  "5278": "0500904883c4085b415c415d415e415f5dc3",
  "5279": "05004c8bf8488b15",
  "5280": "0500488b7dc8",
  "5281": "0500904883c43",
  "5282": "0500904883c4085b415e415f5dc3",
  "5283": "05008b",
  "5284": "0500488d05",
  "5285": "000000400",
  "5286": "0500e9",
  "5287": "a52",
  "5288": "c74218",
  "5289": "488b9550ffffff",
  "5290": "b600",
  "5291": "040041ff13",
  "5292": "a301",
  "5293": "90200",
  "5294": "00000000000008000000",
  "5295": "5f000000",
  "5296": "2d000000",
  "5297": "01000011",
  "5298": "02162a",
  "5299": "0326de00",
  "5300": "7028030000062a2e72",
  "5301": "033004",
  "5302": "1d00000a",
  "5303": "7c1600000afe137b1a00000a",
  "5304": "00000a2acccc",
  "5305": "0cde0a072c0606282d00000adc",
  "5306": "0cde0a072c0606282d00000adc08",
  "5307": "02157d",
  "5308": "37040070733f00000a7a",
  "5309": "0b3004",
  "5310": "252d03",
  "5311": "286500000a7e",
  "5312": "1733",
  "5313": "00000673c7",
  "5314": "1828",
  "5315": "0900000672",
  "5316": "09000006729f",
  "5317": "09000006729f050070739700000a7a",
  "5318": "0300062a",
  "5319": "01000a7b",
  "5320": "0601000a258",
  "5321": "c7030006",
  "5322": "0e042c",
  "5323": "de0a072c0606282d00000adc2a0000011000000",
  "5324": "7028a100000a1201",
  "5325": "1e02281100000a2a",
  "5326": "8e693",
  "5327": "6166fc3",
  "5328": "00000a120002027b",
  "5329": "0300062acccc",
  "5330": "10027b",
  "5331": "19027b",
  "5332": "13041613051104",
  "5333": "130416130511041205",
  "5334": "2c071104282d00000adc",
  "5335": "17580b",
  "5336": "161306",
  "5337": "011c00000200",
  "5338": "03000a0228",
  "5339": "03000a7d",
  "5340": "0d161304091204282b00000a",
  "5341": "94010004",
  "5342": "04000a2acccccc",
  "5343": "04000a2acccccc32027b",
  "5344": "2704000a",
  "5345": "027cca",
  "5346": "05000a03",
  "5347": "920100046f",
  "5348": "05000a7c",
  "5349": "05000ade",
  "5350": "010101010101",
  "5351": "8d33",
  "5352": "8a01",
  "5353": "032100",
  "5354": "133a",
  "5355": "8618514b",
  "5356": "415a",
  "5357": "109005",
  "5358": "9336a703",
  "5359": "04000000e601672d3501",
  "5360": "2501",
  "5361": "94f0c",
  "5362": "35015",
  "5363": "040000008608e51b1201",
  "5364": "040000008608c65",
  "5365": "0447",
  "5366": "04000000c3",
  "5367": "000001001b2000000200",
  "5368": "00000400",
  "5369": "00000100114500000100",
  "5370": "021e",
  "5371": "7c09",
  "5372": "e91b1f010000e71",
  "5373": "e91b1f010000e71723",
  "5374": "e91b1f010000e71723010000",
  "5375": "e034c",
  "5376": "e034c10b0000f84",
  "5377": "02250000",
  "5378": "0c001",
  "5379": "5f5f",
  "5380": "446973706c617943",
  "5381": "4966506f737369626c65",
  "5382": "3e625f5f313",
  "5383": "f31003c3e395f5f3",
  "5384": "617463686564",
  "5385": "6174636865644a",
  "5386": "6174636865644a6f696e426c6f636b",
  "5387": "4172",
  "5388": "005f746172676574",
  "5389": "4d616e",
  "5390": "52656f72646572",
  "5391": "005f6e",
  "5392": "005f62",
  "5393": "426f756e64656443617061636974",
  "5394": "46961676e6f73746963732e",
  "5395": "46961676e6f73746963732e54726163",
  "5396": "4c657665",
  "5397": "4c6576656c",
  "5398": "63686564756c",
  "5399": "13001d1300",
  "5400": "15124101",
  "5401": "07061512",
  "5402": "12808d0e",
  "5403": "050701",
  "5404": "15124501",
  "5405": "080715128",
  "5406": "13000a20010115128",
  "5407": "1180b01300",
  "5408": "53797374656d2e546872656164696e672e5461736b732e44617461666c6f772e4",
  "5409": "1511818c",
  "5410": "1280b8",
  "5411": "90900",
  "5412": "68e403800100000068e4038001000000",
  "5413": "7009",
  "5414": "7b0900",
  "5415": "8a0900",
  "5416": "990900",
  "5417": "9c0900",
  "5418": "054015121c013e",
  "5419": "130013e8",
  "5420": "190013e8",
  "5421": "124023e3e822",
  "5422": "4015128140023e3e828",
  "5423": "180023e3e",
  "5424": "14c033e3e3e82a",
  "5425": "15128129023e1180812c5015128",
  "5426": "1015127501",
  "5427": "83c9",
  "5428": "13e1652",
  "5429": "7707",
  "5430": "79049",
  "5431": "1992a",
  "5432": "0929",
  "5433": "9215",
  "5434": "0951e",
  "5435": "02204",
  "5436": "04a79",
  "5437": "2b05b",
  "5438": "92b124",
  "5439": "909224",
  "5440": "9092240d",
  "5441": "9092240d3b",
  "5442": "92b2",
  "5443": "2f92",
  "5444": "02203",
  "5445": "34a51e",
  "5446": "0569",
  "5447": "1951a",
  "5448": "0000000000000000000000000000",
  "5449": "00008",
  "5450": "2702",
  "5451": "0415",
  "5452": "9901",
  "5453": "6f6475",
  "5454": "0053797374656d2e5275",
  "5455": "696f6e41747472696275746500417373656d626c79",
  "5456": "6f6d706",
  "5457": "79417474726962757465",
  "5458": "4b6579",
  "5459": "7fb",
  "5460": "2102",
  "5461": "6657273696f6e",
  "5462": "0e14",
  "5463": "441",
  "5464": "6b5",
  "5465": "ad3",
  "5466": "02fe",
  "5467": "0046",
  "5468": "2ee",
  "5469": "70007400",
  "5470": "04300",
  "5471": "72007300",
  "5472": "73006500",
  "5473": "072006f00",
  "5474": "e58a",
  "5475": "9eb",
  "5476": "0203010001a38201",
  "5477": "300c",
  "5478": "05000382020100",
  "5479": "46a",
  "5480": "d8c",
  "5481": "f09",
  "5482": "53b",
  "5483": "24d",
  "5484": "4e5",
  "5485": "699c",
  "5486": "1ed",
  "5487": "731d",
  "5488": "83fe",
  "5489": "f13",
  "5490": "fda",
  "5491": "d59",
  "5492": "9801",
  "5493": "ffd",
  "5494": "2042",
  "5495": "98c",
  "5496": "662",
  "5497": "0308",
  "5498": "0b2a",
  "5499": "69656c",
  "5500": "69656c64",
  "5501": "44a",
  "5502": "296",
  "5503": "3aa",
  "5504": "f6c",
  "5505": "1ba",
  "5506": "3519",
  "5507": "040c",
  "5508": "1ee",
  "5509": "e149",
  "5510": "45f",
  "5511": "667",
  "5512": "4cd",
  "5513": "4ec",
  "5514": "a0a",
  "5515": "2913",
  "5516": "056",
  "5517": "78b",
  "5518": "96d",
  "5519": "6f3",
  "5520": "2c09",
  "5521": "bec",
  "5522": "4ce",
  "5523": "b8e",
  "5524": "8ab",
  "5525": "a308",
  "5526": "f23",
  "5527": "0f9",
  "5528": "fe5",
  "5529": "08e",
  "5530": "062a",
  "5531": "160000",
  "5532": "d54",
  "5533": "7e5",
  "5534": "0000000000000000000000000000000000000000000000000000000000000000000000000000000000000000000000000000000000000000000000000000000000000000000000000000000000000000000000000000000000000000000000000000000000000000000000000000000000000000000000000000000000000000000000000000000000000000000000000000000000000000000000000000000000000000000000000000000000000000000000000000000000000000000000000000000000000000000000000000000000000000000000000000000000000000000000000000000000000000000000000000000000000000000000000000000000000000000000000000000000000000000000000000000000000000000000000000000000000000000000000000000000000000000000000000000000000000000000000000000000000000000000000000000000000000000000000000000000000000000000000000000000000000000000000000000000000000000000000000000000000000000000000000000000000000000000000000000000000000000000000000000000000000000000000000000000000000000000000000000000000000000000000000000000000000000000000000000000000000000000000000000000000000000000000000000000000000000000000000000000000000",
  "5535": "a902",
  "5536": "81d",
  "5537": "21d",
  "5538": "485",
  "5539": "47b",
  "5540": "9c3",
  "5541": "1a2",
  "5542": "825",
  "5543": "41f",
  "5544": "74d",
  "5545": "a26a",
  "5546": "d9a",
  "5547": "a85",
  "5548": "7c8",
  "5549": "176f",
  "5550": "0ed",
  "5551": "288",
  "5552": "7eb",
  "5553": "23c",
  "5554": "7dc",
  "5555": "16e",
  "5556": "70006500",
  "5557": "000a00530079007300740065006d002e0054006800720065006100640069006e0067002e005400610073006b0073002e00440061007400610066006c006f0077002e",
  "5558": "0603000622",
  "5559": "060300062202300150000038e40300",
  "5560": "0c06000c32",
  "5561": "0a08",
  "5562": "0101000102000038e4",
  "5563": "0a05000a22063005e003f00150000038e40300",
  "5564": "7e1d",
  "5565": "0e07000e420a3009c007d005e003f00150000038e40300",
  "5566": "01000019",
  "5567": "2943",
  "5568": "9259",
  "5569": "2ea",
  "5570": "26e",
  "5571": "0705000702063005e003f00150000038e40300e18",
  "5572": "0d0600",
  "5573": "3ef",
  "5574": "823023e",
  "5575": "216",
  "5576": "4bb",
  "5577": "432",
  "5578": "8aa",
  "5579": "48ba",
  "5580": "969",
  "5581": "0a05000a62",
  "5582": "0a05000a62063005e003f00150000038e40300",
  "5583": "9800",
  "5584": "0a19",
  "5585": "ab3",
  "5586": "83c1603",
  "5587": "750a",
  "5588": "40c",
  "5589": "d1c",
  "5590": "2bb",
  "5591": "0e07000e420a3009c007d005e003f00150000038e4030019",
  "5592": "3ca",
  "5593": "0033",
  "5594": "06f72",
  "5595": "66003",
  "5596": "2c01",
  "5597": "df8",
  "5598": "4c3",
  "5599": "f89",
  "5600": "55e",
  "5601": "09c01",
  "5602": "e601",
  "5603": "c58",
  "5604": "0593",
  "5605": "030200",
  "5606": "f0f",
  "5607": "41b8",
  "5608": "7008",
  "5609": "37f",
  "5610": "379",
  "5611": "a20f",
  "5612": "41c1",
  "5613": "000b",
  "5614": "004e006f0074",
  "5615": "6f0075007200",
  "5616": "206e",
  "5617": "16e64",
  "5618": "1207",
  "5619": "616c6964",
  "5620": "6f757263654b65",
  "5621": "76574",
  "5622": "ffffff4883c4085b5dc3",
  "5623": "0600488bd8488b",
  "5624": "53ff15",
  "5625": "488bfeff15",
  "5626": "0407c3",
  "5627": "c643",
  "5628": "c00fb",
  "5629": "0f94c",
  "5630": "4c8be9",
  "5631": "06004c8b65",
  "5632": "0600488d7b18",
  "5633": "10ff15",
  "5634": "55415741564155534883ec20488d6c24",
  "5635": "4533ff",
  "5636": "000000908b",
  "5637": "0fb6d",
  "5638": "4d85ed75284d8b2eff15",
  "5639": "85c00f84",
  "5640": "488b4b",
  "5641": "33ff4889",
  "5642": "498bff498bf5488bd3498bce4c8d1d",
  "5643": "3f68975d8488d75d8",
  "5644": "0488bfeff15",
  "5645": "5541574156534883ec18488d6c243",
  "5646": "85c0750f",
  "5647": "33b",
  "5648": "18488d05",
  "5649": "004c8bc8",
  "5650": "554157415641554154534883ec28488d6c245",
  "5651": "4c8bf1",
  "5652": "0488d55",
  "5653": "6ab",
  "5654": "0488bfa",
  "5655": "0600904883c4085b415c415d415e415f5dc3",
  "5656": "355",
  "5657": "5718",
  "5658": "488bf9",
  "5659": "3b8",
  "5660": "488bf2",
  "5661": "498bcd",
  "5662": "12498bfe498bf",
  "5663": "12498bfe498bf7ff15",
  "5664": "93f4883c4105b415f5d48ff20",
  "5665": "554157415641554154534883ec18488d6c244048897dd",
  "5666": "488bf8498bf4ff15",
  "5667": "048897de048897d",
  "5668": "0033c",
  "5669": "e8488bde",
  "5670": "f94c6400fb6f6410fb6c",
  "5671": "c745d4",
  "5672": "45c8488d75c8",
  "5673": "3aff15",
  "5674": "488b7db8ff15",
  "5675": "55415741564155534883ec3",
  "5676": "55415741564155534883ec30488d6c245",
  "5677": "488bf0498bfd",
  "5678": "488bf0498bfd488d05",
  "5679": "4883c4105b415d415e415f5d48ff20cccccccccccccccccccccccccccccc",
  "5680": "48897dd",
  "5681": "cc0074",
  "5682": "b84889",
  "5683": "5541574156534883ec38",
  "5684": "5541574156534883ec38488d6c245",
  "5685": "4883c4085b415f48ff20cccccccccccc",
  "5686": "0488bdf4c8bf64c8bfa",
  "5687": "4c8b2b",
  "5688": "4c8b2b498bfdff15",
  "5689": "d8b343f",
  "5690": "488bca",
  "5691": "33e4",
  "5692": "488b7f08488d05",
  "5693": "08488d05",
  "5694": "488b7f10488d05",
  "5695": "48ff20555350488d6c2410488bdf",
  "5696": "6749",
  "5697": "60488965a",
  "5698": "488b472",
  "5699": "498bfe498bf5",
  "5700": "440f29",
  "5701": "488bbd30ffffff",
  "5702": "bd30ffffffff15",
  "5703": "488b7b104c8d1d",
  "5704": "807dc000740d488bbd",
  "5705": "88488b",
  "5706": "554157415641554154534883ec28488b",
  "5707": "554157415641554154534883ec28488b6f1848896c2418488d",
  "5708": "f34",
  "5709": "e4d",
  "5710": "488995",
  "5711": "051e",
  "5712": "10488b7f104c8d1d",
  "5713": "48837b480075",
  "5714": "0500488b7dc",
  "5715": "50807dd800740a488b7dc0ff15",
  "5716": "0500904883c4185b",
  "5717": "0500904883c44",
  "5718": "0500488b12498bff488bf3ff15",
  "5719": "0500488b7b18",
  "5720": "0500f083",
  "5721": "0500833c",
  "5722": "0500498d7d",
  "5723": "4585b",
  "5724": "a5e",
  "5725": "048897a",
  "5726": "0006",
  "5727": "0400ff15",
  "5728": "0100009b",
  "5729": "58000000",
  "5730": "230000010a000000",
  "5731": "f70b0000",
  "5732": "062acccc",
  "5733": "7c1600000afe137b1700000a",
  "5734": "4a02027b",
  "5735": "00002b2acccc",
  "5736": "0b300500",
  "5737": "4500000a2c",
  "5738": "284400000a",
  "5739": "0b072c",
  "5740": "0c086f",
  "5741": "00002b2a",
  "5742": "1628d4030006",
  "5743": "2e281000000",
  "5744": "2e281000000673",
  "5745": "2e2810000006739d",
  "5746": "2e2810000006739d00000a7a",
  "5747": "0110000002",
  "5748": "00000afe06",
  "5749": "02284400000a001e287300000a6fbe00000a26",
  "5750": "162828",
  "5751": "16282800002b",
  "5752": "c600000a2c",
  "5753": "0000001a000011027b",
  "5754": "2b06066fff030006282500002b1201",
  "5755": "2b06066fff030006282500002b1201726905007028a100000a",
  "5756": "2b06066fff030006282500002b1201726905007028a100000a120128",
  "5757": "2b06066fff030006282500002b1201726905007028a100000a120128a300000a",
  "5758": "00000a26de",
  "5759": "0a03",
  "5760": "13027b",
  "5761": "28c503000628a000000a120072",
  "5762": "13041104",
  "5763": "26027b",
  "5764": "00001b036f1d",
  "5765": "00001b036f1d01000a6f",
  "5766": "12027b",
  "5767": "03172",
  "5768": "152e",
  "5769": "360203",
  "5770": "046f04010006",
  "5771": "046fff000006",
  "5772": "080702",
  "5773": "156fc1",
  "5774": "282d00002b120028a300000a",
  "5775": "c40300062acccccc32027b",
  "5776": "2a02000a",
  "5777": "2e02000a",
  "5778": "02283002000a",
  "5779": "257bb30100041758",
  "5780": "257bb301000417587db3010004",
  "5781": "2802000a6f3b",
  "5782": "0a12",
  "5783": "130712",
  "5784": "1307120728",
  "5785": "5e027b",
  "5786": "0003000a",
  "5787": "0603000a",
  "5788": "2e03000a",
  "5789": "03000a262b",
  "5790": "7103000a",
  "5791": "6b03000a",
  "5792": "95010004",
  "5793": "04000a0a",
  "5794": "1428",
  "5795": "0b04",
  "5796": "04000a02",
  "5797": "05000a2acccc",
  "5798": "1405000a7b",
  "5799": "05000a06",
  "5800": "02006c",
  "5801": "93010004",
  "5802": "0408",
  "5803": "0228be05000a",
  "5804": "0228c205000a",
  "5805": "254c",
  "5806": "0306000a",
  "5807": "0973",
  "5808": "0401",
  "5809": "0600304",
  "5810": "43121600",
  "5811": "38601",
  "5812": "f5cac00",
  "5813": "253e",
  "5814": "0400000083185",
  "5815": "240a",
  "5816": "ff45c803",
  "5817": "6275704",
  "5818": "04000000c6006434bd0b",
  "5819": "0400000083005e",
  "5820": "040000008608dc34930b",
  "5821": "9321601",
  "5822": "040000008608785c1201",
  "5823": "04000000860826171601",
  "5824": "040000008608314",
  "5825": "e43990b",
  "5826": "00000100012d00000100",
  "5827": "000002000e5000000100",
  "5828": "b91700000100",
  "5829": "012d00000200b714",
  "5830": "c314",
  "5831": "021300",
  "5832": "7906",
  "5833": "02514b",
  "5834": "05514b",
  "5835": "09514b3501",
  "5836": "374",
  "5837": "48230100005958b0030000cd57b0030000",
  "5838": "3131241a",
  "5839": "0000354a",
  "5840": "0d11",
  "5841": "1000200",
  "5842": "4173796e6349664e65636573736172795f536c6f77",
  "5843": "3e63",
  "5844": "3c544f7574707574",
  "5845": "697469616c69",
  "5846": "7761",
  "5847": "003c3e3",
  "5848": "6032",
  "5849": "645f5f3",
  "5850": "63657074",
  "5851": "556e",
  "5852": "4e756d6265724f664",
  "5853": "36f6e",
  "5854": "36f6e63757272656e74",
  "5855": "6c65617365526573657276",
  "5856": "06172616c",
  "5857": "06172616c6c65",
  "5858": "4d61784d657373616765",
  "5859": "73506572",
  "5860": "735065725461736b",
  "5861": "63686564756c6572",
  "5862": "73006765745f",
  "5863": "1c1c",
  "5864": "1e001e011e02",
  "5865": "12809",
  "5866": "06151280bd02",
  "5867": "151280c4011d1300",
  "5868": "151181850213001301",
  "5869": "151280c401151281110213001301",
  "5870": "1110215128",
  "5871": "46961676e6f73746963732e54726163696e672",
  "5872": "21c03",
  "5873": "09000a",
  "5874": "09004e",
  "5875": "940900",
  "5876": "4d0900",
  "5877": "9903",
  "5878": "901004",
  "5879": "02002c",
  "5880": "0300dc1f",
  "5881": "60011181f48",
  "5882": "60013e8",
  "5883": "74013e8",
  "5884": "0040151280e8013e8",
  "5885": "19c013e83",
  "5886": "2912",
  "5887": "58023e3e8",
  "5888": "0fc023e3e81a",
  "5889": "1164015128",
  "5890": "4015128158023e3e82d",
  "5891": "154033e3e3e8",
  "5892": "013e85",
  "5893": "023e3e84",
  "5894": "7134015128",
  "5895": "0151259",
  "5896": "134015123c013e",
  "5897": "1340151281ac013e83",
  "5898": "4be02118",
  "5899": "1511818502151280c4013e",
  "5900": "0e10012a",
  "5901": "07151280e8013e101511818502",
  "5902": "013e165215121401151181850213000a",
  "5903": "0811168",
  "5904": "60321309",
  "5905": "590407",
  "5906": "4170100506",
  "5907": "39049",
  "5908": "2059217a",
  "5909": "9095",
  "5910": "0566",
  "5911": "4951e",
  "5912": "04b79",
  "5913": "0c05c",
  "5914": "a292",
  "5915": "34a51c",
  "5916": "23a52",
  "5917": "9217b",
  "5918": "92b42",
  "5919": "9290229524294a",
  "5920": "042702",
  "5921": "2953",
  "5922": "677261",
  "5923": "206265",
  "5924": "756e",
  "5925": "20696e",
  "5926": "7372",
  "5927": "537472",
  "5928": "0234",
  "5929": "0133",
  "5930": "000001000000",
  "5931": "e200",
  "5932": "9404100",
  "5933": "09803",
  "5934": "6166",
  "5935": "48616e64",
  "5936": "0053797374656d2e52756e74696d65",
  "5937": "479",
  "5938": "6661756c74",
  "5939": "616765",
  "5940": "6465",
  "5941": "4f7074696f6e",
  "5942": "253",
  "5943": "4963",
  "5944": "010054",
  "5945": "2e4e455",
  "5946": "92e3",
  "5947": "01000b",
  "5948": "0454727565",
  "5949": "04547275650000",
  "5950": "010015",
  "5951": "e202",
  "5952": "64f",
  "5953": "2055",
  "5954": "9e000000",
  "5955": "d86",
  "5956": "41323",
  "5957": "7c000000",
  "5958": "6f000000",
  "5959": "73000000",
  "5960": "79007300740065006d002e",
  "5961": "004e0061006d00",
  "5962": "650072007300",
  "5963": "65007200730069006f006e",
  "5964": "39002e",
  "5965": "39002e0030002e",
  "5966": "0031003",
  "5967": "0043006f00",
  "5968": "720076006500",
  "5969": "6200",
  "5970": "060a2b0601040182370201",
  "5971": "0303",
  "5972": "003020102021333",
  "5973": "07e3",
  "5974": "07e310b3009060355040613025553311330110603550408130a57617368696e67746f6e3110300e060355040713075265646d6f6e64311e301c060355040a13154d6963726f736f667420436f72706f726174696f6e",
  "5975": "07e310b3009060355040613025553311330110603550408130a57617368696e67746f6e3110300e060355040713075265646d6f6e64311e301c060355040a13154d6963726f736f667420436f72706f726174696f6e3",
  "5976": "07e310b3009060355040613025553311330110603550408130a57617368696e67746f6e3110300e060355040713075265646d6f6e64311e301c060355040a13154d6963726f736f667420436f72706f726174696f6e3128302",
  "5977": "07e310b3009060355040613025553311330110603550408130a57617368696e67746f6e3110300e060355040713075265646d6f6e64311e301c060355040a13154d6963726f736f667420436f72706f726174696f6e31283026",
  "5978": "07e310b3009060355040613025553311330110603550408130a57617368696e67746f6e3110300e060355040713075265646d6f6e64311e301c060355040a13154d6963726f736f667420436f72706f726174696f6e31283026060355040313",
  "5979": "07e310b3009060355040613025553311330110603550408130a57617368696e67746f6e3110300e060355040713075265646d6f6e64311e301c060355040a13154d6963726f736f667420436f72706f726174696f6e312830260603550403131f",
  "5980": "07e310b3009060355040613025553311330110603550408130a57617368696e67746f6e3110300e060355040713075265646d6f6e64311e301c060355040a13154d6963726f736f667420436f72706f726174696f6e312830260603550403131f4d6963726f736f66742043",
  "5981": "07e310b3009060355040613025553311330110603550408130a57617368696e67746f6e3110300e060355040713075265646d6f6e64311e301c060355040a13154d6963726f736f667420436f72706f726174696f6e312830260603550403131f4d6963726f736f667420436f6465",
  "5982": "07e310b3009060355040613025553311330110603550408130a57617368696e67746f6e3110300e060355040713075265646d6f6e64311e301c060355040a13154d6963726f736f667420436f72706f726174696f6e312830260603550403131f4d6963726f736f667420436f6465205",
  "5983": "07e310b3009060355040613025553311330110603550408130a57617368696e67746f6e3110300e060355040713075265646d6f6e64311e301c060355040a13154d6963726f736f667420436f72706f726174696f6e312830260603550403131f4d6963726f736f667420436f6465205369676e",
  "5984": "07e310b3009060355040613025553311330110603550408130a57617368696e67746f6e3110300e060355040713075265646d6f6e64311e301c060355040a13154d6963726f736f667420436f72706f726174696f6e312830260603550403131f4d6963726f736f667420436f6465205369676e696e672",
  "5985": "07e310b3009060355040613025553311330110603550408130a57617368696e67746f6e3110300e060355040713075265646d6f6e64311e301c060355040a13154d6963726f736f667420436f72706f726174696f6e312830260603550403131f4d6963726f736f667420436f6465205369676e696e6720504341203230313",
  "5986": "21e",
  "5987": "278",
  "5988": "4161",
  "5989": "91b",
  "5990": "01d0603551d0e041604",
  "5991": "204f",
  "5992": "130d",
  "5993": "301f0603551d230418301",
  "5994": "a8ca",
  "5995": "7502",
  "5996": "2e63726c",
  "5997": "2e63726c3",
  "5998": "30028",
  "5999": "2e637274",
  "6000": "d14",
  "6001": "1c1",
  "6002": "ebb",
  "6003": "0c0f",
  "6004": "3dc",
  "6005": "1455",
  "6006": "452",
  "6007": "c8e",
  "6008": "e7b",
  "6009": "082022",
  "6010": "0820222300",
  "6011": "0820222300d06092a864886f70d010101",
  "6012": "0820222300d06092a864886f70d0101010500038202",
  "6013": "0820222300d06092a864886f70d01010105000382020f",
  "6014": "0820222300d06092a864886f70d01010105000382020f00308",
  "6015": "0820222300d06092a864886f70d01010105000382020f00308202",
  "6016": "0820222300d06092a864886f70d01010105000382020f003082020a02",
  "6017": "0820222300d06092a864886f70d01010105000382020f003082020a028202",
  "6018": "9a92",
  "6019": "7965",
  "6020": "fb3",
  "6021": "ded",
  "6022": "7b8",
  "6023": "bd9",
  "6024": "7ed",
  "6025": "1467",
  "6026": "2c8",
  "6027": "688",
  "6028": "092b06010401823715",
  "6029": "0603551d0f",
  "6030": "040403",
  "6031": "f303",
  "6032": "06082b06010505070101",
  "6033": "e80a",
  "6034": "2602",
  "6035": "2c3a",
  "6036": "989",
  "6037": "157d",
  "6038": "1d63",
  "6039": "6a15",
  "6040": "75e",
  "6041": "45dc",
  "6042": "06092a864886f70d0109",
  "6043": "1cb",
  "6044": "4fb",
  "6045": "acf",
  "6046": "dfc",
  "6047": "f38",
  "6048": "0b2a864886f70d",
  "6049": "0b2a864886f70d0109",
  "6050": "3230323",
  "6051": "323032343",
  "6052": "3230323431323",
  "6053": "73025",
  "6054": "73025060355040b13",
  "6055": "73025060355040b131e",
  "6056": "73025060355040b131e6e",
  "6057": "73025060355040b131e6e5368",
  "6058": "73025060355040b131e6e536869656c64",
  "6059": "73025060355040b131e6e536869656c64205",
  "6060": "73025060355040b131e6e536869656c642054535",
  "6061": "73025060355040b131e6e536869656c64205453532",
  "6062": "73025060355040b131e6e536869656c6420545353204553",
  "6063": "73025060355040b131e6e536869656c64205453532045534e",
  "6064": "73025060355040b131e6e536869656c64205453532045534e3a",
  "6065": "45302",
  "6066": "45302d443",
  "6067": "45302d4439343",
  "6068": "45302d44393437312",
  "6069": "45302d4439343731253023",
  "6070": "45302d4439343731253023060355040313",
  "6071": "45302d44393437312530230603550403131c",
  "6072": "45302d44393437312530230603550403131c4d6963726f736f66742054696d652d5374616d702",
  "6073": "45302d44393437312530230603550403131c4d6963726f736f66742054696d652d5374616d702053",
  "6074": "45302d44393437312530230603550403131c4d6963726f736f66742054696d652d5374616d7020536572766963",
  "6075": "07c310b3009060355040613025553311330110603550408130a57617368696e67746f6e3110300e060355040713075265646d6f6e64311e301c060355040a13154d6963726f736f667420436f72706f726174696f6e312630240603550403131d4d6963726f736f66742054696d652d5374616d7020504341203230313",
  "6076": "6ad",
  "6077": "a8f",
  "6078": "7be",
  "6079": "c403",
  "6080": "0300d06092a864886f70d01010b",
  "6081": "699",
  "6082": "8a8",
  "6083": "7408",
  "6084": "c8c",
  "6085": "db9",
  "6086": "7a6",
  "6087": "a4e",
  "6088": "02bc",
  "6089": "2d41",
  "6090": "3fc",
  "6091": "e5a",
  "6092": "ba3",
  "6093": "8a3a",
  "6094": "b601",
  "6095": "049e",
  "6096": "c8f",
  "6097": "428",
  "6098": "bef",
  "6099": "5be",
  "6100": "e400",
  "6101": "7602100",
  "6102": "012",
  "6103": "0000004",
  "6104": "ed2e",
  "6105": "aca",
  "6106": "ef5",
  "6107": "c3a",
  "6108": "1c00",
  "6109": "6f99",
  "6110": "848",
  "6111": "8b41",
  "6112": "76f",
  "6113": "74e",
  "6114": "7802",
  "6115": "4b4b",
  "6116": "834",
  "6117": "779",
  "6118": "35f",
  "6119": "e9f",
  "6120": "00001d",
  "6121": "0000008b",
  "6122": "80000",
  "6123": "6e0064",
  "6124": "0044",
  "6125": "06f00",
  "6126": "700075",
  "6127": "0101000130000038e40300",
  "6128": "0400000019",
  "6129": "0d04",
  "6130": "60f",
  "6131": "06000019",
  "6132": "0804000832043003f0015038e403009101",
  "6133": "0219",
  "6134": "3c9b",
  "6135": "0e07000e220a3009c007d005e003f00150000038e40300e18",
  "6136": "6404",
  "6137": "5bc",
  "6138": "538",
  "6139": "6b4",
  "6140": "28d6",
  "6141": "21003",
  "6142": "dc5",
  "6143": "2405",
  "6144": "f102",
  "6145": "0c06000c52",
  "6146": "3eac",
  "6147": "2be",
  "6148": "728a",
  "6149": "0719",
  "6150": "0e0e",
  "6151": "0a8d",
  "6152": "3cab",
  "6153": "eb9",
  "6154": "04de",
  "6155": "020028",
  "6156": "0030c",
  "6157": "6cb",
  "6158": "1108001",
  "6159": "1108001101",
  "6160": "000a3009c007d005e003f0015",
  "6161": "000a3009c007d005e003f0015038e40300",
  "6162": "0528",
  "6163": "61f",
  "6164": "974",
  "6165": "83d",
  "6166": "3c3a",
  "6167": "e474",
  "6168": "6c03",
  "6169": "904",
  "6170": "8a5",
  "6171": "6d9",
  "6172": "2629",
  "6173": "494",
  "6174": "0014",
  "6175": "99a",
  "6176": "4de",
  "6177": "1d5",
  "6178": "1f4",
  "6179": "3c02",
  "6180": "668",
  "6181": "993",
  "6182": "0a73",
  "6183": "400c",
  "6184": "003f",
  "6185": "6d6f",
  "6186": "010000d8",
  "6187": "2cf",
  "6188": "2222",
  "6189": "0d9a",
  "6190": "ae3",
  "6191": "d18",
  "6192": "253a",
  "6193": "1fa",
  "6194": "4f5",
  "6195": "0a23",
  "6196": "6e65",
  "6197": "61646572",
  "6198": "004d006500730073006100",
  "6199": "6c696e6b",
  "6200": "6f757263654b657973",
  "6201": "3e0a20202",
  "6202": "3c408c3",
  "6203": "3f488d05",
  "6204": "0488bdfff15",
  "6205": "060048",
  "6206": "0600488b35",
  "6207": "0fb64",
  "6208": "440f",
  "6209": "c00fb6c",
  "6210": "06004c8bf8498bff",
  "6211": "41574156415541545",
  "6212": "cc000000",
  "6213": "4883c4185b415c415d415e415f5dc3",
  "6214": "4883c42",
  "6215": "0600498d7e",
  "6216": "06004c8bf0ff15",
  "6217": "00498bffff15",
  "6218": "300074",
  "6219": "05dc3",
  "6220": "7b08ff53",
  "6221": "f048897d",
  "6222": "498bfe498bd7488bf3",
  "6223": "5541574156415553",
  "6224": "5541574156415553488d6c24",
  "6225": "5541574156415553488d6c242",
  "6226": "7f1",
  "6227": "033c0488945f",
  "6228": "90488b",
  "6229": "048897de",
  "6230": "48ff20554157415",
  "6231": "488bf8488bf3ff15",
  "6232": "0600904883c4085b415e415f5dc3",
  "6233": "28ff15",
  "6234": "0600488b7b",
  "6235": "498b55",
  "6236": "5d2753",
  "6237": "06004a",
  "6238": "03000000eb",
  "6239": "60807dc800740a488b7d",
  "6240": "498b7f08",
  "6241": "55415741564155534883ec10488d6c243048897dd8488bdf4c8bf",
  "6242": "458b",
  "6243": "940000003b",
  "6244": "10488d",
  "6245": "04883",
  "6246": "0600488b36498bffff15",
  "6247": "06004c8bf0488b",
  "6248": "0600833c",
  "6249": "498bf7498bd6",
  "6250": "415e415f5dc3ff15",
  "6251": "0275",
  "6252": "0600488b3bff15",
  "6253": "0100004885db",
  "6254": "2f01",
  "6255": "488bfb498bf6",
  "6256": "b033c089",
  "6257": "02000000ff15",
  "6258": "037d",
  "6259": "114939",
  "6260": "1149393e74",
  "6261": "45d0488d75d0488b7d",
  "6262": "50807dd000740a488b7dc0ff15",
  "6263": "4c8b3f498bffff15",
  "6264": "08393fff15",
  "6265": "e4d8b",
  "6266": "033c0488945c8",
  "6267": "45b0440f29",
  "6268": "45b0440f2945c",
  "6269": "86000000",
  "6270": "41575350488bdf4c8bfeff15",
  "6271": "4d85ff0f8",
  "6272": "488b7dc8488b3fff15",
  "6273": "3f633d233c9",
  "6274": "4883c4085b5d48ff20ff15",
  "6275": "488b78",
  "6276": "0f8e",
  "6277": "1b808000500393f41ff13",
  "6278": "00fb6ff",
  "6279": "3033c0488945",
  "6280": "488b772",
  "6281": "033c9",
  "6282": "004c3b",
  "6283": "55415741564155415453488",
  "6284": "104d8b",
  "6285": "c0488d75",
  "6286": "20ffffffff15",
  "6287": "023c",
  "6288": "4585ff74",
  "6289": "bd08ffffff",
  "6290": "488d75b8",
  "6291": "418bf6",
  "6292": "18488",
  "6293": "0488bf8498bf4ff15",
  "6294": "554157534883ec10488b2f48892c24488d6d3",
  "6295": "488bf8488bf3",
  "6296": "488b7b18393fff15",
  "6297": "0500488bf8488d05",
  "6298": "05004c8b30498bfe4c8d1d",
  "6299": "a9f",
  "6300": "0500488bf0498bff",
  "6301": "0500488bd8",
  "6302": "033ff",
  "6303": "0500904883c4085b5dc3",
  "6304": "8e000000",
  "6305": "4c8bea",
  "6306": "05004c8bf8ff15",
  "6307": "ec3b",
  "6308": "8a8a",
  "6309": "0500498bfdff15",
  "6310": "0500488b36498bffff15",
  "6311": "8bc6",
  "6312": "7a5e",
  "6313": "050048ff20",
  "6314": "de000000",
  "6315": "b803",
  "6316": "690d",
  "6317": "0903",
  "6318": "0111",
  "6319": "41000000",
  "6320": "7b000000",
  "6321": "c90a",
  "6322": "00001102281100000a",
  "6323": "067c1600000a",
  "6324": "a40700001b",
  "6325": "0e0428",
  "6326": "3600000a",
  "6327": "022d0b72",
  "6328": "1304de",
  "6329": "0c120228",
  "6330": "097d",
  "6331": "02057d",
  "6332": "0a062c",
  "6333": "062d08027b",
  "6334": "0000110f0128250100062d10280a0000067219050070739700000a7a05",
  "6335": "0000110f0128250100062d10280a0000067219050070739700000a7a0514fe01",
  "6336": "0000110f0128250100062d10280a0000067219050070739700000a7a0514fe010e04",
  "6337": "0000110f0128250100062d10280a0000067219050070739700000a7a0514fe010e045f2c",
  "6338": "0000110f0128250100062d10280a0000067219050070739700000a7a0514fe010e045f2c1028",
  "6339": "0000110f0128250100062d10280a0000067219050070739700000a7a0514fe010e045f2c102809000006729f050070739700000a7a",
  "6340": "f900000a",
  "6341": "032d0b72df050070733f00000a7a027b",
  "6342": "06007028a100000a1201",
  "6343": "2a01",
  "6344": "4a0474",
  "6345": "021ffe",
  "6346": "021ffe7d",
  "6347": "cc030006",
  "6348": "f401000a",
  "6349": "02284400000a1628d4030006",
  "6350": "02284400000a1628d40300062000000",
  "6351": "02284400000a1628d403000620000005006",
  "6352": "02284400000a1628d403000620000005006028",
  "6353": "02284400000a1628d4030006200000050060287300000a6f3c01000a26",
  "6354": "02000a02",
  "6355": "ea030006",
  "6356": "2e02000a7b36",
  "6357": "2b0116",
  "6358": "6ff1030006",
  "6359": "11052c071104282d00000adc",
  "6360": "1305161306",
  "6361": "13051613061105",
  "6362": "130516130611051206",
  "6363": "2c071105",
  "6364": "2c071105282d00000adc",
  "6365": "5502000a",
  "6366": "0a28",
  "6367": "6f01",
  "6368": "17580b0706",
  "6369": "110b",
  "6370": "011c000002",
  "6371": "0359",
  "6372": "00001b036f1d01000a6f2e010006",
  "6373": "00001b036f1d01000a6f2e0100062acc",
  "6374": "8202000a6f",
  "6375": "0010004",
  "6376": "2acccc46027b",
  "6377": "c002000a6f",
  "6378": "ef02000a6f",
  "6379": "090038",
  "6380": "22001",
  "6381": "00000125",
  "6382": "ac03000a6f",
  "6383": "c203000a",
  "6384": "04000a02147d",
  "6385": "04000a13",
  "6386": "05000a02",
  "6387": "920100046f16010006",
  "6388": "05000a6fa4030006",
  "6389": "8099",
  "6390": "05000afe06",
  "6391": "f005000a",
  "6392": "0d06000a",
  "6393": "1306000a",
  "6394": "4806000a",
  "6395": "010105",
  "6396": "0b01",
  "6397": "09e",
  "6398": "12d06",
  "6399": "12100",
  "6400": "030000009308",
  "6401": "2000200",
  "6402": "9b5e",
  "6403": "e109",
  "6404": "1b00",
  "6405": "64275",
  "6406": "038d0c",
  "6407": "657a203",
  "6408": "0e01",
  "6409": "000000000000c605",
  "6410": "ad4c",
  "6411": "ad4c121a",
  "6412": "41c1201",
  "6413": "ca23",
  "6414": "f52a",
  "6415": "dd31a90d",
  "6416": "a570c",
  "6417": "14b8",
  "6418": "00400000083",
  "6419": "a216",
  "6420": "00000100a33a",
  "6421": "2c00",
  "6422": "b40374",
  "6423": "710a",
  "6424": "ec04",
  "6425": "06514be108",
  "6426": "7406",
  "6427": "a407",
  "6428": "49b040518",
  "6429": "5375",
  "6430": "525923010000",
  "6431": "7000200",
  "6432": "0102001",
  "6433": "00010f02000000",
  "6434": "c50726f63657373",
  "6435": "3e635f5f",
  "6436": "3e635f5f446973706c617943",
  "6437": "3e635f5f446973706c6179436c",
  "6438": "3e635f5f446973706c6179436c6173",
  "6439": "3e635f5f446973706c6179436c617373",
  "6440": "576974",
  "6441": "44617461666c6f",
  "6442": "43616e63656c6c6174696f6e",
  "6443": "6616c75655461736b536f75726365",
  "6444": "005461736b",
  "6445": "417761",
  "6446": "616e6765",
  "6447": "446973706f73",
  "6448": "4e657874",
  "6449": "6f636b",
  "6450": "486173",
  "6451": "06f7374706f6e65644d657373616765",
  "6452": "2c53797374656d2e436f6c6c656374696f6e732e47656e657269632e494c6973743c543",
  "6453": "426c6f636b3c54",
  "6454": "616c6c",
  "6455": "6261",
  "6456": "06172616c6c656c",
  "6457": "797374656d2e546872656164696e672e5461736b732e44617461666c6f772e496e",
  "6458": "797374656d2e546872656164696e672e5461736b732e44617461666c6f772e496e7465726e616c",
  "6459": "466f724465627567676572",
  "6460": "5363686564756c6572",
  "6461": "03d002",
  "6462": "151280c8011e00",
  "6463": "151280850102",
  "6464": "09200015128",
  "6465": "151275011300",
  "6466": "151280c8011301",
  "6467": "60322b",
  "6468": "01130007151280cc",
  "6469": "210011300",
  "6470": "12809d1c",
  "6471": "1280a8",
  "6472": "1511819901",
  "6473": "13011301",
  "6474": "151280c401151280c503130013011302",
  "6475": "25c01",
  "6476": "22d020a",
  "6477": "22d020a151181850202",
  "6478": "58e403800100000058e403800100000058e403800100000058e403800100000058e403800100000058e403800100000058e403800100000058e403800100000058e403800100000058e403800100000058e403800100000058e403800100000058e403800100000058e403800100000058e403800100000058e403800100000058e403800100000058e403800100000058e403800100000058e403800100000058e403800100000058e403800100000058e403800100000058e403800100000058e403800100000058e403800100000058e403800100000058e403800100000058e403800100000058e403800100000058e403800100000058e403800100000058e403800100000058e403800100000058e403800100000058e403800100000058e403800100000058e403800100000058e403800100000058e403800100000058e403800100000058e403800100000058e403800100000058e403800100000058e403800100000058e403800100000058e403800100000058e403800100000058e403800100000058e403800100000058e403800100000058e403800100000058e403800100000058e403800100000058e403800100000058e403800100000058e403800100000058e403800100000058e403800100000058e403800100000058e403800100000058e403800100000058e403800100000058e403800100000058e403800100000058e403800100000058e403800100000058e403800100000058e403800100000058e403800100000058e403800100000058e403800100000058e403800100000058e403800100000058e403800100000058e403800100000058e403800100000058e403800100000058e403800100000058e403800100000058e403800100000058e403800100000058e403800100000058e403800100000058e403800100000058e403800100000058e403800100000058e403800100000058e403800100000058e403800100000058e403800100000058e403800100000058e403800100000058e403800100000058e403800100000058e403800100000058e403800100000058e403800100000058e403800100000058e403800100000058e403800100000058e403800100000058e403800100000058e403800100000058e403800100000058e403800100000058e403800100000058e403800100000058e403800100000058e403800100000058e403800100000058e403800100000058e403800100000058e403800100000058e403800100000058e403800100000058e403800100000058e403800100000058e403800100000058e403800100000058e403800100000058e403800100000058e403800100000058e403800100000058e403800100000058e403800100000058e403800100000058e4038001000000",
  "6479": "09001c",
  "6480": "5b0900",
  "6481": "680900",
  "6482": "02201",
  "6483": "0300b4390100",
  "6484": "35a5",
  "6485": "053a",
  "6486": "00401512808c013e8",
  "6487": "013e815",
  "6488": "1909",
  "6489": "190013e835",
  "6490": "0040151281ac013e83",
  "6491": "1953e",
  "6492": "14015128",
  "6493": "224013e8",
  "6494": "401512822c013e843",
  "6495": "254013e8",
  "6496": "0151258023e3e8",
  "6497": "12c023e3e8",
  "6498": "148023e3e8",
  "6499": "75013e2c5015128",
  "6500": "2134015128",
  "6501": "134015121c013e",
  "6502": "1134015128",
  "6503": "013e13048",
  "6504": "160083",
  "6505": "081015118",
  "6506": "013e1015118",
  "6507": "c013e1015128",
  "6508": "031300130113020715128",
  "6509": "1e00091015128",
  "6510": "0002590407",
  "6511": "0493",
  "6512": "9279",
  "6513": "9892",
  "6514": "02077a04a",
  "6515": "5389",
  "6516": "24694a",
  "6517": "4909",
  "6518": "03213",
  "6519": "02207",
  "6520": "2965",
  "6521": "2345223",
  "6522": "217a234a2335",
  "6523": "7a05a6b7513",
  "6524": "4a51e",
  "6525": "770a",
  "6526": "122039212",
  "6527": "2072",
  "6528": "4c01",
  "6529": "010002",
  "6530": "29000000",
  "6531": "7874",
  "6532": "0714",
  "6533": "0e000000",
  "6534": "c401",
  "6535": "003300",
  "6536": "00583530394368",
  "6537": "5479",
  "6538": "41747472696275746500417373656d626c",
  "6539": "656e74",
  "6540": "536572766963",
  "6541": "616773",
  "6542": "075626c",
  "6543": "075626c6963",
  "6544": "6cf",
  "6545": "0320000",
  "6546": "7fc",
  "6547": "02c5",
  "6548": "a9a",
  "6549": "10000000000",
  "6550": "0052"
}